0EE6C8
03D9CA
06D7C6
643E42
008A58
02EB0B
5F9335
56D5BE
7A352E
055B78
794AD3
1ABBA9
03A6CE
745AC4
78F1E4
701DE2
68FA15
552A84
4F9207
5B674D
584DCA
6F0718
5F0DC7
779F98
7D89DF
1B6177
0E95D9
748E47
76FB8F
6BA26A
72E371
691F60
65803C
5848AD
6D2F6E
7F620E
76F805
08C64F
098A76
07C243
11EFA6
05F2EC
11E0F7
5A0179
648366
68537E
0DE3EA
036BE3
5B3311
263C42
10B3B3
7E79EE
12413D
14A7D6
037F38
00CBF2
18CFE1
7757E6
0D9535
04562E
08A3C6
14F2BE
140208
150624
111B71
7ED6BA
7C316A
74C671
09492F
77C2A8
031BBC
7D832F
752641
0913E8
03AC1D
02E829
7A5870
118D25
16ED24
0DDC83
7E642B
0C2A66
7C15A0
0223BF
5CA148
6F8854
78E3EF
11C11E
2489A0
11744F
06DF50
6B40D4
72BAF1
091915
7D03EA
7212C6
006983
5F6028
62B218
7B760B
677585
0CBC59
0CEF67
795571
038433
145CAA
7862A1
7A7685
7D4195
7C16DF
6E96A2
5A5D39
65C0DB
0D3B5B
11E8E6
6E23D0
02E914
755810
1779E9
01307A
08A31E
2241B3
044EF8
159D34
676E1D
726783
798383
03269D
1C2F2F
1D0203
02D55A
1C4230
09EC80
09B60A
1F7692
1CC9FB
1326BF
0BB4D4
68BE0D
7CA350
037A3D
0824D4
7CDFCE
119EE8
025072
0CFE69
213554
21EF41
100D4D
251DCD
2D907D
00112B
71523B
7699D8
061C36
6E493C
7E6B93
024FA8
1C4C59
260999
7EF683
1EC84F
34DFEF
0BCB5F
042E44
092502
0B9841
7289EB
0B123C
06979E
6CE0DA
0265E0
06686E
7EDB94
0140FE
65BAE4
0BB395
03BF72
04B407
173669
1F49CF
686738
7D5B78
79C022
012A73
063AE2
1E9813
1ABB77
0166AD
1C0ABF
2BCF0B
07C819
0E4367
27C74F
65D26B
071290
7277F6
18E6C0
01858B
16F87A
2778FE
152B6F
2D36E7
14A643
190907
7F70AC
0B7C78
095FBB
0E2984
18C308
057DBF
098EC9
16B495
0F59FF
0821C0
7E2046
1751EF
039EBE
772D90
73820A
6AE419
03AFA7
78E032
705532
6FCF3D
08942D
188C93
79BF7A
159429
7DD8D7
11600F
774DCE
0D000C
7EB0FA
01AB8E
77C1EF
058904
770563
767EF9
149DF1
1933E3
15C7CD
14D466
19BBCF
6C549B
7777F2
123A9F
64F861
64F7B9
5EAFAB
0473BC
02CE67
615033
07E64F
0D7710
1069C6
084CDF
16B11C
08219E
1A2153
0D2ED7
0E9CBA
7A846A
046C97
16B92C
76F661
7A8566
0AF587
7F1444
1FDD97
023C10
01B520
7F11A5
138BEF
7AB90A
049917
7FD684
7BD5FD
6BADC0
0EB851
63BD16
0ADF61
17B18D
1180C3
0422FF
0905D0
0F4E11
0B384F
1466C2
2AEF3D
341BFB
17F50E
06937D
125D9E
62CB10
11B09A
284534
1DD50A
02A2C2
11347A
0926E9
1573C9
220DCB
0255F3
1EFB5D
130F27
7FDFC1
5916EB
6AD3B6
178FEE
34E9F6
78B114
7EB26B
789C4D
3C0096
30A808
196A9C
0C8893
0675BC
0F9D2B
06D3E9
692C27
508A15
06B873
136922
08BD12
03A1B1
74A127
18C708
0E960B
7816F0
09AC57
798127
756ACE
7E49E4
77DB7F
77F099
2D7B52
1B09FA
16C8A3
0969D3
7A0AE9
0D04E6
0EAD81
658C2A
7DC8B8
608F10
5E29D8
6FD4F1
72C450
0725D4
7A775F
058138
1E440F
5FE458
6CC0AD
7622F6
68579F
00B60F
7072F3
6BC350
0075A3
739AE0
5A18EF
002CE4
206A09
7CF041
75EB85
5868B9
64DE7E
0170B4
76B085
5CAF1C
768E4F
6B3FFA
001205
7217C1
6A5742
70AF92
0373D1
12FB19
7452E7
0DC90C
00011D
016BCA
6BAE36
682730
7D3250
56F21F
540607
78C868
098F1D
00C63F
0DE85F
079BFD
7E368F
045C78
0A8006
79A975
01F9CE
012BE4
160296
0ECA46
0AE408
11AC8A
141FFB
79AAE6
6F2378
71C22A
081FB8
7224ED
795043
000A06
253E3E
7F51DE
170281
0FB7F9
09EA57
1C6887
11F99C
73AADE
6CB2E9
7182FD
0619FC
7C4295
7ED213
78F5B1
213A92
04F15E
1EB181
24A7F8
0E365C
19C2C1
128E60
11FA22
0EBB23
7B1C86
6F6406
7E6AB9
0C7E17
79A7F3
101FC8
1AA8EB
1AC732
08CE70
0A631F
05B2F6
0E833C
036006
7D18C1
0708FE
028145
75C209
78C879
17D933
15A048
140464
742A77
0F79B7
7B6BA0
127664
0A9B49
7CB955
02132B
06704B
08BE0D
7D80E4
01EEFE
033094
793133
01F5BE
01906C
00C37E
02E2EB
6E3C31
0E0C49
7D5E7C
03F455
751148
07DE72
0E718A
74EAAF
1185DF
079EE0
0FBB1F
0E3F9A
0BDB6E
072E6A
024851
6386F4
03AFEA
1A0514
7C8BDA
025119
0B59EE
76B0FA
3327AA
044B7F
759429
152B7F
0F43D8
0F8455
77DCF0
7AF0BF
728448
7E4063
155497
065AAB
72A1E8
743BF7
1B6976
060BB2
0A96C3
11D2E0
0DAC79
235A85
00DB05
140FBA
7E64D3
77D816
7B89B5
0BDD44
02C397
05D9D3
1762E9
0C2DAD
12BACF
0E541D
7F60BF
0C5681
0B8551
110D8C
040346
75D4F9
78810A
7B23EE
05E0E7
05BE6E
0F125D
2885F4
010396
068CEF
075F4E
006716
7E6698
08D141
6E6BD6
024052
75870D
02FE93
1144ED
07B7D8
73C2EB
010A56
133BD9
07C914
02A832
0E2131
103925
798687
7C73BC
1BE143
79C23B
7AD5E0
77D790
7A27D0
19DE8B
099B5E
15B435
7C449D
0F44B2
075DCC
12E4F3
7A1155
6D15F0
7B9357
7F8E4B
76AF46
00CD20
780010
77BEFD
0F7681
122DA5
7458FF
08639D
07E4EF
780E38
038CA8
02D7B6
09F1BE
0E1C04
0E5ADD
0B0803
0C4838
0EABCD
76D0A2
716BDB
00B6A6
035DCC
7EFCAC
135232
100D5E
041B00
7730F8
7B8444
08AE96
05F7B5
036AA4
728D21
6D27D4
026A55
01F245
023E8D
7C01D5
05F0D4
0E4A16
72AED1
703611
65FCB0
0969E3
0164D7
6F1BCD
769C88
6F7CED
74D5B6
70011D
08115D
08D62B
152967
077CCC
737B5A
77863B
736017
7656AB
6AC56D
0B9F23
7D80E4
7A429E
6B3CE6
601908
739F87
75C52E
007ABF
7DDF54
790DAE
782CD3
614499
7BBFF8
6D67A9
659578
6A53DA
7A0956
665A57
7EF3D3
784966
7229C7
78C187
7EED78
72F987
0793AB
7F0260
0FDB4C
79B8BA
6CDB27
680EE0
6F1CEA
566149
73FCB9
07FCA8
02B0C8
71132F
7C77BB
6CD39D
021D32
046FAC
067AA6
76B5D4
74D1D8
03D20F
77C6C9
7F5F91
0DAB5C
0A2D51
00C5B8
778F79
72440F
68E011
03CF3D
073CB3
00230F
70CF39
700431
043CC0
03CE63
7454BC
09E310
115B24
0CBD33
7539C9
01058D
05A6A4
0FDF2A
0EACB8
0C4E2F
002C2B
7ACCF6
734F1E
07402D
7CD24E
1405D5
0D1C6D
19131E
09A79F
77EB9E
7C4966
1CBFD2
0D18E3
07D998
14BB7F
0ED1BF
6FE1A8
7162BF
7DBCEC
1669DF
0953EF
0B1A08
037D0F
6A06E9
02E169
148861
107357
78DE6D
7489E3
06A161
7525FE
679453
74DE5D
772B88
75F4C2
00D39D
09512E
6E2F6A
75F9DF
02F75D
04CF6B
71BC87
723864
0B0F7B
03F2C3
706499
7AD666
777DB6
7E8837
074B2F
6C507A
69BD94
6A61CF
78F3CB
7D77C8
5F826E
5C5964
77B656
699685
775C28
7B589E
7CE820
751B93
6D3C14
76C881
5F84A9
5DBEF4
5CCC89
6A36C1
605F6B
5BB8A1
6ED762
6B168F
5E81A9
5ABBDB
76EB80
7168B5
6F09FA
71FBA4
4FA647
6AADE6
73D46B
78AA00
793953
7A53C9
79CBFF
098266
08780F
1EB6AE
118E64
76C53B
6E71FF
7613A0
12BEBE
018F2E
7B46FD
7C41DD
07FB48
07EE6F
121F4B
17D4F1
0520C0
0EC7B8
1F4E33
1AE33E
16DD48
060780
070F38
0B9C30
1D102B
183AEA
1C2C0A
15F3B6
1C09C3
162C55
785D52
033E9A
142613
0193A2
70C879
611F4F
68B70A
78CAA3
77F4FD
7DCB46
1CC78E
0E719B
7CAED9
1B0553
079E16
11F88F
7DD26B
16E9FF
05AC79
7CFB86
08B1EE
793B7D
58EA18
009129
13394B
03293D
11698F
1BCD78
0ECEBB
01948D
7DD473
186A2B
77FEC1
09EFD8
7F4517
761016
64763A
79905C
02D44D
03E803
770B28
060D77
0F7878
7B4B1E
07FE9F
0C095F
7EDEDA
7FA42F
71D345
592231
6EC508
70D573
7829AE
00BBB1
747FDC
1D3F39
065BEA
7E2D0E
7EF533
6F110E
6BBA77
7678D0
0E17C1
63F993
7468CA
7BB56B
0CBF7F
0DA7F3
117ADD
0E7D88
747D6F
6AE264
740F01
6C980B
191298
16CD07
0C8B97
7AB7BA
036544
732A49
76C343
0449DB
00B3E5
05AE0C
6C3DBC
04C144
0D7A67
778140
7307F2
0E5061
73BDAD
118B60
0531EC
5A7557
5E4799
5FDAE8
690AED
74FA26
0864DC
6C4263
7E81EC
66C636
7B71EA
1732DF
03D5BA
0DBE8F
035F80
72C508
7AF61E
75E375
7D76AB
77CCF2
020B3D
6F9735
09EF73
7F80CB
047F23
028683
7AB0A6
7E13A0
7C8227
01096B
7D6D4C
6B9FEC
011C7D
7AE46C
028911
0B167E
7FED20
029ED3
02D139
7A77E5
0C9A56
0B2C83
7ADFD6
6CDDA4
5A6CD2
6C5521
77911C
71AED5
694AC2
026E54
034773
04477F
073B32
76A7EF
713155
148344
14A265
094A6E
04068D
734299
769185
05AD75
730110
6C8EDE
5D9A84
5EA11E
7B95F6
10E10C
022930
01A2D7
098ADA
796D7E
10AD57
0DC853
040A17
0B7707
0B224A
072B99
174FD6
23C8F3
21DE9C
18068D
13DD97
05B280
793836
7E805A
725375
75451F
082D38
12033E
0D3A81
044A2F
1530CE
191505
1F27BB
17CD67
0694CC
7956B0
7869E7
7C28E4
7892FF
7C2A02
7BD1BB
0BA461
0E2014
7FCC29
10793D
2894F6
226A33
1BB4C3
1C3148
05D0D8
74C100
0EB063
7612B5
0404EA
0E45E4
6BD6E8
0AE8E1
0AAAE2
025386
19741D
147CC7
07CF3D
10C575
0FDC69
79E28A
0B1D60
0DB973
7BB395
70D466
08E208
1141B7
1028B2
7E5DD0
0626B2
0C7FAA
0E8954
14E6C0
6E4A59
7FCD78
01BB27
0910E4
7B1583
6BA190
0DC2D2
0CBF4C
06A24C
096F43
022520
022C23
6F14B9
19E9E1
70B71B
7F5CAF
10F052
00A611
032485
08B87B
1BFE4B
00D120
0AA444
08A3C6
14D013
07825E
786B9C
003159
004662
057A02
03AE46
7EF8CE
7EE0C1
00764A
0DB499
171F9A
0D4D94
02B1E5
086551
093C68
6CBFA0
75322F
6E80F1
7E3476
10195C
72D278
6F2324
6EC625
24C6C5
12B302
13AADE
0BE953
08E842
0F37EB
12BB88
072EDF
784380
75B75A
77F5C6
7B18DA
7CE336
7894F6
129DB6
0F253D
02BD09
0ABC83
041312
02DB61
0302A3
12366D
0C7E6B
04EA28
073BB8
77967C
6F5D35
798516
7D8611
05BF16
0B6683
0B1DF7
7FB2ED
7B70EF
7ED02C
6BA94B
013B9F
71C63A
6B59EE
7CF2BE
6E6E00
726516
6D5E5A
6587A4
13440A
04CDC8
04A361
014C44
039A28
72979E
0544AA
0A17B0
6BE100
681EDE
69759E
685DA6
73BEEC
6CEA6C
6CBB6E
7B81D7
07D566
1BECAA
1A6DBD
766905
6F9B02
039EBE
046FEF
6CFFEB
05713A
6C7BED
6B01FB
767E30
7C7CFA
7CF605
7C386D
76936C
0320B8
078B58
0C5C67
158E53
0D054A
7F443D
0E4D5D
1F3083
6C3D14
6D9C8C
7D2977
000DF5
689AAA
6A07C4
028672
79C454
77DCDF
1220DD
053F29
0607F6
7E50F8
04E8EA
6BADC0
74A87E
769EA1
5FD955
63AD6C
6EBB44
6F3FB7
04194C
095D3D
7C9DCF
0F7271
1DE55C
7D6616
7C1CF7
054C55
00BB6E
731876
5F923A
696217
631E8E
6AE770
59E97D
10D7CF
14B45A
2669DF
0AD1E1
69E1D2
012780
0B3DF2
03D8BE
7CCD0F
7C029F
584FE3
5FD1AA
6EDDDF
75CD2D
0F4080
76E30C
6DAF9E
77280F
7D76CC
01C5F7
0527F5
098809
0C4651
74196D
79A815
740021
70BA83
12031C
169E2B
064F44
09799E
02CDC0
1103D9
099B3D
774D7A
04CED4
07281F
03F9C6
10C282
6D7D06
09A6C5
0B29C3
75491F
00B4D0
05F98B
6A3A19
724D1A
683372
79E492
07487F
0E48A5
02C7EA
0CB167
79A847
03D3C3
7C9246
65D7BA
7503FB
7DE939
6E9A91
781722
065050
1BCE74
2658C4
10B556
7C0FCB
6BF316
7CF733
0AC5F3
7C983D
72BF22
12CF63
19564B
132702
7F543A
7A4217
0F8EB0
74A622
7F52FC
00A5CE
67D7C2
7CFEDE
7861B6
692C6A
76FAE7
162C66
0DCDA2
7DF01B
7BE2E6
03F705
1098A2
773B32
720A30
18CEE5
7BB890
707D80
69758E
68F473
7EF9CA
0A48F9
19B25F
0BE197
74FF64
04B7B2
000C62
79373A
7A40D9
0027C7
77C600
792E1E
7E49A1
752A94
6E67F9
7A3E18
178E8E
0742BB
7E6DAC
03C84B
1FF37B
0EA52E
6C47D3
6DA49C
1A27AE
0BA754
02161E
6F52C9
65569F
793187
0074B8
7CA71D
7CC7F3
068AA4
104B90
0CC469
0E9A6F
0458AB
755DA2
7F00EF
0B1FAB
6C9EBA
6A7B4E
70C543
793932
2163A9
049CB2
1C88A4
0B74DD
698F3E
6EFC37
7B2895
6565D3
7461A6
688C50
5236F3
178CA8
057E99
0740D4
0D6D5C
09AD53
7EA3DF
6F1AD2
00E7DD
79DD7E
12E2FB
1D1C08
131C64
105250
01002E
07C968
6FD30A
7521AB
659956
03FC11
7A95B7
0139FB
7DEDD0
23122B
19B9C7
1B65CB
0D3E5F
0E90FF
167BF6
6D1E96
045015
0611CB
7625C8
773205
0A6AFC
092ED7
01D8D7
1554B8
22CBD9
1A7C8D
0A8512
0E5B53
144E50
75717D
17ABDA
174DBD
01C465
00C069
70CF6B
1B5C7C
150C1B
213D74
1CE8A7
296EEF
03D9FD
793059
009ADC
7A9CA9
0930DF
19F698
7B8DA3
1004B7
06225F
728954
0E1CBC
15C6C1
1559F6
0B5CD0
00563E
7C9BB6
60D92F
03F2E4
7B584B
781E03
05A9C9
088798
6FF583
02D72F
02F3A1
03F37B
03A43F
0AE70C
7FA0C6
7F9075
59BB49
782FB5
04753E
1AF30A
7DD894
72F1DC
06F35E
73D34D
08ED1B
7EA971
7EB8A5
06E06D
0F66E8
7E6E00
7A76D9
794EE3
0663C7
007C84
1E109D
7E9D40
709FE8
6570F7
0E05FF
0431F0
7B2830
05E83E
14AB71
087991
6C9CF5
687991
7A6C4C
04344C
03D72B
1560A6
0135B9
00E50C
00B45A
038B9B
7FF3BE
08477F
0A27AE
1E0696
137403
758809
7DE657
01801B
7BB95A
1026DC
02569B
064042
7DD734
1B215F
7EEC9E
7A4367
22DFF8
069670
162C77
73178B
0A415F
778466
75C465
14B61F
0133D2
083D68
6F4C7F
1F7186
173E57
04AD03
057679
033F63
152EB5
78270F
7809E5
0A7A41
7E17E3
060AFA
09059E
1482F0
0BE9EA
09DB87
109FD7
0863E0
15F7B5
142352
11D0C8
70714F
7D8904
04420F
03F25E
01A469
099DCB
06A172
03E846
074C09
1757F7
084C7B
1BF62B
12D1E1
7738F7
02EB5F
78C3F3
07E4FF
7AF651
07EB8D
7BD5A9
0CAA97
137B9E
6EF08C
781637
05601F
00E50C
1FC3E7
027D02

