07BF93
0177D9
0EFE3F
0D0C0A
0565B2
006CFC
706AC2
662142
00A255
0012AD
0736CD
6E2EE4
0E1ED5
15A101
0963FD
086BF0
7AFA0D
722D62
7B3669
09D9A0
61001D
78AB2E
7DEF41
75D9D3
72CCD5
77E07A
084EC6
140096
022EB1
098761
150AED
744DCA
77138B
7DB424
68064A
78E2F3
784966
0C1B97
7497A6
77F24D
73AFB7
11E279
0EE9FF
7A29E9
070A3D
049B95
7EA92E
78EA5B
74CAC4
0BD4BF
77A7B9
1FB645
7E4C1E
7B8359
7C052D
02C5D2
07BC2B
034B1E
1E2717
08FC93
14258D
73E0AC
08BE2F
0E3C10
77C74F
0E8F4B
0B8290
68D6A1
77B4D4
7E90AB
0AFC9B
15B2D4
06D0C3
7EF028
06C2CE
6C16F0
7D3187
0E584F
7C7592
787E17
05CC85
08C921
71C8C9
7D89BD
7A0C8C
068EF7
029D84
025F74
1C18D6
7766C6
732C73
73A26A
7F5FF6
77AEDD
7907D9
07F8DB
02A50D
678487
7946F5
11A0AD
6F239A
056F97
086BCE
028CCD
751DBC
0F5371
0E4063
7EA769
0190E2
7C68A9
7A006D
7C6B48
763E29
08DA6E
74E5E6
7F8FCD
09A63F
03FB15
0B45E0
7A0F3C
0A8F9F
05A975
018090
087379
668438
789F62
082092
001355
010257
0DD81F
056F21
164B12
7BB56B
737FAE
787000
051BB4
05F88F
1A37AC
7CEF13
6DD798
03967C
7BF77A
74E000
783793
0FD135
1DB584
2336EF
0C48BE
727B91
7E7C28
065119
7F5A63
76C732
6D0CF5
0D8C8E
6A2D2F
73C632
693293
055C52
1FE510
185521
7E73C4
0F20D9
75F266
7F3C3E
07A15D
7B7468
78E193
0D02FF
65DEAC
577A0B
7C286F
7C7AF2
071A8E
0B12C2
7B923A
7BBC90
02FC26
6CD65E
023821
0868B9
740464
7C04C8
0417DA
6B8551
724E7A
0BE8DD
0BC211
095C52
11668C
097BE9
0224DD
7C0181
09C92D
763B68
68D39D
012578
13315D
07A53B
00D749
7F80DC
77E90F
72718A
089FE8
06DD69
11D6AD
0DE731
135F1B
254573
221869
08E347
048ACE
6802F2
67A051
00A537
73AF64
726655
036F6D
7E085B
0C4113
7E2D62
08EE9D
08C09C
078F79
74817F
7EF459
77D72B
754F69
7C8CC5
76E31D
041AEF
7B56DA
03CAB8
0C2DE0
00C62E
0413A9
14840E
0CAF4F
7F9F44
05CA8E
07BF0D
02F544
798244
7F6390
75C50C
770A91
2620DD
07B9F1
737446
0504D5
15C8FB
16A993
0193D5
05B068
0542E5
041BFB
0C050B
1877DD
07F6D3
08AE42
1804C8
2325E5
03B57C
79F090
0FE026
0E6C3B
005FE1
7518B0
7E3EF2
08F9C1
7BCA64
702795
679485
0863F1
07D2C7
096388
0E5F63
122552
7E6080
0B7100
74229A
72C083
0352DA
0A55C0
0967FD
6707F2
7A4E16
05BB59
7CFF21
1306D5
04D23D
01A2F8
066516
0AD117
799652
19D9F4
1832FC
0C0075
7E6C2A
028B3B
791BB4
741083
7F2495
05E492
038C97
7C620A
7E9E3C
0678C0
73823C
7E412C
15DFEB
0850CE
04DF37
79A038
783E31
7B45F1
09F44D
12D3A6
0BDE50
126B61
18896D
090E99
6CEEF1
73EDA6
7FF498
788366
7D271B
7ACC92
5E6C1A
7A9318
147E28
17125D
044E83
00508B
087E06
05EF30
72049E
0F25A2
068837
74F206
7AD341
784E3F
78E5D5
154D83
16F36E
0CD90E
7631F8
65DCE7
6F42DC
6A429E
033094
0481A1
08B578
0296E5
69BCDB
6E1F9F
6A9EB2
056D2A
023193
6D83E8
7B721D
71EC3D
6C259E
78AAA7
7754F3
7C024B
76FB7E
054AC2
7C6445
7D7B84
7B3215
7BDD22
6D234E
7BFCB9
7B3519
0E1262
08AF81
0C5564
75BE3C
0F9FFD
11DC93
7E4C94
747C73
777985
0EB3ED
73FED2
68A009
050225
7A1CEF
71AE5F
0B2FA9
10E7AB
7DD388
02C397
05EF52
003A64
061177
025668
6FE37D
046130
7F1305
728BD2
05BC44
7B56DA
115EAE
16F34D
7FA9D1
02F71A
09271B
0404C8
71E2AC
008440
0538CD
094680
05FD8A
05F8E3
064702
0C1D8E
04791C
086CB9
7AFC9B
00AA32
076B3B
026B50
0528E0
7D0FC7
7A6C7E
02D645
03C7F7
13A398
060589
04C154
0C3569
03E23F
082AA9
05D29D
0A61CF
083B60
7F79A6
7CEA4A
73AFA7
007B13
7AB302
166EC9
044A83
784274
0D33B1
0D10F5
06DC8F
069B38
011DFF
0833E7
0923E5
75A31A
086F69
7FCDEE
022867
7FC8F3
109DAD
7D0AAA
0A46E0
0F0014
7AEC28
7C10C6
002374
76C95B
00F5B1
7D374B
694DE7
71780B
02E2A8
73929E
7A3B25
064883
789E98
08A148
0796AF
061262
7D6ADF
7A9C56
0C7D80
78ADFF
7678E1
74942D
093597
7C9EBA
7B929E
00C261
7A1166
75898B
09DD3B
0DE28A
0D2B1B
7FB3E9
7CE39B
74347E
0E35C5
7DACAB
7261CF
7DC0FC
7E7C17
055161
7C579F
7F8E7D
041DB0
7E0C8C
080B67
09F090
74C2B5
7B64E0
04024B
75BC23
002F61
07CD9A
03CC5B
15873F
05C52E
043A75
03DCDF
7D2828
7E7F1B
7E30A9
0767A0
08B7B2
07660E
777C24
7211BA
03D47B
7F2606
0DE2EF
01015C
0143BF
017C2C
7C2C7F
7F024F
72121E
04A42A
11D27C
0B73D1
072F55
74151A
00F451
043E31
011FB3
04B588
7AD278
7D701D
78D0AA
754C76
7E71EF
7D8FB4
7D845D
007874
71FFA3
074634
0532D6
74D8EC
0A45B2
0785A4
0926C7
7E81BA
0464DC
6E9FAD
014B48
08EDB2
72F145
0E6F0C
02C0C6
06D6CB
04F6DF
7B3DE1
00B220
0002C0
7C65B6
006F15
053B6C
017710
79B5A6
77D8CF
03AD4B
71959A
0B3E57
010F84
7A1DA7
034E11
04A287
790774
794185
675D89
6B252C
720F7F
72584F
7AB639
059A84
0BAFA7
09E57D
74794E
005814
73AECD
733F96
7127E5
5EC8B4
771CEA
705458
76E696
095CFA
01186D
03090F
0C3F4E
7CF1E4
020D88
7DEA57
7FE21D
7D3BE2
78BEC6
6E3C21
69592D
66427C
74A05D
036A2F
74D6E4
6DFF60
7DE343
7610F0
7EACB8
7793EE
00EE49
092114
0098D4
6F5989
5ED70E
62921C
71C172
0412BE
7C4651
0937B0
059EE8
084988
05A0CF
0A10E0
0D80B2
06453D
792513
72ACB8
61C5E6
67C9EE
6F4D59
7CE571
779431
75EF30
769DA5
0C23C8
11F6A9
033ECC
07B549
076848
78445A
6EA92E
5FB341
70F9E3
795182
03AA9B
765F63
7B861A
0108B3
0E31E7
7D7657
0766F9
070479
7EC892
690907
656345
70D77B
7E937D
7F6DA8
006F58
7C5404
00D855
12CFFA
0F7920
14445A
10F893
0A1986
7DF5AD
6F8F04
6C31BD
6CFA9C
700453
01F666
019418
7E072D
0857AF
0E9E3C
0DA9EB
0B0C45
074EFC
171A9F
7A8145
739E7B
73BE22
69E1E2
71FA97
768F5C
7DDF54
799578
05E4C5
0EB81F
12C13B
0DBF9C
0F8EF3
097785
79A198
72B5F5
6CE0A8
72B4D8
791E96
775536
776534
7F4D59
0371A7
0E3D3E
125A89
0EDC2B
0EE115
00EA9E
77C6C9
7062C3
6B3CC4
7AA22B
72875D
7BC31D
7C1398
770CFE
7DD3AA
017DD0
7D3D10
7D7481
75CBAB
6F4AFD
6867F0
76F2B6
70D402
78348F
729CFD
78CCCC
6BF833
7361AA
79A6C5
786F7A
7A6655
7E3593
7D9E30
78C6E6
78C3D2
6F3F85
7295A6
742FE8
01B877
05058D
791A32
6F7995
773A8A
764324
6FC4C1
6B6DCA
785F06
7813A9
6EE392
69C736
6121FF
6D3B6C
75F85D
7D554F
73EFAE
66CF74
7EF0AE
71059E
67C115
687F02
6BBD6A
7149B6
6E5050
6A8837
5A4335
04D7CF
01ED4A
1158FB
0BB2AA
12AF57
054541
7B9639
02CF95
0C9353
1B74DD
08094E
0F01FB
19D872
190396
0B315D
0B4A55
0AEAA6
18DF15
059DEC
6474A7
5E209A
5C5165
6FDC9C
02E44B
11758E
2A3E18
2784DB
12D890
13B880
0E7FC3
01870D
7C4DEC
68AE21
63D1FE
691793
6BEEE5
74BD33
095DC4
0A2888
0ACD7C
128390
065C4E
096D19
003A21
76770B
7FFD1D
780570
6D3EF6
6FB613
6F1583
7BEB28
7E34EB
0DA88A
1613D3
2358AF
1D9A0F
0337C9
7B85E8
04725C
788E36
71100A
69D6CF
73AC71
77EB28
02D05F
7AF112
04AF92
7CB7F5
1955D5
1DA8AC
0C6349
12557D
0E5F63
0A44D8
79235F
6B4906
0231A4
0CE1F7
02FA93
099FA1
03FB04
79C0CA
041C0C
7AB6AE
018EA7
08915B
0D8340
05C7CD
7D4C55
75460A
0C7CC7
0DB291
070CAA
02AEF2
12974A
0272EA
799A52
0043E5
7889D2
7F1348
72F816
01F4F5
7B2CE8
098633
071609
08C6E6
01DE9C
0DAF6C
0909D0
1EEBD4
0FBD05
063BDD
0503EA
035686
7B91D5
07EB28
06C615
05476A
0C34E3
046AD2
129739
0F2788
0A7C7C
7A16D6
0A2877
7EE371
071593
7F256F
714141
722FF0
0154FB
7936E7
782CE4
7E70B0
72F7B1
001733
7ABB23
7FEB28
799D23
07AA79
1172EF
03BBB6
786530
0021D1
7152E2
682FC6
61016C
5B1572
76CE57
7AD4E4
7FBA88
0556F3
09E83E
0587D6
06B7BA
78AD36
7F9BDC
7CB912
6D0225
608B86
616D6D
71EE67
06615A
147724
03D188
060264
7B5EA6
085458
7D8FA3
79131E
72B074
74D099
6EB29E
775147
65FB61
58C026
7F37B8
7DA3B1
06743A
05CA29
03A860
06149C
0658A3
786D0D
00EED0
0804C8
78FEEF
6CD66F
68FAEF
7E3779
72D1D0
750C80
748051
048FC9
18F56E
10C187
0A5321
0B0585
07FEE2
0A3055
0C19C1
77506D
713F29
7FCD46
7DFD04
7DB24E
0D5C20
15DADF
1DC560
174F3F
0C1CE6
045A4F
779192
7AB639
04D562
0F25C3
7AB756
7F9A9D
02EA96
093C9A
7E512A
0207C4
0D3FAF
175EA6
7F3721
081094
0C100E
013DFB
00B7E4
7EA023
09E796
79F06F
7B7A5F
06B3AA
0BDE72
0C3958
0F15E7
0D4D1E
01FDAC
050C80
09BF37
08F323
0896FE
0F5019
743CE2
7A31D7
7FBB62
12D1F1
052F4C
055F78
0B01A7
08D36B
0C6F9B
0C2E01
088C1D
112E2F
073A14
004FD2
079F77
11F2FD
016D09
034ACA
00194C
76C1F4
7FD651
0CAFB3
00BD55
00BFB1
7CA9EF
7D872F
71029A
6D9029
775E95
0F356D
0743D8
05B291
09CF89
026AEC
79AFF2
07A14C
7C5985
0672EA
0B1609
7B73F3
066117
7F0A91
78318B
7612A5
09E42E
7D668C
076017
7EC82E
7828B2
7E006D
0D2EC6
0E6CA0
0EC6CD
0393DD
01C821
798676
044DDB
7B37C9
79A9FB
009DF1
01F57B
01A5EB
779CE8
78FE8A
07B203
01D3FE
0763C3
77D0BF
7ED87F
704135
00C319
75002E
0A8C79
0663C7
0386A0
11F9BD
014AB1
7D5970
0A1986
063DA2
015208
790268
7F8887
0219A8
785F9D
768943
75D7EC
7F4938
0C9203
0F573E
0F2D2B
0D971C
7E9185
7BD545
023337
742539
02F2A5
0FC43B
7F1D4F
7F05D9
7D1782
018E00
065F84
02AC86
768251
6EB51B
7CE10C
7EC96C
769888
70332F
7408C8
7C0885
7A54D6
7094F6
0A67D7
02A2C2
02F5DB
044556
7B2B88
7DB35B
7C19F3
00CDB7
7273C4
7D333B
7DEF84
6E5061
7A51C1
78B114
701EDE
003E85
7B381D
167B5F
08AB81
02EED8
7EC0F8
13BEFD
06CF52
78B167
0271DE
7910F5
75C054
7953CD
77AE9A
7F1B25
0263B6
01DCF8
7FD6B6
062A0A
0C345C
120C38
0065E8
7DC076
0CBCF0
1E697A
7C89D2
04564F
7FE670
1190E2
7A7CF1
651DAB
76C7A7
7C6DF8
05BE09
1CAAEA
10996B
03C0B1
009246
7EA7AC
5EBDB1
568E4F
77C2DA
799AB6
064A48
74D338
02E9EE
09B9F9
099F7F
7E0AB7
0E55F3
7E6C1A
6D307A
6B53D6
6C4D33
6F59FF
7AF36E
008E8A
79D4F9
6CD045
7ACF52
715725
028DDA
089DBE
0B16D2
7E9984
70EF24
71C69F
71BEA0
7EBA5A
0CB47C
0DC886
08ED91
7D6191
78F883
066AFC
768DFB
00BC16
7C08D8
777026
711697
6C0F66
699913
6BD4F1
02F038
769E5E
7C4DDB
7D7DE0
6EB93C
0FC98A
0983E8
11085F
1FA743
086D50
02AEAF
74851A
767F5E
7295C8
78CD0F
790BE9
786E4C
736A50
7CC07A
048A8B
058915
18C964
1573B8
787CE9
0486AD
6F8A3B
71332A
7993A2
0B49AD
7EE6C8
7ED688
04474D
061CBC
02DAA9
783782
78420F
779841
788733
7A6B2F
7BDA61
7FFD0D
065BEA
09D3DC
7D348B
7A481F
7EBF87
09AC25
7BC3D6
75716D
09BC87
020147
01984A
05D777
02F449
1016AC
05DC50
0F7015
10660A
7CFF97
7FCBD5
018383
7643FE
7B7C02
0BCB4F
039D2B
03A669
102C7F
118527
10E304
7D804D
7A6AA8
06EDCC
7C0EBE
71EA35
6FC9EE
77C5AC
0DFA33
122E7F
0BD827
7FB938
7C33F8
012018
6A95D9
701E68
795076
7615DB
7CD64D
7AB52C
0DA7B0
05E02E
04F9C1
08F6CE
076AC6
0112A9
025BB7
72490A
0472C0
7F67F4
729845
73EA5F
73FA1A
7EDDCE
024C40
7402C0
03B730
018244
078E8E
012DFD
778E8E
021869
7E9B17
769EA1
798266
0376E6
039F01
76BAE0
70FD9F
63401C
72C0E7
6C0C52
68254A
005447
75CE28
091F2D
774107
762680
74E443
76C647
675792
67A7C9
72F34D
683C29
0D0071
7DAA2E
0C1B75
053D42
70F6F0
6E6F50
7A2270
7D0B84
7D1E85
1092FF
0A87F4
06EFD4
0ADC09
0E9835
030F7B
7BBBB6
77C07E
7888A4
0B9B34
721F29
779B66
7D15BD
012231
07D230
0859EA
101E79
0D4152
08D877
042480
108722
786E2A
7FF6F4
73EE1B
7B5F2C
64712E
7DAC8A
0EFF08
0DDF43
0C8EEF
11C960
152A1F
10E3DE
02FC9B
0D0DBF
03C5EF
764A59
7894F6
02490A
790AED
79EFE9
05F761
12A0EC
0A9C77
0D014B
088EDE
0C5A92
09782D
051633
03D124
03CDEE
7ADEB9
02670E
703B1D
66E9CC
70126A
035DED
7CF301
03D87B
0EE371
79D872
159D45
03B4E5
752168
7A1B8E
758969
707314
716F32
7C5A81
6F4666
03E5A7
750B41
726DBD
7CA3E7
7435EF
7DDBB9
1085D3
15933E
00929A
6C8E36
716A16
672096
78C037
6C68CA
744673
04C271
7A0780
78D26F
7DC3CE
78D306
0C431B
7EECD0
1184E3
781D08
7AE08F
7272EA
06F05A
046C54
7BC72E
022F48
0E718A
07D7F5
01CB68
78C1DB
71E060
037B6B
0546F5
7ECDAF
7BB82C
7B6827
7D7AAA
7FF983
7FD33D
07F290
07FD2E
0A3315
153D31
05F72F
003E53
6A87C2
7AFDDA
04D5B6
0823FA
00CF39
7BF594
0D2D66
7DBA7F
0143E1
152FD3
7E262C
0DFADA
04EDC3
0A8EB4
6F6F9F
792652
777DFA
069F59
0923F6
6FFE3B
796C61
001787
7525CC
0E4DA0
0258C4
01C970
7821E1
0B89F8
0606A6
747E6B
7E41E5
0BC5DE
00404A
06B28D
7A7115
0354C1
7BF3CF
7DFB2E
00DF15
7BE037
6E595B
75A815
0BCF2C
050A88
77BACB
005FF1
0B0F49
7B7846
03CB5F
058FB4
07F173
06F640
06BFFC
79E731
7A5B85
7C0D0A
01FC7E
77FFDE
7C4567
759DA9
0A8B7E
07D77F
697679
7BF401
7D0BE9
090D5A
0E8F29
77F572

