1E68B1
000991
011AA8
1DAF6C
02E6FB
035AC8
0224AA
0215EB
05B035
055033
04E67D
002A66
1C4D33
1F4613
1C2278
00156E
1DE364
00BF2B
1A7253
1B5FC3
031465
1F8BEF
04A44C
1BF39D
196238
03A98E
02C0F8
1B368A
03F8DB
1E641B
1DE614
197891
0236F3
1D0646
199381
1E16B5
04B9FD
19FA22
008A47
021416
1B21F6
0301B8
1B0C99
00A6DA
020A84
1E391D
1B838C
19A7F3
018D8A
04DBF0
01E742
1B90FB
038BDE
01D851
1A3704
1B837B
0174F7
00BA1F
1ED234
1B6588
058D58
1F54C1
1BA1A0
1E3561
00E592
0426FE
02BEDF
1BD48C
1B4656
1AAE9E
1A41C3
1C7E38
031D0C
003A21
03588E
19A522
05C098
005846
042F2F
06645E
00BE94
1D8106
1BB129
02222D
006FDE
1DA554
01A7C1
1D4E6E
1B0B17
0496BB
05909F
1DED28
1EC7A7
1EBD2B
1D703F
04D423
1BB7F9
1F3754
1CDF04
0298ED
1C5C24
1DC832
1EAEE2
1CEED0
000841
0505E1
06DEDA
00801F
1E9153
1E8027
1A480E
00CBAF
1DC2B0
1C471B
1F86C2
1CE496
065F95
1B355C
1C8872
035BB3
057F73
1F7F27
0019C1
02A9F7
050635
1DAFE1
02C5E2
194B05
1EAD81
1DA176
02EA52
06976B
063172
1BACF7
020967
1F2745
1B1550
1E2C01
1B2DC2
1E7F90
01CB89
1921CC
1CE592
1CC23F
00E69F
010DCF
005F6B
1EFE1D
1BB906
04E8FB
1C2F0E
19CB89
1A991F
041062
1B0995
1E96C3
1E89A8
02DA33
1E934A
1A4F22
06368F
1DDC1E
1B6987
006C33
054823
1B20D9
1DE6AB
1C2B30
042FF8
058D25
02DCE3
18E0B9
1B5989
02B5A2
1D93C4
19E529
1AF1CB
1D24BF
1F05C8
1986B9
1B1D3E
04BA73
1E1554
04B007
00A750
04385C
1D5AAF
02CB31
1F112F
1A0AC7
032713
04EF56
1E61CF
015ED0
1BF833
1EBA06
02A369
193AB4
02B218
05A155
1B020C
1C13FD
0450DF
1F55CD
1E20CC
1ED341
057DF1
19F9BD
01D217
1C9DCF
01A954
030D30
043E63
1AB862
03138B
053AF7
1F21B3
0237BD
062CFD
007DC3
1C9603
1E9B38
1D4738
04B3D4
1C58EE
1C2289
1B6FC1
0045DC
1BEC13
019029
1A135D
01B3E1
1FD167
03BB1F
043382
1B4528
00B380
033754
19B79D
0256FF
1A544F
1DB057
1D8A22
0145B6
00508B
1DF3C7
01595F
1BB7B6
1DCBFF
01BA0A
042B51
0528BF
003979
19FB0D
1BD923
00195C
03B44E
0078B7
1BC632
1A0525
0426AA
1E82C6
03912D
038348
1FCBD5
03F3F0
1AB6AE
1A72B8
1DF6BA
03DE61
04FF32
05BE1A
1D9CBE
1BD630
03AF20
195DA2
045C78
1B1A19
1D4B27
1FB3D8
0594AF
027957
0254C5
1E322A
0174C4
0061C7
19E7A7
19A693
1B43A6
1E5870
046CCA
1E7EF9
03C89F
063AC0
1F9F44
1B8A8F
19B4CC
017BA6
029C02
1FF130
0204AF
01F00A
19B5A6
03C3F8
067A31
022541
042A34
1D704F
19F8C2
024F33
02AC96
056EDE
19DF11
1F74AB
1BC222
1C32B9
003E74
05BF6A
008D08
1D38FF
00E0EB
065343
1A4755
048BEB
049D38
1E74D1
04CA70
1C61C7
1A0ED8
1CCFBF
1DDE69
1D9AB6
1A2D1F
1F91F7
1D4877
009CF5
1ACAAB
00E7DD
1BAB53
01F234
1D9685
1B3754
1E73D5
1A0114
00FCE7
00F55D
0530DF
0363E4
1FBA55
18BD01
1E9036
1DB38D
025870
003D79
04460E
1E60D4
1BF077
03BB73
1B3C81
1F8034
03C569
05DF43
02BA16
0504C4
1C7581
1A685D
00F00E
05B91F
1D2F5D
1A72B8
0088B5
013A4F
04B2E9
0252AC
1F1E6C
1C34D2
05FBD6
000EE0
1BFB69
05640E
1D42B3
1F7457
025CB3
037952
00B4D0
1F369B
035243
031DD5
1CEFCB
1DDABE
03C7F7
1C9E98
04F095
044C59
19C12F
03021D
1EFF08
04ABE6
1FD556
04CE0B
04C0F0
1AA832
042491
053F4A
1C4A1F
1BD31B
01464D
006D71
1E1EF7
04216C
1CF238
1D3F29
05F373
1B8AE3
01872F
020589
1DA3E3
021262
029E2B
0401F7
05132F
19E0F7
1C5CFE
1E9CA9
1E582D
02F987
1C0BAA
015F45
1FBF0D
1A74C0
03C297
042613
196191
0205BC
1B3F20
01BE5D
1CC857
1D17C5
19E279
0613E3
0525AA
1FA0D7
051782
01F9BD
00ED4E
1B7E6F
0287F4
05103C
1DAF3A
0158B8
1CC36D
1F3797
05CBFF
04AF81
012E83
0246F1
1B57D5
1F57C4
1FA493
000852
036C15
1F2A49
1D0AAA
1B1194
1D29DC
1A962C
1D8C8E
1C5C89
1D0E66
1B86B1
024A59
00E28E
1DC2D2
19B9E8
02F1BA
1DB8AA
1F281F
006738
1F264A
1DB4ED
05DF22
1CE54F
1F95E5
1FAC4F
01C8A7
19D451
000379
19D91A
042320
04B9CB
004DFC
1E0DBA
01D084
1E87D2
1C6002
1A7E41
1A82C6
1AC300
024F00
1AF0E0
05B3AE
1B2A06
1B0739
1D5369
0212A5
058E86
1FD30A
045271
1D41B7
054D1E
0268F4
045964
1B21B3
00C38F
0504D5
1D0D28
1FB5D0
022A3C
1E0F3C
016BB9
1BFBAC
05A21E
1E67A5
05B7CF
003CAF
1E9542
1C0CB6
1D96FA
02D688
1A6762
0595DD
1E9AA1
1F73E2
026BA4
1A9B8C
00B34E
02C03F
1C230F
1C7F66
052663
1AA3CE
04FF43
0415A0
05781C
040C52
027D45
053A3E
017646
01D29D
00D5F9
1EC9E2
0512A9
1B7E2C
0359CC
0372C5
1E2281
1DD1A2
0186DB
02DEB9
0133C1
022E09
19DB55
1D6B22
1A7F4D
19CD0B
1C8ECD
1F97AA
03E974
1DF58C
1C8711
04BC38
02D85D
03AFEA
1B5200
1B7281
03B4A2
1CBE94
014024
1C0192
00CF5B
19594F
02CE03
19C23B
03E260
1B210B
04B695
04DFAC
004EC6
1EC3EB
0162BF
04B7B2
1FCEE9
1E0125
02F31B
0460FE
1BAA15
1E368F
1D89BD
021A0C
010364
1D245B
1EFA82
1B4245
024217
1B4645
01DA9C
020FB2
1D1697
1F0079
0308DD
029131
04B934
1BF39D
1AE6C8
1E0589
1BAE79
1DD2E0
01B1A6
19B22D
014FF0
1F0CCB
0507D9
1AA24C
1B25A2
002BA5
1AADF7
03FBBD
0476C0
0395F6
1EABCD
1C7768
1DAE70
1F064E
1F3B96
1D11AD
1D5EE1
19D872
19F394
01A932
006034
1E1FE2
03038E
049656
1C9880
1F8151
01B20B
01DDF4
1F8D3F
1D019F
1CCB18
1E44E9
01B6E5
001F31
1E0E51
055608
1CACE2
1D47F1
1ED1AE
1AD0D4
1A368F
1971C1
1A2BE0
1E9D84
1A50C5
020828
1BCEC8
1DB25F
04E6F2
1CA622
19909F
02C02F
1B61FE
046D1E
1BAD08
1C258D
1AB40F
1BB57C
04CF8D
1BF21B
05F245
002784
19CC31
198948
1CE7CD
1FE3E2
02AE6C
1B05B7
03E34B
1908C3
0002E2
1DFA65
19FE97
1D39A7
1E5E99
1BE521
1A364B
1EB54E
01A31A
1A836E
00D62B
062F7B
1A5721
1AE86C
1A18DE
1AD5F1
04D2C3
04D972
05C571
1B87F0
1C4F4C
1DB467
03D49D
1C0F66
1FBC4D
19AF18
1CDE6D
021650
1D1BB4
0306F6
057EBA
1F6DDA
1E9424
1EB767
009203
1F77E1
00E0B9
1FA882
19C1E7
1F6284
0343C7
033D8E
019999
1C2773
035169
1EEBB3
042880
1F6A0D
19AF18
1D3272
1DFC6D
001D5C
1913E8
1C7768
00A3B5
1BE100
1DB068
040A5A
1F8099
1A2D40
1F0835
1C0C1F
1EFD54
1EC8A3
00126A
01744F
02B2D0
1DF6A9
0523A2
005447
1C68EC
000000
0246AE
05B76B
0326BF
1E4452
02D506
1FAEDD
05984A
1E9CFD
1C61F9
1EBA7B
035F1B
04A48F
0194F2
05184C
04579F
1F7D30
0144FE
1C4556
0343C7
04241C
1D5400
033B10
1EBCC6
035B4E
1EA769
1BDCBD
1AACEA
1CCE91
1E6D04
19D55E
1BAEFF
19C69F
1AEA74
1DA240
02A28F
03037D
0154EB
01D8F9
00200C
1C24B3
013EB3
18B567
17AF20
005A92
02C471
1DCDE5
1BE692
1C5879
02DDF0
1FD4AE
17DFC1
1FD512
008A9B
1D526D
1A4441
0125BB
1B8822
1C2A66
04A9BC
04941C
1E9318
1D82EC
022FAD
1F9B56
1B940F
03B699
04C76D
1945D8
1CD306
19A78F
190D6B
1E4E7A
047336
038C43
1BD684
014727
03353B
01147F
193F07
1D27D4
1EF89C
1ECBB7
03E878
02AF68
1F228D
04A5DF
1EEF3D
1D7A35
05803C
1FC610
011351
1AC12A
1B12A0
1F5AB7
1F4FB5
1A4A38
0259E1
044C27
1C625E
1D1819
1B605A
1D69A0
192695
01E646
1B6F7E
1D12FD
1AA411
0213E3
1EE568
188A58
1F4FC6
19FF60
1C23D9
1E4BDB
1A1F6C
010A99
03D05A
1940FE
1BD4BF
1E8501
1BDDCA
1A1922
01B9D7
1F6124
1EAA8E
1B8D82
1E9930
1D1C08
1D2988
1BD178
009289
1DAE3E
022BBE
1FAABC
065D5B
017FE8
1FB8F5
0567DB
1F8316
1B4FC6
18F7A9
1FCE20
03762D
026C09
1A76A7
198B3F
020221
1EBD09
1DCA18
00ED1B
003EB7
1C1205
1BEE5E
015F78
1B620E
19F4A1
04A936
1E7D99
1DEB52
1DEE45
19F740
04BED7
031A2A
1B3D9E
197B41
1F7F38
02FF3A
1F1172
1FA27A
1CE66C
1D8527
01B7CF
04C5DA
038DA3
03BF61
1BB56B
1A5F0F
00AD79
03487F
02B9B2
04FF10
03394B
04ACE2
006AC2
1ED762
04A654
1C36EB
00B07D
1ACA89
05439D
1CAFE6
177670
038305
03DED6
18E9B3
1ABBDB
1946A1
1EE371
193A71
1C6B69
00A16A
000464
00A750
02E621
1F52FC
1F8A2A
1C6940
02EB3D
01B8BA
019F0A
1CA44C
1E8640
1CAB0C
0229E9
03BD16
1F2D5E
1C4DB9
01D53C
1DBA2B
1F8C97
048D2A
1D9CCF
1D872F
014CA9
00FA8B
01BAC2
048440
1C9E55
014B8B
1FA311
1DDC1E
1B7942
1E2845
1FF66E
00790B
037E80
029B9D
022C77
1AD16B
1E48E8
1D81E0
1FD86A
1B81D7
040346
02F6D7
0123C4
1AB3BB
1D898B
00BFF4
02F544
00C692
02C892
02E84A
1E66CB
0181CF
1F3ADE
1C6FCD
1AE968
1DE5E2
1A43CC
013B9F
1A8B08
1AC4D6
1B38B4
051644
1EF922
03C84B
1F3CF7
1C1FD9
01F8B1
1FFC43
026A22
1F404E
1C318B
1FAD6C
054D50
01BEE3
1AE989
1DF02C
1E64E4
00EFCB
1956E2
1A4606
1F0520
1E936C
032D1A
1FCFE5
0141D8
058611
1B8305
006024
1FE8DD
1C4F3B
027371
1A310D
035D78
023098
031F36
197108
046C22
02DD05
1C1648
1E33BD
1CEE7C
021CFF
0027E9
025386
00F0C7
0039AB
1EFD32
04FF00
024FEB
1ECB10
046280
1E4B01
1CE8EA
000FCB
1B7531
1DDCC6
1B8594
1982EC
014A4D
1BAFC8
1BA7C9
02687F
1B621F
01A309
1B1D2E
1DB8CB
0479C4
1B5137
031A5C
1B152F
025C91
1AC397
1C2C7F
0250A4
1C0B13
1A481F
026B93
1DB63D
1E4F33
1A631F
1F7B4A
03BFA4
0222D5
0536C5
1C9ADC
1A7DAA
1DA671
1FA6BD
1B3482
1FF705
0026CC
1940EE
017CA2
0553DE
053293
1E2D0E
1B1AE2
1DBBF0
041205
014A90
19C39B
1D0BE9
054898
1A1B7E
051EEA
1A2952
1ED762
1F65CB
03A8E7
192370
00C458
1E085B
1FD102
03F0FE
0526E9
1F7A0B
197E45
1EEFC3
1BE878
1B6D97
0395C4
1E90DE
055E4A
1F5A63
00B8E0
040389
1FF0AA
051DCD
1C01D5
1B1DD5
1A3B14
1B9229
1EB8A5
1D0C1B
027903
034EEB
0175C0
1B4517
1F2A49
1B6FB0
1B18EB
0052F7
1F9581
0211BA
1C690D
1BD5ED
1A2541
051E75
04E9D5
1C2EA9
1E7C9D
1B4EDB
1BDAF8
1D60B6
046CA8
0378AB
1E97BF
1DAF8D
199513
03416B
008216
1A469D
1BF79C
02B5E5
02FC7A
1AFF8E
047991
1CA127
18FAAC
044955
017F51
1DBB16
1F4E54
1C39CD
1E7E84
1D949E
1E7179
041E47
03395C
1B5EA6
03EA70
1D06EE
0318DA
1D9F0A
195C63
1CF52B
1AC354
1E8C79
1D5A9E
19C9F7
02F2B6
1BFAE3
006412
198DEF
0084E8
1C80B6
1E0D77
1D5896
03C3C5
022845
19F7D7
053C03
1AAF25
1BF11F
013176
000B13
05273D
1C20C4
014EB1
1B9639
1E978D
042D7B
014983
1C254A
006423
1F94A6
03418D
02F21F
1CB5ED
04B902
010F51
05AEF6
040BAA
033FD9
1B7318
198D47
1F9DA1
1A048E
1D3AE6
1E326E
0037E6
196A7A
1FDD97
1C8F86
04BD55
1F586C
1C3C29
1E0BD4
000FA9
1911CF
1D3E5F
004EE7
1E3193
04E69F
0052F7
01D9F4
1B9B23
03FCC9
1E6937
1A47BA
03D662
1D8C2A
1C13A9
19AC47
1D5454
0240B7
02A337
04A904
026202
03B9CF
1FED30
019C9D
1F4949
1A9899
0096AA
1E006D
1EE642
1F59EE
1B4FC6
1EA51E
1F4F93
00B0C0
029446
1E96F6
0206E9
02597D
01103C
1C0325
18A8F3
1931DB
03F8FC
062728
1D235F
012AE8
016798
1AC4E7
1A8672
1F774A
1B6577
1E02B8
04FA9C
1D8116
1D6041
00678C
05081C
1B04BC
1CC469
1CB242
1FF349
0485D3
029D51
1B8E29
1A9478
016B44
051148
00281B
1F7E80
0207B3
051C5C
01CA9E
04359B
04EE06
1D9285
05013A
039A8C
0144BB
029C77
19B9F9
0062D4
01903A
048483
015768
1DFFE6
1F2E9C
039E8C
1D566C
00FA69
002C4D
05141A
1BA8B4
1F07BF
1D1AB8
027AFA
00574B
010470
0298BB
032AF1
194A5D
1F7E90
02249A
1B4AEC
1DE300
056C50
03A52A
1C2CD3
1B2CD7
1F6944
197A13
1895F2
02F8DF
032990
19C50C
1E17B0
02EA63
02173B
1DD8F9
01B2E5
190A02
189B62
02EEA6
1C195C
04D089
1C50BD
1A1240
00C4DE
1DD7EC
00FA37
1B0164
1E9FAD
02C710
1A56BC
1D47CF
1AF544
04B4F1
1A41E5
19CCB7
020FA1
02FA72
197279
1D1C08
053CCD
1EFBB0
0076AF
1F1465
19465E
02BAAD
0410B6
1C286F
04E92D
1B0FBE
1F0025
1E5FC7
054DD7
1E3486
19373A
04D62B
022AD3
016BEB
1BAE25
18E3FF
033C60
1CAC9F
032DD3
1F6EA4
1C918E
1C75D5
031726
0015B1
1B7143
1B7D95
04A7B4
00F27B
19CB68
045F7C
03C968
190FF9
026091
1BDB8F
003E10
1E31B5
04F50A
0103C8
1FA4F8
1C8333
1C2906
0579AF
003C9E
1CF7B9
03D76E
010FC7
036CEF
1FE9A6
1E15DB
020978
03D199
1F4F82
1C5132
003CF2
01B5D8
1D4DF8
1B1140
19AF9E
00BB7F
0263A5
04E54F
015E07
0313CE
198E43
1E4C51
041C1D
00D1B7
1C3A96
024C0D
1E9270
199392
1CD877
02D30F
1CCAB3
1D3FE1
066687
04CD20
1C83EC
027A52
19D12C
1AE254
1F0CCB
04DFCE
1E9FF0
0443F5
0154EB
050C1B
1CBD98
1BB213
1E2DC6
1DD65A
04B6C7
02E419
007219
1E59F2
00B5DC
1C80D8
1BB730
1C168B
1ABBBA
001605
1DDA7B
1F15E7
060AE9
1FE37D
1E14CE
1CC0BD
038173
012923
023BEE
1B0EA1
0184A0
033A68
1A569B
056A26
00969A
1B67B1
1EDD48
1D97A2
00DBAD
1ACC4E
02E200
1C4AC6
055831
19A06A
1F8D3F
0135A8
0396E1
1D7492
1D3A2D
031C64
00F9E3
02B5F5
1DC7DE
023422
012EE8
05057D
1E379B
00DBCE
020780
05E95B
1B4D05
1B95A2
19D872
0159B3
1945B6
1998AE
1B776C
01F43C
1E749F
1F15A4
1CA515
1BBD7B
1BA57E
199924
1F3322
1E3DE6
029D51
1B8C43
199780

