00EC63
76BCD7
7D5DE5
7E2541
79CC63
03822B
7EDAB9
6FA29C
761986
7257EA
71B520
081A36
7BE22E
053A4F
714E4C
054845
6C5996
6F01D9
68079A
63CDCC
00A45D
776F2A
75799E
6CAD8A
7519CE
0DD15F
7B7846
070AE5
76F75D
7AD7B6
699913
779FA9
702E77
638A4C
7AB0C8
76DD48
7FCCAF
74114D
7D0646
0E6080
0DAFD1
00DB8B
7EB990
6E0C9D
71DA8B
00C1DB
78151A
7D988D
6EC0B5
01F87F
0DDF00
7AA11E
7AA5E7
1B7BD0
058B50
00725C
12466B
7784A9
78DFAC
029457
71C4EB
00D898
025A9A
7DFDEF
078B58
043504
786099
7B96D0
01E7FB
7C0895
0F4D16
7C53F3
68F9F4
7DD3AA
71EDAE
003BA3
7BBA34
7862C3
0D9567
0B48D3
72B2E1
049DF1
0A6341
025237
023F78
7CAA00
0708ED
012674
79FE21
0500B4
11E279
758761
71D7EC
0A3476
7A31C6
0F37A8
151F3E
69F751
009F83
02AFAB
06D7D7
7FC211
7D095A
72672F
110E23
0F5B5F
72580C
73662F
7605DD
7EA7EF
140F45
7B17CE
70029F
05AF7D
145425
00052D
0C7F13
6923A2
7F6390
761F8E
04ABA3
1631C6
02A12F
0238EB
0249D3
04F12C
7820D5
7D3250
082F2F
10D3E0
0EE126
0A070B
79C4C9
0368DF
078800
0AE818
027392
7DAC8A
737585
006B15
105C89
08FF21
7F3269
19F3E8
013836
0FCF5F
737058
0483EC
0FE857
2305FA
1A8869
0470EB
062717
7C5A92
79FB1E
100010
6E5FA6
0FE974
1C10E8
17C33F
7043C3
7FFD1D
082480
096ADF
0800DA
71DE15
0446A5
720C06
7BDDDB
15D93C
10F8F8
027C17
0CC88A
02CA68
725A25
6E4990
7F7175
731C97
0DC9C4
03036C
00DCB9
788F10
794962
7DFAEB
102D6A
0457E2
04AC6C
0FD31B
784A83
7B3604
0DDF33
7F68F0
7F0A2C
12BA27
7B62D8
068C58
054D2F
038EB0
07E8DD
182A99
0E02FB
74BA83
065CF6
7DCD3E
7C0831
743632
6C026C
6F9F01
6CEB03
76BAE0
032A5A
00B5BB
175621
14667F
12F61E
7DF85D
103116
076805
78218D
731327
756BA8
040E8C
6D7AED
65CAE2
79FD58
7A5B31
1C3547
797EFE
0537F3
008041
7BACC4
7B8594
0B86C2
7DB7CF
70E885
77E7D1
7CC261
7A3992
790752
7ACDAF
772CE8
04B8F1
0FE4FF
078811
035D35
0B5792
00E746
60C964
6D4C44
6B0D0E
0B647B
7B587D
76122F
775F4E
7D2D66
02935B
0839AB
7DD0E9
720DDC
009279
6BC903
6BA52A
6D7DD0
0C384B
0F210B
03CE95
7FC2DA
066234
051E64
05C347
0AF6B5
09CAD1
7D0742
6FFB8B
699806
7DB91F
05F926
01CD1C
7686B5
749880
7377F2
164356
0C039A
01A7F3
7655D1
0B20C8
0FA0E8
046E19
7B9E59
7BB55A
0E98AA
21C63A
052CCF
10A212
70E63A
02A93F
7A7408
02E158
736D97
728A1D
030C23
0B4762
0520E1
70EFBB
7F3A14
01461B
00F3EC
77C158
77FCFC
004901
0B662F
087885
117F84
74A600
0FBE12
76BEBE
74BFE3
76D0E5
79F969
6AC343
675653
74BE61
7261AE
06E3F7
0B0824
089518
0157AB
79F7A4
10A6DA
012A41
79C9F7
0CABE6
008659
7701C9
770EB2
089C2C
7F4C3C
0543E1
0A789E
7E31E7
73AC3E
03F609
7A38C9
73ACE6
6F00BC
7B2E27
706DF8
7E7C28
0CBED7
00D37C
07C4E2
069057
0184E3
0530AD
68B039
006C22
0F5D46
6F2335
6E8FC0
01AEE6
02A0CA
00A85C
0E50E7
69A576
035957
0F1D60
04D477
7BEE6F
013C9A
78028E
009118
022C01
06DE76
75794A
6DA426
0201CD
6FCDBB
6A4D6E
7B7446
7561C3
75C001
654DF8
7ACCD5
720AC7
7971E2
7C3EEA
019EF9
78F1D3
681483
65F47F
6CA761
710D38
7372E6
050FF9
77760B
045A70
06B24A
7BD188
77C02A
7F03D1
7C69E7
7FB118
016638
7B7B7C
7917A4
7E8405
6E4C94
7C56F7
79A5B9
01C69F
025A14
738759
00894C
0DC864
073387
779C84
7A7232
7CAE53
0C1B10
00345C
759C9D
72E46C
7D6F65
7EF123
755C96
736F5C
77F7BE
042B1F
07DED6
04F872
0B6A50
7DC68E
08F3DC
04D9F9
019BE4
771769
6FBD8B
7D0321
7E73D5
72F049
01CEAF
0AF156
0C460E
05FC9F
01C1B5
0B5515
02D506
059E62
7DFD7A
7AC03F
7D0BB6
79D766
7FC0F4
7EB5C3
09A693
792D55
067179
728251
01CB68
7CA750
040D90
003287
7E132B
00BC9C
062046
7BC7A3
744A40
02CEEE
7E6D15
02B4B7
7C95D0
02E17A
050D7B
0670D1
01CED0
071E08
7CA07F
7A4B66
0411E4
7AF31B
7E822F
009949
09C12F
010B0F
003A10
7ECBB7
030952
02FD54
1B689C
7CC271
7E9B28
0076D1
7BCD03
7A25D8
0AEB80
759913
1275CD
048648
76DEEB
0A3561
090A35
7A3F78
0CB3F6
0B4F61
7BADAF
01BE6E
00AFB3
0BCAEA
0AB4E9
7CF7B9
097720
088094
07163B
011266
05D95D
017214
7667E8
074DDF
7E161E
7B4EFC
6E3593
038BCD
055768
08D573
01FB3F
0C102F
0F68BE
0B5807
01F7A4
055768
7F0D62
7EA51E
7B03E2
006B48
785660
089214
7DF47F
02A6E3
7C8A69
09E7EA
7DFB1E
07A2BE
0966E0
7B634D
02A0EC
04D4AA
797891
1035BD
77FC22
024DC2
15E18E
059CAE
7C30C2
7D7093
7A7E84
08954A
130175
02BC51
06262C
7BF961
75744F
7E4AAD
049EDB
009B41
000B56
0967FD
021AE7
7D0C6F
02E8E1
7A17E3
016EEF
01A6F8
02D6DC
07F1F9
7624FE
787336
7CFD08
7880B6
7A4DB1
02E5AB
7C35EF
00154C
061693
01098D
05A964
04064A
7F42BB
06DCD2
05E0C5
022ED3
094D83
00202D
034B94
0BD87B
0855A7
039C1F
05CD5F
159EF9
156228
0A6E97
0BBD16
0F03AF
078B47
7E9175
7D8D9B
7CE51D
01797C
111090
09B5A6
79C4B9
0F37EB
048648
03E8FF
76935B
0317DF
0EE87D
7CC8FF
7F51AC
795208
023B9A
7D7ABB
05016C
059168
0F0AF5
016345
080FFD
0D186D
0D8904
0C7E17
1AEC7C
0A1900
025614
789BD8
7D6377
01DA8B
073461
050646
0E43BB
03BC3C
046822
041259
04F53C
0AE04C
07688B
0BD5BA
07BF83
7E321A
7FD588
063BCD
043A86
0AC1C1
7C6E19
789A02
7D2A62
7C475E
7FB8C3
028A0D
08461F
7E41F6
09E093
037436
023209
77810E
7F953D
7D9EB6
7B7A3D
68791C
007064
031E18
03A311
07FC00
147D80
7B20D9
0030C2
7E2C45
7A5918
7C4577
7EF87A
7FA483
77061C
7AE6C8
7C64A9
02B767
7AEE84
7789A4
071E08
7A1544
03FCFC
7C0C73
05AD64
777C35
79807F
74BB4D
72E211
00EE39
014C87
030F9D
0D3996
00B06C
03BC0A
07DE61
0922B7
02006D
0C4C8B
0DCDB3
7E8E92
00449D
030F06
012B5E
087368
00D541
16AD0C
062CDC
08EA6C
0714A9
0827D8
021DFB
789D06
0A09AA
113FAF
7DEC3D
05B680
0247CB
123E8D
0AD202
0F4E33
152791
06584F
014185
0A9984
104630
0206C8
02C493
165BA6
0E2046
07574F
7E2E2B
0ABFA8
0B1F9A
1773C0
120A20
0D0C91
0F3FC8
099620
0C6DF8
0BD417
0B24A6
1716A0
1B8E9F
10C20D
0FC2FC
043925
00E11D
0C8A9B
04FDE2
0706D5
132F66
07D007
06978D
7F9D0A
7DCD3E
14069E
0F9A6B
12350D
0DFC9F
0C1733
77E4FF
01CE28
7F368A
00387D
0383AD
092902
0A35D6
0376E6
05C560
03ED0F
0CB72C
0E5764
0C8F96
143A86
089E23
0312B1
7BCF0B
7C610F
6142B3
7CA665
777100
03CCE1
7F30E7
04F744
7E4745
013868
0B0AE5
016701
0CC1EB
043372
00CE5F
0592A7
015831
028AB4
0A1B5C
124990
11C4A8
117881
06747D
043537
142B62
087F66
0E0B4E
047DD4
7C5E3D
7BC621
005F5A
0D0939
0721C4
0D1340
0AB91B
11CE7C
0CD499
7999ED
03E931
0DA437
03D2A6
74FF43
6C4D44
71ED28
79183B
07CB0C
115F35
0D7518
7F5979
00E3FF
0DD6BE
74406C
7E38B8
749310
034E01
752D44
704944
790A67
02E621
7E687F
7E63B6
12450A
7E91FB
03AE79
02BD09
08435E
00C9A7
03EE1B
032053
745154
786099
7CC38F
7AE88D
6CB48D
6FBCB1
7A7F90
7BF2C3
7A6751
06AFCC
06D19D
03504C
03B1C0
037457
037271
7F0AC3
7F4117
6923A2
660F5E
6A77E5
720578
788ABD
76E6FB
7BCDEE
776662
7C4E0D
079C94
7B3A68
73BA66
741CE6
02275A
68CC78
70F9B1
7588F4
7B789A
79CEF2
6E4788
71CA3A
6A19FC
702917
75FA65
6BC01A
727CAE
71272C
70A05D
7596D8
74445A
7A31E7
6DA1A9
673B21
6B1F68
724430
71FE11
6C8E15
70FBFC
66B4E9
6F4F82
77075B
6D46B2
6ABCC6
6AF3A1
5D0374
6F14CA
77DB6E
70DDA4
75DDD2
6EE2DA
6D754B
6B5EB7
69BE8F
75FCD2
6EAA7D
64913A
749E77
66FBB0
65F3B6
716A37
7B5C4A
009ADC
7954C9
739841
6DB90E
749DCF
7C46E8
7D7225
74C7C0
63CEFA
6B9DE4
6AD213
6B3732
70DC01
715475
7828C3
7B3051
7E2AA1
02B990
79B6C3
02A704
7DEB95
773929
6E7392
666E00
698351
7204C0
6B8F25
76FA2F
78BC05
7F486F
7A66BA
73A1F4
79CAD1
7DA016
7852D6
78E896
6DC94F
66DEB9
761EF7
6D0492
7656EE
74E810
003958
742773
723726
7A72B8
7B24FA
7BC297
01FF1D
7E6C4C
6E08BF
016462
795B68
784A72
04F14D
7DE42E
76EA63
00FF75
797ADD
0371B8
0918C1
018C8E
0569B1
7E034F
7D1CC1
73C04C
783D03
79D3ED
012D12
0896CC
78E4B8
02BBFD
0EF1CB
7E07B3
02DF0D
0308DD
0F7585
771704
762F9C
7C7EAE
73C211
02CBC8
7B079E
7A45C3
779BBA
037197
7FA743
039314
039B88
0B893F
0AC6AC
08470A
069E90
0392E1
7E85CA
74ACAF
79E881
074E98
028EF7
7ADCC2
104E50
053BC0
0087A8
0D1AB8
0C8F86
04E991
114E6E
052C6A
7FF79C
0444E0
09389B
0179E1
7ED87F
7D0331
784F5D
05206C
781E14
742E23
75EA24
08B039
07BC3C
03FCC9
06DEA8
7E835D
7762F9
7D79E1
03D284
011EA7
78B370
7110B1
083686
07EB4A
05524B
784DB9
04661A
7FB6FE
04DCFC
0D718E
03B4D4
72788D
024085
17823C
7E8198
7391C4
702517
05A49C
0BB602
0A2D51
0756A7
7FBA45
73EA70
767147
012018
79A469
7620AB
081776
09BC55
044146
7A2EB1
75A7F3
7D78B3
02871A
0AD1E1
77C98A
741D19
01522A
771290
0BAECD
7472F3
0C8CA3
03F9F8
060BA1
006983
7C7E7C
75655E
743F5F
7DDB44
74DA2B
762068
7D4A90
78A9BC
0587F8
04E097
0AD330
0F02A3
0682F9
7F2A7B
01F0D4
040713
78536D
045814
04B018
029DB6
7F0F7B
7D3E92
7188E3
7B1A3B
7E6927
7F778D
040CF9
0843F5
7DCD3E
762057
01A7E3
04C100
7B30F8
074128
708F64
7CEE5A
00D488
7DA5DA
00E736
74CC78
7C153B
7FA3EC
1089A0
7DA975
02250F
7BF1C7
76DBC6
07D438
7A7E41
7700FF
0907D9
7BE681
77FC97
009CE4
00B220
6B810E
0D2E62
0C3265
7BFCEB
7701A7
6AB3AA
6D06AB
6A47EC
6FD017
0442FA
7D40DD
7B5D24
7835CE
7CFEAC
75592D
7A773E
7D84E3
7CCF39
7A8F9F
668294
77166E
08DF26
007B56
142D49
1EC9F2
0C5CAA
7C3936
03ECED
7FA80C
6A5ABC
7DFDCD
037414
01B706
66E610
19DE48
1399C3
10F798
197BB7
10A5DF
0D271B
00ECFA
760AE9
694B05
621F18
74169C
78D3E0
7AB430
028390
0891D1
75C5D6
16E4F3
0C93D9
02C93A
005271
7731E3
74EEBF
6D740C
6DA943
746B37
023087
7886CE
7EBAF1
0BECFE
07533F
111ED9
04AEA7
08B48D
0ED4D4
7E2F6A
721C68
6B3E03
5E1CDE
71652B
7381F9
6AB13D
04FE9B
109928
7F1290
00D2B2
068166
7F5E41
070DC7
7746BA
76835D
75D388
77C73E
773F96
7E72B8
01E4C5
11F46E
043409
6E43CC
0315F8
0B5BA2
02784A
007464
057258
03645A
078B69
01B530
015896
116C0D
0F5BE5
7D57EE
711372
6D2285
018E86
0071F7
7B4AA9
0530AD
094E1A
0A41B3
7C1EEE
05376D
029531
159274
0FBF93
0245A1
7C62B2
7BAA25
0635E7
092641
051F2D
0EDB50
09D54D
0B70DE
7F6955
7DEABB
78026C
0A0989
093048
7FF1C7
0D5315
0B193F
0B6390
795193
794FF0
0B58E2
7EF199
78D9F9
7FF23C
751915
7DAE0C
06EE73
03F0DC
6F3051
0796D0
7BA6DE
778C00
794B27
0BC211
0F89C5
04663C
732074
0EFAD6
09144C
7FF11F
048648
76CE9A
037CED
0AEF6F
00AADA
03EC35
08D9D7
082ADC
0A965F
733205
724378
7C562E
7C06E1
79919A
7F9075
745D63
7F1D2E
0E5F0F
0178E5
08372E
04EC63
102491
0B720C
001C82
79F3F9
01EE02
0DEA46
013AB4
7E086B
6BE0AC
7C7182
0CFA58
7F0121
01C13F
04DFCE
0862B2
087453
1189CE
0333B9
0DD356
7F5925
7000FB
00F6AD
707570
7BC4F3
0989DF
09F42B
0B7A80
028427
086477
0976DD
76CDD0
008F96
0CFDD2
722C88
7CA18B
7FED52
7AA0BA
7E9867
751383
057710
04714F
7A805A
0BC686
7B7E6F
008FD9
7C51C9
0038B0
147229
0A8D00
0826BB
0016F0
7CEC20
767770
759F5D
024441
7E3FEE
7D6B97
011569
053E5F
05DBDB
127F90
11CC96
01C5B4
7AC0B5
0A4E16
756798
08753E
03B2BB
7B90A7
75144C
001333
757B63
7D07D9
07D08D
09FC3B
7DE386
0858CD
0D0F30
0ABA27
07D1AA
055022
134DCE
7BF705
784C05
77649D
0A6C6D
7AC615
10333F
7C2C0A
101205
00A89F
01D7FD
0235A4
0247FD
7CAAEA
1ACB10
79701D
796E7A
008238
7AEFD4
08A819
06413D
001472
75E518
7A365C
79C161
709784
7EFAA4
779064
01700C
7AE05C
7D0C5E
7A35E7
7ECDC0
04C21E
097614
039E9D
038D3F
01AE81
0CB3E5
77DF6D
06B53D
0011C2
002129
7BCFB3
7D843C
05847F
023D2D
07E996
04E842
01D6E0
0647DC
0E5AAB
7590E2
769813
00F4D7
048C60
09E9E1
08894C
788B86
00D002
02B399
0B9841
7A352E
7FB3E9
74B2D9
135B81
02C460
7166F0
7AC9E2
7ABE48
78982C
02AED1
04F12C
7AB734
0647BA
0028B2
7E8F9F
7F72C5
7D9DCB
7BB84D
05A3A0
7513F8
74F3EC
00B2FA
06789E
7D625A
01CBCC
7E84F0
06FC15
7FC06E
02E4E2
055B35
793101
0A1587
0327CB
00854C
019839
7D818C
084684
7AF5FD
0AE200
01AAB4
7CA3D7
04C932
085BAF
04EE39
7A6BA4
00242D
017EDC
09E636
08BE51
7CADEE
0D2B90
0F969E
03A850
0C9374
0B55FF
0F2B02
02B1B3
08B966
03D4E0
7E6538
7F87AD
06E126
7C7778
0328C7
07953D
075946
01FCF3
7F05FA
78A43B
05EFE9
06ED78
009D5A
07AFFB
02CE03
74EF99
75D7BA
7FC5DE
01424E
09F383
0BC643
09846E
08E4A7
7B50D2
0027A6
0B301E
7E4A38
0C4007
02FBC1
04E9F6
7E847B

