BD79F98B
3D92031D
3D7D8ADB
3DAAAE29
BAF29D41
3BCE703B
3D02E771
3DAFD9FD
3DB3B8E5
3C9F0803
3C819F3C
3CE34DAD
3CE20EE9
3C78444A
BCB9085F
3C70B285
3D79F01C
3DDF85D7
3DC16DF4
3D880F13
3D583947
3D98C08B
3E0903A7
3D33471F
3D1F5382
3C31C433
3CB12D34
3C2DFB50
3C6529BB
3B432A8D
3CBB0A2D
3D3E21D9
3D433D6C
3CF57929
BC7316E3
3D3B0F6B
3E05A145
3D8B1466
3CBB4F61
3D35DAAD
3D304684
3CEFA1E4
3B284BE4
3D79A5A9
3DAF4E87
3D5E6256
3DC85879
BD341180
3D0ABA38
BC5F6DB9
3CBA1D32
3D321B3B
3D825397
BC45D639
3D7E4BCB
3D994A6F
3CD564B6
3C297E13
3D7A52AC
3CEE99A6
3D0E5604
BD43DDDB
BDA1932D
BCCD50EC
3D3A12B6
3CD51B50
BBA50D6B
3C1A2C67
BC0F4F94
3D25FA66
BCBCFD4C
3B073366
3D2EA52F
3D4B124D
3C85C24C
3D6D2ED8
BC9E7536
BD50917D
3D8AE42A
3D56F976
3C8FC936
BDDC9ABB
BBE05469
3BD18D26
BD04CAD5
BD441AAC
3BF96E16
3C84B3C4
BD16BA8C
3DB15AD1
3D238FBD
BDA31487
3CDBB16C
BC730A4E
BD7368AD
BCC299D9
BC7AA045
3AB65237
BC95B35B
3B112989
3D8F3882
3D0B2C84
BCEF2E8C
3D9583A5
BCA37692
BD865BEA
3C92A0EC
3B93C03C
BD1A836F
3CA391D5
3D21522A
3D086AD3
BCA178F7
BC88E582
3CE47FDC
3C82F72B
BD79042E
3C77CED9
BD026784
B9F5E41D
3D397BB7
BD869DF9
BD65082D
BD3381D8
3D2C6EF4
BC5FD695
BDB5579B
3AED80A1
BD33D295
BD48ADEF
BCA71583
BCC22899
BD47FDC6
BD032767
BBDCA8E3
BD8FAB54
BD3FAF42
BD6CE24C
3C9F9485
BC4E0FC3
BD355BCD
3CB0B179
BC82C908
BD7CF80E
BCAC0831
3B39BAA1
BDCFEB4A
BD361459
3D242D06
3C4ED917
BCC026CC
3C371FBC
BC209891
3CB139C9
BC56ADF7
3CF92F2B
3C39A177
BCFCF80E
BDBF1306
BE0BD1AB
BCDDF655
BDB47065
BD5E108C
BC525EDD
3D5A1A93
3D1462C3
3C4CE1C6
3C9E2585
BB833C60
BB0C60CC
3B463F14
3C99A848
BD47DB2B
3CC7FFDE
3D1C69F9
3D76F6D7
BD1D462C
BD96A50D
BB931876
BCDC52E7
BCB09E99
3D9B6FE3
BD48C500
BCA71151
3C7633CE
BD2161E5
BD83B8A2
3C8CEB35
3D9FA1A1
3C8FC71D
BC97B95A
BDA148BB
3C81E471
BDCF0AE5
3CA3D0C0
3C06A099
BCF0DE8F
BC817FC7
BC62F380
BC12B3CC
3CA704BC
BB492147
BD42D278
3D236D22
3D249907
3D901F32
3D15BBBF
3DD45CFF
3D417EBB
BB8A6117
BD69CFDD
BD38F14E
BD141B76
3BB1A2A5
BCE6FB4C
38DE4C51
BBF27350
3D7D805E
3DBB1C86
3DC2A66E
3DFE40C8
3D89D94D
3B8E043A
3D46E2A8
3D70DC77
BBDDF00B
BD1ED6BB
3D7AA79C
BC55BAB2
3C0DC550
3CCBD988
3D81198B
3BB9B23E
3E043C3A
3DE58687
3DBAF8DF
3CA25FA6
3D232D2C
3DEBE7B0
3C93DFB1
3CA7E0F0
BC3F5D79
BC6A9A3D
BD211BA4
3D036EB5
BD08CF7D
BD211CB0
3D7FDB4D
B9755DE6
BCE0F1B2
3CEBB98C
3D89C023
3CF99807
3D14EC20
3D362307
BCF4A340
3D48B86B
BB871A3B
BD99C6B0
3B3E0DED
3D7C621B
BC7EC13C
BCD2CBEA
BB4E3DE6
3B9003EF
3D26A11F
3CD9E83E
3A8F42FF
3CAF72B4
BD9388A9
BC9042D9
BC4F398F
3D11B3F2
3C9FE21E
BCFB4E55
BCA4D4CC
3DB1BE6E
3CF69EC3
3B69A2C6
BD5A2D73
3C502CD4
BCC6B69E
BCBF4235
BCB1F03D
3C8383AE
BD7CB3E5
BDDA8694
BD83F466
BDE07F67
BD27E73A
BCB38716
BD2F8594
BD2875D5
BD898A22
3D4AB607
BD404FB1
BD98F9B1
BDB28F19
BC4F850E
BB4447C3
BD611BA4
BC090D5A
BE075AFB
BD478961
BD364389
BD06BCE8
BD1F6230
3C96312F
3C2847B2
BDBE9531
BD3355CE
3BABEF07
3BC100E7
3D9B078E
BCF96BFD
BD4C8FFC
BCF57710
BC14C87A
BA80303C
3BE51D26
3C9E7536
BC0405B4
3C8C0486
BD42EBA2
BD9D5C31
BD99902A
BDABAA58
BCF4F93C
BDB94856
BD5EE02A
BCA5DD09
BD86C2AD
3D0FEBD1
3DD29DC7
3DA48840
3C300368
3C5DACEF
BCCFBDAD
BD432229
BD8F4A56
BD914CA9
BD1ABC0E
3D2EE84B
3C2DD591
3D6FFC11
3DCDD484
3E36A162
3DBB76B4
3CEE978D
3CF04DDB
3D8DAF4B
3D693AF7
BCCCC250
BDA5846F
BA96BB99
BD6789E7
BCF6F8F0
3D8E0C17
BC96FC9C
3D0205FF
3CA0DFDF
3BBA3012
3C368CEF
3C58E864
3D0E5711
BD442635
BCC61F9F
3B5C011D
3DB335D2
3DB36C59
BD0C9108
3C708CC5
3C7E64F5
3CB13166
3C7AF859
BD2640A7
3BEDB2F6
BCB3CE64
3D1A5CA3
3CE3150E
3C63E6C5
BC066E44
BD31A5CA
3C86748E
3DAB60F2
3DB5EBFB
3DBD2F1B
BC4D4ED3
BAADAB9F
3E048D3B
3D1F1AE3
3CF735C2
BD6BF445
BB806AF4
3D224BBA
3D84A409
3D908030
3D043809
3C5987C6
BBCB4289
3D369CAA
3CB71FBC
3CDD377E
3D962BF1
3CF2D5E0
BC67E62E
3CE96A27
BC6774EF
BC7023EA
3C7737DA
3D5BBCF5
3C844D01
BBCF850E
BC8B04AB
3CE3821B
3CF1E4B4
3D8EE8D1
3CC18D69
3C3545C8
3A8D2A20
3C36848C
3C8763A2
3B80841F
BCCAC4B5
3C09613D
BBDD4845
BD3AE792
BD195CC8
3D0C8041
3C71C326
3C178D50
BBFCBD55
3C438B05
3C6C13BA
3CEC58EF
3C460CBF
3D250D6B
3D089D28
3D699A63
BD1FE111
BC4508B3
BD353932
BD0387DF
BD94373F
BD2C6DE7
BC607A29
3C83A10A
3CAC98E5
3B77A919
3AC8CD64
3C2BEF07
3C2EBC41
3B5D2F1B
3CE1198B
BCEC2CE4
BD6C11A1
3CB7E910
3CD90E24
BD63FEE3
BCBA3876
BC96C3FC
3B519589
3C727781
BD371FBC
BD504F6E
3D502ABB
3CC0DB27
3C415098
BAC23FAB
BD1D8B61
BB42B51C
BC8E3044
3C34C3C2
BD1DEBD9
3D0FA26A
BCB93251
BB3DA943
BCC3979A
BCEC2ACC
3CAC881E
3C975297
3CCADBC6
BC8D7386
BD92074F
BD1AAC54
BC5B5958
BD07A073
BD953261
BD65B856
BADE0935
3C91C6D2
BD43632C
3CC282C7
BC9B4FE8
BCA98AA8
3CF8C650
BD625743
BCEB95E6
3C3EBE16
BD67B6FE
3C86D2ED
BD719C5A
BC2B53D6
BC829AE5
3B7CB4F2
BCE45C36
BCBF9831
3B094C44
BB65A35D
3C46B485
BD8B28D8
BD15714C
3B68101F
BC99B2C4
BCB549F9
BD58E758
BD0F0C78
3CB48F54
BBD50EBB
BBABE6A3
BBAD794A
BC9856A3
BBA9A3D3
3B10A351
BC6BC83B
BD1DA8BD
3B86E7E6
3996787D
BD2A3F03
BC95E7C9
3C629F9D
BC241A26
BC11F70E
3C2A21A7
3CCDC444
BCC32874
3CF7BE12
BD1A8262
BD712A0F
BD85A683
BC2DB403
BCABFB9C
BC9ED7C7
3C7D4BF1
3B775537
BBA86D72
3CA734F8
BC9882AE
3D50F734
3CD7ABB9
BD306C44
BC94F8B6
BC9E7968
3CFF51F0
BD7E5215
BC4F28C8
3C8D8A98
BC97310A
BCF546D4
3C4ECC81
BBC40D0B
BB9E6EEB
3C289B95
BD27E521
3D094D51
3D2EA748
3C30FF11
3D238540
BCB00581
BD6949A5
BB5C3372
BD394318
BC89F40A
3A8FEAC4
3C7FE2A4
3DAA5F85
3CD77100
3B9C5E70
BC5E7642
BC4011D3
3CEE0D24
BD43504C
3C73CF70
3B3167EC
BD3D77FB
BD3737DA
3CF969E4
3C001F75
3D262132
3D19817C
3CE9A911
3D717482
3C8A350D
BCF83BE6
3C225D8D
3D87192F
3DA7C201
3DA311E8
3D9A6267
3D4CCFF2
3CCC1CA4
3C5C1E79
3DD1E29B
3D5A9110
3D090D5A
3CF6837F
3CFC1377
3D28E0CA
3C424C40
3C8B4E12
3D0D972D
3C9BFDF8
3C70AA22
3D33A9B0
3CEF88B9
3D19F4D3
3DBD89CE
3D85729B
3D7CE209
3D811666
3C451117
3D0199FE
BBCC2D6B
BD210060
BC289FC7
3CBE78E2
BD8A9931
3C006F26
3CC2B51C
3C92B1B3
3D91CB04
3D42C2BD
3D818506
3D1F5BE6
3D5614E0
3D8DCC21
3D2C68A9
3CC79F66
3CC24C40
3CA24463
3B9FB613
3D34A98B
3D03B70F
3CA47CB7
BCC90C4E
BCF7A701
3BFE36D2
3B56F545
3CF9FECA
3D0D4FDF
3D1A5333
B955E8D5
3D10FC72
3CB69121
3CF0DE8F
3D4F3BA7
BC95E7C9
BC9A8CDF
3D15E17E
BCE29B6B
BD5EF0F1
BD75147F
BC2F9EBF
3D01A587
3C81B435
BB937D20
3D2EEFA2
BC5AC259
BD022468
3C0CC9A7
3C5BEC25
BC196FA8
3C4D0FE9
BC2DD15F
BD1AEE63
BD0DF58C
3D1510D4
3B33C3E7
3CC24C40
3D810B63
3D164F98
BC6B1C43
BCBF4CB2
BCF71A7E
BB873BC9
3BC814D7
3D191EEB
BCFF9B56
BC9CF13D
3D1D4D83
3D5C9B41
3C3FCA86
BCA3EC03
3D398740
3D4E7254
3C7CB0C0
3C6425AF
BD0EC311
3C312D34
3D16440F
3C197C3D
BD65E02F
BCA38972
3C0769EC
BC73B646
BCEBC622
BCEBACF7
BCCF5F4E
3C900C52
BBD7ADD1
3C798740
BCDF9DF5
BCFBA66A
3D277B39
3C627E0F
BD74A340
BD1832FD
BD4E0A85
BD2601BD
BC0101F3
3D0EB24A
3D2CDD0E
3D09E12A
BCFBB518
3C8BD662
BBC508B3
BD2AE7D5
3CA17F41
BB562BF1
BCDBA0A5
BD9CF701
BCA1A501
BC2DC8FC
BC282A56
3B33E575
3B9F4906
BC836220
3C62C55D
BCACCB3A
BD3AECD0
BCDA921D
BD0D099E
3C0986FD
BC5F8F47
BD2E8F2A
BD45B39E
3BA8E2E3
BD544780
BC9871E7
BD4EAE19
BC952F3C
BCA62025
BC72DC2B
BBEFDC9C
BC8BDEC6
BBCC4EF9
3D12C493
BCACA9AC
BC8C0054
3C1ABB02
BC347410
BD4B1FEF
BD17C2CA
BD2774EF
3CEE73E7
BC778FEF
3C76D762
BB6F1349
BC4B89D7
3CE40C84
3D7923A3
3D322C02
3D1103C9
3C3FF045
3B0509C0
BD45D639
BDCFECDD
BD5AD107
BD1FDCDF
BBF10A9A
BCCD013B
BD592D99
BD92135E
3C29B49A
3D843569
3C7B7A5F
BD83AD9F
BD92DA98
BD95EBFB
BD12AA5C
BCC942D5
BBB21816
BD9C2CA1
BD9A41E5
BD8CEAAF
BD1656EF
BD101084
BD5694CD
3A0F2171
3C855758
BC6FB6DD
BDC21294
BDC954A8
BE01A2A5
BDC5F740
BDEEE17A
BDAFCEFB
BDC43E53
BE0C56D6
BDA1A262
BCF8C005
BD6F5FD4
BD6108C4
BCC054EF
BCF2CF96
BDF885D3
BDFF3E8A
BE1800A8
BDB63A19
BDEFC71D
BDD11F0C
BDCFBE34
BD9523B3
BD95C52E
BD5CCB7D
BD862ED3
3C8BB0A3
BB1BF9C6
BCCD4ED3
BD93E469
BDA440F2
BD8D4F59
BDBD188F
BD2C1095
BD968273
BC31B79E
BD0C48AE
BD0E9F6B
BDBB866E
BE001EAC
3D75D13D
3DB844D0
BB0EFFE3
BD5C94F7
BCD188F4
BD2DCC21
BD695209
BBA59C06
BD48C0CF
BCDFB2EE
BCB43FA3
BCAD9CF1
BD244C7B
BD84ECEA
BBEC6BCF
3B89DAE0
3A922531
BC4C6C55
BBF7878B
BCEC0B56
BD62834D
BD33A68B
3BB11C6D
BD83033A
BD37C782
3B8C1DB0
BCBDF4C3
3CFF8A8F
3C45E2CE
3D0548AA
3D3314CB
3BDE3327
BCF51EFB
3C086595
BCB90EAA
3D360179
3DB4DD72
3C563886
3D6B1D50
3DE7863C
3D3DB1A7
BC00CF9E
BC38D823
3BE02214
3B054CDB
3C8B06C4
3D3D0E13
BA89A027
3CDFC3B5
3D7C0C20
3D46C658
3CE34B94
3B9F383F
3B539DA1
BC05A0BE
BD02E33F
BBE4191A
3CC73259
3D29E908
BC17C808
3CC01A37
3D93404F
3D528177
3D19902A
3D257A78
BD0725C4
BC9A8AC6
3D169B17
3B9E3433
BC5A511A
BCA27AEA
3DA1387A
3DDDA598
3D0254A4
3D21E929
3DEDAB9F
3D90BD88
3D1FB507
3D91E4B4
BD1AA609
BD50D6B2
BD452E73
BBE60807
BD80D802
BD6873BD
BC770DE9
3B27B4E5
BCA5F634
BD5461B7
BD5C4B90
3CB8C975
3CCAAB8A
3D156191
3B5E19FC
BD63C42A
BCD30AD4
3C940BBB
BCDF17BE
BD17D06C
BCA60B2D
BC18676A
BD32EDFE
BC9001D6
BCC96CC6
BD49320E
BC4AFB3B
3BAF46AA
3D293187
3CE8405B
3B25375D
3D049774
BCD61D43
BD138DE7
3C866A12
3DCED890
3D259296
BA3BF50E
BC1AB29E
BB525EDD
BB261177
BCFBCE42
3CAF72B4
3D2EFF5C
3D0D1527
3DAF850E
3D81AF7D
BD3779EA
3CF0ED3E
3D17FF9B
BCB964A6
3B9DF117
3D0FFEB0
BBA350D3
3DADFBD7
3DA656AC
3D937974
3DF77532
3D5273D6
3D28F8E8
3D2C41DD
BC9BCFD5
3C2A044B
3DA67D78
3CD807FF
3C133A04
3D428B2A
3CD145D8
BA2AEAFB
3D50D280
3D792AFA
BD1753A4
3BA43351
3C35FA22
3B8F42FF
BC70BF1A
3BDA0169
3D092360
3D3F4CB2
3C573861
3C00A9DF
3BBA16E8
3D39CE8E
3D7FBDF1
3D3661F2
3C61A3F4
BA007358
BB968944
3B889C1B
3CF16F44
3D17B741
3C553049
3D218DEF
3D1DFEB9
BCAAA9F8
BD52C062
BC6B5F5F
3D144674
3D13FE19
BC94B59A
388A697B
3D071822
BCA1A71A
3D4DEE35
3D054DE8
3C67429A
3CC7D5ED
3D42ABAC
BCA3358F
BA2137F4
BCDB0575
BD50C0AD
3C425D07
BD4FB86F
BD30D62C
BA202B84
3CE45804
BCDEAAB0
3C49CD3E
3C1A0AD9
BB8626F6
3CDA1449
3CF8854D
BD7F0ED4
BCFB139D
3CB608D1
BD0BAA58
BD5A1FD1
BC876E1E
BCB8A5CE
BC86D2ED
3D1BA4D7
3CA1C68F
BB84DFCE
BCA9F384
BD1CDF6A
3D0ED2CC
BD1F70DF
BD187725
3C931444
BD2E45C3
BD18B3F6
BD206A6E
3CD55821
BD1AB192
3CE0242D
BC43E319
BC2BB44E
BBD03D9B
3D17470F
BCB2ACFB
BD069510
BD7BE660
BD8D7F95
BD404B7F
BCB1FEEB
BD2991FF
BCE34B94
3CC981BF
3BE05469
3CA324C8
BA9A0275
BCA04F2B
3C12F2B6
BBB11C6D
BCAEEE95
BD3F7F06
BD42070C
BD36B1A3
BD446B6A
BC8AAC97
3C867F0B
3BA454DE
BD126528
3BF776C5
3C7C115E
3CD50225
3D188095
3BCA600B
BD42C6EF
BB6CB74E
BC9059EA
BD7A5C1C
BCF90108
BD23A4B5
BC80E6B0
BC94C016
BD08722A
BD00357A
BCABEAD5
3BE77920
3C9817B9
BD0ED1BF
BCE57321
BD4F6167
3D154435
BD15043E
BCEF5A96
BCF5A533
BB0882F1
BA03DBC2
BCA5BD94
3BB6848C
BC35D463
BC715E7D
3C07BDCF
BCDE529C
3BE978D5
BA80F990
BB58BA41
3D807810
3C12428D
3D5A34CA
3CACECC8
3CB5F1BF
3D25F30E
3BA44418
3D8BCB60
BCC245F6
3C9D0204
BD4BA301
BD25C1C6
3D0C6B48
BAEF5665
3A467169
BC9CAC08
3C82CF53
BC373083
3BE0D23D
BCCB4D05
BD2B9B24
3C8BBD38
3D5EB52D
3CCBA301
3DB7D0F2
3CF0BAE9
3D3356DA
3D55970B
BBF0068E
BC0EDA23
BD89CCB8
BD2DE11A
3C61C9B4
3C5BA4D7
BB77878B
BBCF4A56
BD070FBF
BC6681AA
3D0739B0
3DC67C6C
3DB7F0ED
3DA3A190
3C8DF7A5
BB870111
3CF3929F
BD1C38B0
3C12E1EF
BCFF5C6C
BCBB4917
BCD03537
BD0A2553
BD6558EA
BDABDD33
3C427632
3CDC7CD9
3CEEC5B0
BD1F6FD2
BA8B75EA
3CB380CB
3BABD5DC
3C8BC59C
3CB8D60A
BC9E2BD0
BD1F9BDC
BD0A3401
BD9ED5AE
BCDD0742
BCF58C09
BB0398A6
3D274E23
3BA9DE8B
3D19C9D6
3CC5CDD5
3D37F6B2
3D3F65DC
BD62BCF9
BD3F78BC
BBE54F7B
BCAF1023
BC605469
BD614595
BD2EC17F
BD638759
BCA38B8B
3C98548B
3B47B02D
3CCC814D
3D058FF7
3D2E30CB
BD61FAFD
BC236E2F
BB516335
BD2CDD0E
3C87D4E1
BD2B0A70
BD56ADF7
3C8470A8
3C19AE92
BDABCA53
3D7D07C8
3DB03B82
3BE820E6
BD07BAAA
3B33A259
3C9A1123
BB4B8E08
3C3FC654
3C0AA433
BD49B520
BCA0B806
BB06AD2E
BC0ADEEC
3D8FB19E
3DB7E458
3B708462
BBE75793
BD6B0D95
3D81A8AC
3CE3369C
BCA7D673
BB1363F5
BD265E03
BCEF544C
3D85D9E4
3C6AF252
BCFB139D
3D1233DF
BC4C6823
BC93D103
BC98A00A
BD343958
BAAD03DA
BA263305
BBB9F55A
3CEC204F
BCF1ED18
BBA29846
BD5DA166
BD47D2C8
3C714DB6
3D42773E
3A86162F
3CC4998D
3D2B020C
3D04F095
3ACE2D1F
BD3F1412
3B5CEBFF
BC14E5D6
BCA059A7
BD6EE200
BD91A2A5
BDA2CA9B
3CDC9A35
3D2EC4A4
3D0A7E74
3C3AF966
3CB23359
BB6D6FDB
BD7FBEFD
BDD04E62
BD3861A6
BD6FDEB5
BD9755BD
3CCA2FCF
3BFE260B
BCE0BB2C
3D384FD3
3B8FC0D3
3CC7735C
3C3BFD72
3D5FEB8E
BC3E9857
BD7F4A99
BDB12A95
BD2C01E7
BCEB851F
BD1715C6
3A5AE3E7
3C9650A4
BBE62995
3CA83D36
BC7FF36B
3CB1465F
3CDC4EB5
3D369985
3CBBABA8
BCAA0232
BD108D4C
BD4D594F
BDBE56CD
BCE1F3A5
BC662132
BC54B274
BCAB1705
3CAB6F1A
BBA276B8
BCA3033A
BC4E3583
BCEB3786
3CA656AC
3CE394FB
BD355EF2
BDAEBC41
BD9E99E9
BD8372E7
BD988766
BD4916CA
BCE12620
3D9F0FE0
BC048BEB
3C3BBA56
3D1BC665
BCB25F63
3C9D9B1B
BBF9A06A
BD1E3C97
3CFB1184
BCCA4F44
BD4B2C84
BD4B46BB
BD636F3B
BCBDBE3C
3A623AF3
BD9CD0BB
3D0C09C4
BD1E7C8D
BC8F8A4C
3D047E4A
3C209CC3
3D3851EC
3D26CF42
BCDDFA87
BD92E382
BD8F7879
BD612407
BCB48D3B
3C3584B2
BD1E8E61
3CC68CAC
BBFB43D9
BA86162F
3C9511E0
BC36B6E1
3BCB295F
BD6A0A96
BD09EDC0
BC422681
3D0F3344
3D2A51E3
3CCFEDE9
3C3441BC
BD20828C
BD321922
3D2B8B69
BC3F3387
3CA43569
BC281DC1
3CB5C5B5
BCC30D30
3C294FF0
BB4FAEFF
3D4488C6
BACCFF22
BD418506
BD527914
BC8359BC
BDAE90BC
3AC8472C
BC08A8B1
3B26CA04
3CF95704
BCB6D224
3B13532E
BC0D0460
BCE0BF5D
BD23BFF9
BC77878B
BCF31B15
BD060568
BBCB07D1
BCFA786C
3C77BE12
BCB37436
BD0794EA
BBD4994A
BCEF0F17
BD329D41
3D630EC3
BD2EAD92
3C930DFA
BCCE1C58
BD242AED
BDDA7979
3CE6FB4C
BD91B691
BCE5881A
B9E7BC3C
BBA39C52
3CDC9603
BD00FBA9
BD900608
BC971E2A
3D11AA82
BD383ADA
BCB5115A
3C4881E4
BD540896
3CAB3893
3C207703
BC403361
BCEA8976
3D2CA03C
3BA9E6EF
3C8E8EA4
3C878748
BD8A0CAE
3ABB0A2D
3C2FAB54
BBCB74DE
3BCDA6E7
BCAF9EBF
BCA9E4D6
3BA28FE2
BD125CC4
BD0536D6
3C03EC89
BC112989
3C61719F
BD64DF48
3C5D00F7
3AAFA2F0
3D05EF63
BAA2877F
BD3AE686
BC38F57F
BCB57604
3D863F9A
BDBE5EAB
BC79DB23
BD779C84
3D78D930
BC291D9B
3B86F04A
3C8476F3
3CB60D02
3D87BD49
BCAEC8D6
BD5DDB12
BD170825
3BF07BFE
3C5A37EF
3B75903A
BC6789E7
BA70A5F0
3D023FAB
3CA975B0
3D1A36E3
BB63EF28
BD4C3E32
3D71E4B4
BB8C0CE9
3BE7EE91
BCECB74E
BC662995
BC727781
BB02278D
3B7D08D5
BDABA16E
3C63F78C
3C5AB9F5
BB0E79AB
3C1ACFFA
3BAA8EB4
BBC8CD64
BB55629E
3DCBA6AD
BD494F6A
BCAA0232
BC7E1112
BD00B780
3BF30A4E
BD918223
BCCB4F1E
BC6E45C3
BA9741D1
3D33B107
3C0F2E06
3CA20BC4
BD717375
3D7D9A95
3B567FD4
BD8E24BC
3B18915C
BC393CCD
3C0BD231
BD196E9C
3CE950FC
3CF6E829
BCBB7308
BCF86A0A
BC4FBB95
BD68A505
BD13D31C
3B9F40A3
3BE94EE4
BCF1B8AA
BC88D089
BC5F86E4
BC82FF8F
BD11FD59
3D121251
3CF4E875
BC45EF63
BC69EE46
BBBCE853
3CB3F423
BD03DDDB
BB474B84
BD815DB3
3C8661AE
BCC790B8
BCCD9A52
BCE7CAEA
BC2DEEBB
3BD2BB23
3D3DD228
3C9E1F3A
3C7BE33B
BCC1E796
3D1C7582
3CE86E7E
3C41871E
BCFE08AF
BC6FCBD5
3AE84274
3CAD7F95
BD33300E
3CA046C7

