BBCBA733
39191794
3B8D5411
BC1424E6
3C39BED3
3C56B229
3C092AB7
3C057AFF
3CB606B8
3CAA0664
3C9CCFAF
3A299B6F
BC6CB31C
BB39ECF6
BC7761CC
39AB7132
BC0726D0
3B3F2B24
BCB1B585
BC940789
3C45197A
BAE820E6
3C94898F
BC818C5D
BCD3B8E5
3C6A63B7
3C303E21
BC992EA5
3C7E36D2
BBCDF267
BC067AD9
BCD0EDC4
3C0DBCED
BC3E6E65
BCCD8FD6
BBF4A559
3C973FB8
BCC0BBB2
3B0A47ED
3C05058E
BC9BC127
3C406E1A
BC9E6CD3
3B26DACB
3C02A130
BBE37154
BC8F8E7E
BCCB0186
3BC6C54C
3C9B7E0B
3BF3A14D
BC8DE093
3C62F7B1
3BEC28B3
BCB91F71
BC8F9097
3BBA7B91
3B3A1F4B
BB96E58A
BC934EFD
3CB1AB08
BB2B3EDE
BC8BCBE6
BBE54F7B
3B659296
3C84DFCE
3C2FB7E9
BC856E69
BC97353B
BCAA2C23
BCB7C782
BC6071C5
3C474320
3A688590
3C56238E
BCCB5BB4
3CB81301
3AB08DD2
3C85E5F3
3CCC8BCA
3B3E9425
BC1FBE77
BC89DAE0
3C088B54
3ADFBD6A
BC16AAD2
3BD3E0BD
BC2C6477
BC9E9D0F
3C92D773
3CB213E4
BC04B5DD
BB9C2C1B
BBA16A48
BC23F035
3C9A847B
BC8900C5
BB48ABD6
BC483EC9
3C263B69
BC68F6CF
BC0DF373
BBA88F00
BC444BF5
39041EDE
3CA0BC38
3CDBDB5E
3B001F75
BBB75643
BBBFEC14
BCB6FE2E
3B4BAF96
BC0F53C5
BC6E392E
BAF27BB3
BC46DA45
3CCBF2B2
BC995465
BC5DE376
3C56ECE1
3CAFEE70
BB00D802
39CE0B91
3C2A7DED
3CA0C6B5
BC140789
3C3178B3
BCD69F49
BBA93F29
BC17A249
3C3A94BC
3CD2ED78
3CC62E4D
BC8A6117
3C0259E2
BB58BA41
BC9D55E7
BBE9FF0D
BC9A47AA
BBC03793
3BE5C4EB
BCDBC665
BC469B5A
BC4F7015
3B669F06
3B86E7E6
3ABED741
BB80F12C
BC88DF37
3C9D1F60
BC743C7D
BCC68EC5
BCACDC01
3C820C4A
BC9ECD4B
BBB49E02
BBBB2BBB
3C368CEF
BBB65A9B
BCB61BB0
3CC6D1E1
BC08F862
BC92CF10
3AD8665E
3CA90471
BC9BE4CD
BC065519
BC7533F4
3C85FF1E
3CB1A4BE
3C3738E7
BCE3E8DE
BC94CEC4
3C2D6883
BC1B0EE5
BCC35AC9
BCA1C68F
BC36D00B
BB7A3769
BCCF28C8
BC9C5825
3C974E66
BBF55582
3C9600F3
3B27503C
3C870B8D
BC295422
3C32CC71
BB6ED02D
BCBEA705
3C49C4DB
3C9DEACD
BBCF1801
3BAF6838
BC80F990
BBA2FCF0
3C28DA7F
BCD8A97A
3C2C8605
3CB42AAA
BC9FBE77
BC7B00BD
3C8A1BE3
BB2A326E
BBEF9980
BB965F52
3CAFBE34
BCC0C847
3BE90BC8
BC588C1E
3BD4AA11
3C434C1B
3C87CC7D
BCA8F3AA
3C44E2F3
3CA75EEA
BB5E4C51
3C0DEF41
3CC59FB2
3AFB86F4
BC5A7F3D
BBB26395
BC2E31D7
3C967A96
BC69C454
BC775D9A
BC9207D5
3A8BB906
BC827D89
3BC814D7
BCBD944B
3BD9F0A2
BA3A6267
3C6EC7C9
3C86705D
BC975AFB
3B3380CB
3C4DD50B
BCC90C4E
3C15BFF0
BCB57604
BC13EA2D
BC1D7775
3BA2DB62
3AA11666
BC030E3D
3BACAFF7
BC890929
BC0D002E
3BDD0529
3C856A38
3CA517E7
3A65E679
BCC09E56
BC84DB9C
39CAE643
3C6D1394
3AF16F44
BC8739B0
BCBF5B60
3C84D552
BBBE9C88
3C644B6F
3C60D23D
BA50AAA8
3C7CFC40
BCA92A30
BCB1A8EF
BC02517E
3C779852
3C9FE64F
3CB7C350
BC18D046
BC8539FC
3C6BC83B
BCD44BB2
3C8B8F15
BC9CBCCF
BC2D362F
BA984E40
3CB295EA
3C1E55C1
3C153155
BBE6EA85
3BBA6267
3AC38F36
BCC30B18
BCCB2D90
BC978B37
BBD3C793
3C8D9946
BBC08312
3C7227D0
3CC75819
BAC17657
BC8EAE19
BCC9667B
3BBDD335
3C27008A
B96CFA6A
3C012BE5
3BF80560
BCC94B38
3C70FE04
3CCF4624
3C095076
3C854691
BC23EC03
BCC0E7BC
3C13CCD1
3C2B25B3
3CADDBDB
BCC41DD2
BB0B545C
BC87BBB6
BC73519C
3A79D2BF
3CB7ED42
3B0D0892
BC31C001
3B60EB68
3CCA686E
BCB71540
3C917D6B
3C93A711
BBC5974E
3C994E1A
BC678E19
BCBE24FF
BC4C100E
BC086595
BC19524C
BCBA5C1C
BADC11E4
BC2DE226
3B1CF56F
BCA6AA8F
3B67DDCA
BC8A9585
3BF91A33
BC1A5EBB
BC99157B
BBC61523
BCBFDD66
3B7CE747
3B755DE6
3CA61BF3
3C58F92B
BA8B545C
BCE85FD0
BBB7E4DE
BC131CA8
3C161C37
3A75E41D
3C88C1DB
BBCF95D5
BC81F106
3C6EDCC2
BC986FCE
BAFF9724
3C715A4B
3CBBE879
3C2E85BA
3CA09891
BC629F9D
BCB2F449
3B700EF1
3CB723EE
BC342891
BCB1A8EF
3B08B546
3B9D27C4
3C965D3A
3C14AB1D
BB61932D
BC72CB64
3CBF7AD5
396E06D9
BC8092CD
3CAC81D4
BC2F533F
BB0BA83F
3C172CD8
3C5E54B5
3B34D057
BB496463
3C5490E6
3C477575
BC440D0B
BC095076
3C71FDDF
BC5859C9
3C9E12A5
3C898B2F
BCC7DA1F
3C408744
BB807BBB
3C957CD4
BA2AA7DF
3C99C172
3C981E04
BCAAF9A9
3C849236
3CA7E953
BC6D783E
BC859C8D
3BA326E1
3ADAE3E7
BBF08462
3C842D8C
BC4371DA
BC3035BD
3CBE6E65
BC8EA39C
3BC3979A
3C01626B
BC170718
3C049881
3C278AF4
3C803EEA
3CA265F1
BCC3E100
BC68C048
BBB1AB08
BBD3E921
3C3E61D0
BC7D156A
3BAFA2F0
BA81E471
BCB167EC
3C70A5F0
3C84C272
BCD3CDDD
3C016F00
BC981BEB
3BDF2ECF
BC4DEA03
BC3A0E84
BCC3B0C4
3CC27C7C
3CA4B557
BABE5109
3CA2F05A
3BFCDEE3
3B6D4E4D
BC903212
3C21FD15
3CA20792
BC14317B
3BAC5C14
BC4F2496
BB4868BA
3CB97FE9
3C95F02C
3B9741D1
3C11BC56
BC95054B
BB283B1D
BAB6D86F
39052B4E
3C5B0575
BB55B680
BC3D5561
BC9DCD70
BC3588E3
BCAD3A60
BC1CDC44
BC68DDA5
BC3C664D
BC8F29D4
3C129670
3B628ED6
BC0F4B62
BCC8C2E7
3C3C6EB1
BC11D580
BB57E026
3ACE703B
BB59B5E9
BC12C493
3CBBE447
BC46AC21
BAD434A0
BAA76102
3BE453D2
BCC575C0
385E4C51
BCC4DCA9
3C846413
3C97396D
3A9BF9C6
BBF92296
3BE84274
BBBC169C
BC67FF58
BCB037D6
BCAFA722
BCA79FED
3C13C03C
BCA1E3EB
3CB675DE
BC9ABF34
BC9F18CA
BC2B25B3
3C04A948
3CB1D0C8
BA33D4AE
3C8A4E38
BC2F9229
3CA9A3D3
3C1A3D2E
3C8B2C84
BC9BC98A
3B438F36
3CA09AAA
BC3CB5FE
BA945F9E
3C0A8F3B
BBF861A6
3BB5DCC6
BC808A69
3CB443D4
BBCC2D6B
3CB6F9FD
3A72BECF
BBB55EF2
BC7CD24E
BC1A415F
3C35A20E
BCB313BE
3CB2BBAA
BBB2AF14
BB0C1DB0
3C1AE925
BCAC8E69
3B334E77
3C300FFE
BC773C0C
BC602646
3CA4CC68
BCAB862B
3C9FE868
3C82B40F
3CAF038E
3C818A44
3C1F5169
3CA747D8
3BBB2357
3BE94EE4
3B55F99C
BB9B0EE5
3CA2552A
BC903A75
3C56733F
3C5CB146
BBEEBF66
BC0B9778
3BC36DA8
3C37AE58
3B99E0E7
3C0B8280
BCC4955B
BC25375D
BCB01648
BCC65E89
BC5C4C9D
BAD0AAA8
3C7A5D29
BC029CFE
BC5E3B8A
3C978705
3C36177F
3C6BFA8F
BC95BFF0
BC91AFC0
3C6D288D
BC505AF7
3BA0125A
BC7F9B56
3B4F5B1D
BCD4D61B
3C3380CB
BCC7B891
3C78982D
BC9BDE83
3C96D2AA
3C9BF594
3A9D8C6D
BB9E0A42
3BB15F89
3C96F651
BA44588A
BBFF6D33
3C3CC6C5
3C8C1FC9
BC8ABD5E
BBE4B87C
BC1D909F
3C06833C
3B81B21C
BC36E936
BB82BE8C
BC97B741
3C1085F5
BC973754
3BED4E4D
3C03EC89
BC3A5A04
BB7F865D
3C423748
3C244C7B
3C97268D
BC818C5D
BCA326E1
BBFD3B2A
BC8A30DB
BC0B47C7
3BD8D36B
BCC9BA5E
3BA7F801
BB733440
3CA0FB22
BCABB667
BC9B4BB6
3A2E9681
BCAA411C
3C7EEF5F
3C8ED80A
3C657D9E
BBAA1944
BC6225FA
BC1463D0
BB79B131
BB446951
BC3B9496
BC2847B2
BCC4F1A2
BCC18D69
3BD4994A
3AC069E8
BBF00EF1
3C40E38A
3C92CADE
BC59DFDB
BAFD5CB8
3BD905C0
3BEEFA1E
BAE581CF
BC3F9831
BC4D39DA
BBDD8B61
3BDB7282
39F98FA3
BBF8D717
3CAAC109
BC54C76D
BC2E03B4
BB9728A6
BCA5E56D
BCB92E1F
BCD1C7DE
BCBA83F5
BBB13DFB
BCB5E743
3C020A31
BC8626F6
BC136827
3C9CDE5D
BC567770
BCCDEC1C
3C300BCC
BC93C03C
3C8DA3C2
BC8A5EFF
BC769CAA
BCA97E13
BC895076
3C99F1AE
BC81BC99
3CBE48A6
3A1E12A5
BCC679CC
BCCED6FE
BC460CBF
B9E0EB68
3C2B9B24
BC9F4906
3C78D2E5
BCDEE782
38388CA4
BC01669D
BCC02D17
BC319610
BBD0B30B
BC835BD5
BCB93682
BBA558EA
3BD18D26
BCAF9229
3B562BF1
3CC5EF63
BCB51BD6
BCA2F273
BCBCE421
BCA541D9
3C9A5871
3C9B2E5A
3CB8AE32
BC8F01FC
BC6C2CE4
BC12E621
3C75275F
BC7C2657
BA8765BA
BCCA1CEF
BC486488
3C059429
BC3912DC
3C41BDA5
3CAFD75E
BB122531
BBB5ED8D
BBA44C7B
3B1203A3
BB081E47
3B60B913
BAAEFB2B
BCC7C30D
BB1D7BA6
3C50F1F5
3C4F6380
3BCCCCCD
BC762307
3C545A60
BB8A265F
3C85100A
BB15F245
BCCA1CEF
BC33636F
BC00E497
39EAE18B
BCDD82FD
BC6225FA
3B23B57C
BC83DFF4
BC13E5FB
3C814B5A
BAFECDD1
BCBA57EB
BB77CAA7
BC7CF80E
BB8155D6
BB9BAE47
3993532E
3BBA27AF
3C2CB429
BC0255B0
3CA47454
3AA88F00
BC65C4EB
00000000
3C11AB8F
3CB6ED67
3C49AFE2
BBDDD6E0
3C354196
BAA24463
3CB30942
BBB18117
BC678184
BBA2C237
3C57C6FC
3C9491F3
3BCA7935
3CA30985
3C8AF3E4
BB02CF53
3BA27F1B
BC6EAA6D
3C50F1F5
3C848388
BC2AFFF3
3C4EC41E
BBA19C9D
3C56D3B7
BBAC4B4D
BC846845
BCAA62AA
BC4C5B8E
BBC97D8D
BCC55433
BC8A2014
BCC72C0E
BCA2B170
BC176FF4
3C28A3F9
3C40DF59
3BAA758A
3BEC7C95
3A00303C
BC76D331
3B9F59CD
BCE95315
BD050DF1
3AB5243A
3C311C6D
BC0C868C
BC832DB2
BC69E1B1
3C377C03
BA2D46F6
BD0203E6
BA2BB44E
3B0A9BD0
BC2B649D
BCB777D1
3B92DDBE
BC8EFBB1
BC756649
3C9537A0
3C928390
BBB673C5
BC1F44D4
3C0BEB5B
BAC9539C
BC8D7E02
3C6DA661
3C98EDA2
BCD744F6
BC4B3E57
BCCB0E1B
BCDE529C
BBD8C2A4
3C8E66CB
3C6310DC
BC852F7F
3BA393EE
3C4D4ED3
3B8A3F8A
BCD81F10
BC360AE9
BB83B1D1
BB9A2403
3C7A1E3F
3C2BDA0E
BB5D7236
3C94BBE4
BB886163
BC2172AC
3CB0079A
BA67BC3C
3B89A88B
BCA7DAA5
BC9DABE2
BB254824
BB304AB6
BCB6B8FA
3C16787D
3C8984E4
BC67685A
BC39F98B
BC93F4AA
BC2597D5
BCDB2D4D
3BF32379
BC921038
BC3B40B3
BCAB7DC8
3C04F8F9
BB8D4BAD
BCEEB4EA
BB3039EF
BCC013EC
BC7709B7
BBDA1230
BCBC126A
3B854CDB
3C7416BE
BCD7E026
BC85681F
BBBD7F52
BC8446B7
BCBCDBBE
3BDCEBFF
BB1EDBF9
BBAAB8A6
BC8E4FB9
BBB367A1
BC38FDE3
BC359DDC
BC85D0FA
3B1289DB
BC147065
3C0AEFB3
BAAA8651
3CCBAB65
3BBFF477
BA8E1501
3CACFB76
BAF9D2BF
BC96073E
BCE10ADD
BA477DD8
3C5D8B61
3C1B024F
BCB12B1B
BCCE9814
3C008851
BBA17B0F
BC0D79D1
3B6D1BF8
3A7ADF2F
BC7B7E91
BC823422
3BAFBC1B
BC93BE23
BCC16BDB
3C9526D9
BBC1333C
BC052B4E
BC046E8F
BCC117F8
3C97DAE8
3C468A93
BC984C27
BCD097C8
BB00C73B
3C3FCEB8
BB6E8D11
BABB0A2D
BC4664D4
BC1EB639
3BDBE7F3
3C98BB4D
3C6368F1
3C6FD86B
BC89528F
BCB41E15
3B2D794A
3C521FF3
3C2E6C8F
3C9FE21E
3C4E52DF
3C959C49
3AD5842B
BB944ED7
3C94CA92
BC72452C
3B307D0B
BCA6AEC0
3CA873BD
BC54067D
BD0898F6
3C60C176
3C77B5AF
BCE2C98E
BCA88484
BCD72BCB
BB8E4756
BCD8B1DD
BC652589
3B216A48
388C825A
3B27503C
3C39884C
BB2D03DA
BAEBAADE
BC65AFF3
3C3ACF74
3BDC5D64
3BCF850E
BC56ECE1
BBBCDFF0
BC553CDE
3C0A7A42
3C6F459E
BB52A1F9
BC6C918E
3BEA9E6F
BC117508
BAE6D15B
3C91A544
BC18CC14
BC1E3433
3BA65493
3B7A8B4C
3BDD6170
3C90880E
BC586A90
3BA5C5F8
BAB9DC2F
BC08F862
BC90D7BF
BBEBDD33
B9191794
3AF21709
3C5FA00E
3C26E760
3C0B1DD6
BCA5D28D
BBDB8BAC
BC1F87F0
BA1E55C1
BC8FC505
3C8068DC
3C3DB5D9
3B91E215
BCA98890
BC1D9D34
3B3FF477
3C3D512F
3B4692F7
3C3224AB
3C3A12B6
BBCC9A78
3BC0E7BC
BB4521DE
BC640C84
BCA2D2FE
BC06876E
BCB7867F
3B9DCF89
BCAE9EE4
BCA76534
BC98E970
3CA2C882
BB836EB5
3C7212D7
BB4308FF
BC780991
3BFC58AC
B86F1349
3C1A88AD
BB3FB15B
BC739D1B
BAA52696
3CA9AA1D
3BDF71EB
BCA2CECD
BC03F4ED
BBCD8DBD
3B6FCBD5
BCD523B3
BCB73F31
BB7ADF2F
BBB649D4
3C4B46BB
BA4069E8
3BA0EC74
3CB0C240
BC8F9F45
3AC0485A
B9B912DC
BC6C3116
3C1CDC44
BCB9DE48
3C575E20
3C0C2614
3C47CD8A
BCD1DEF0
3C8D844D
3C37414A
BC7A6DF0
BBE62132
BC4460EE
3C073FFB
3A1FA54C
3C14E1A4
3B70C77E
3A66AFCD
BB81669D
3C9FE005
3C13FAF4
BB9A77E6
3C8C5005
BBDA7F3D
BC45C572
397CB4F2
BC9159C5
BC08CE70
BC8F4D7B
BCCFA26A
3BA52696
BC8A06EA
BC8B06C4
3C1A1FD1
BC93BC0A
3BD184C2
BC9C5A3E
BC11CD1C
3C8F3882
BC95D91B
3C469729
BC9D5A18
3C172474
BCA78D0D
BC74E011
3C142917
BC7D3B2A
BCB6FC16
3C1AE4F3
BC1270B0
BBD8665E
BCB39C0F
BB04B5DD
3C6FE932
3C08B546
3CA6D8B2
BC5948DC
BCB04AB6
BC166384
BAB28523
BC996FA8
B90FA7A8
3A1B3073
BCD7E23F
3BBE5109
3CAA7BD5
3CA6527A
BBE978D5
BC9CA3A5
BC1103C9
3C8240B8
3BA54824
BCC78C87
BC3D05AF
3CA9131F
BCBC903F
3CA3DD55
BCBAD5BF
BB944ED7
BB1A34CA
3C6A39C5
BCDB91F7
3B44588A
BBFBD274
BA3BF50E
3C7C3F81
3CA4DD2F
BB05F4A1
BCD03750
BB881E47
BC82F0E1
BC924D0A
3C657109
BBB790FB
3CABC947
BB259C06
3B38E087
3C80713F
B9755DE6
3CA3B9AE
BC7F8A8F
BC9C4546
BCB89D6B
BC8DBAD4
BBA3AD19
BC3CF91A
3C1E40C8
3C53BAFE
3BBAE03B
BC975D14
BB55B680
BC9209EE
BC9CE28F
3AA5EFE9
BAD4FDF4
3C046E8F
BC65BC88
BC85425F
BCBB57C5
3CA3CEA7
3C9D3AA3
BC7455A8
BBC1B110
BC96249A
BC84A0E4
BC27D242
3C8D9514
3C5E2AC3
BBB4202E
BC141C82
BCCD5D81
3C505AF7
3B0216C6
BCB72C52
BC810C6F
3C2D794A
3C3F1E8E
BCA00E28
3C8F3238
BC57B635
BCE0AA65
3C892AB7
3BBFA8F8
BC113A50
BB31AB08
BC718CA0
BBC0BDCB
BC1AD85E
BBC74320
3C83C8E2
3C4E5711
BC942B30
3C7A9C13
BC3E4474
3C4636B1
BC183D79
BCD4738A
BC42B51C
BCA79570
BBB9C305
BC295853
BCC6C11A
3C3CAD9B
BC80A394
3AC8259E
BCCE4218
3B04E832
BC5FD263
BBF94424
BC29DA59
3C70F16F
3C0A1166
BCC10518
3CA78078
BCAA1B5C
BC81DC0E
3B98BB4D
39313598
3CA4E7AB
BC77CED9
3BA7589F
BC8D38CE
BBB43958
3C85AF6C
3BA4C1EC
BC76AD71
3AC8472C
BAD6B229
3C50635A
3C3C87DB
BC52849D
3C972043
3B87A8D6
3CB5DEDF
3C81754B
3C4FF64D
BC919CE0
BCCE5711
BAC4BD34
BCBF6E3F
BC31465F
BBE6C8F7
3A5F9BDC
BCD2B0A7
BA09A027
BC5C1E79
3C97AAAC
BB279357
BC70F5A1
BBFA15DB
397A9C13
BCDDC619
BC306812
3A9DCF89
BBE73605
3C9CD3E1
3AA5EFE9
3BECFA6A
BC8C9B84
3C7F327B
BBCB6417
BCB708AB
3C75989E
BC1CF56F
BC7B15B5
BCCA771D
BC2AEAFB
3C102DE0
3C28CDEA
3C95208E
3C188095
3C6E73E7
B996787D
3BCE4EAD
BB36B6E1
BCACECC8
3B16AAD2
BBFFC979
BB8CDEA0
BB261177
BC96073E
BBAD70E7
BB306C44
3B30C027
3C25119D
BBB484D7
3C01BA80
3C165F52
3B881E47
BC7F36AC
BCEAE18B
BCD9C497
3C7E3F36
3CC4E50C
BC372820
3B957471
3BB3CC4B
BCA7631B
BCAF31B1
BB08B546
BC935116
BBFEA3DF
3C9F5382
BC1FBA45
BC27EF9E
3ACF1801
3CA10386
BC9F687B
BC4EE5AC
BC536F7E
B94B6C7A
3C90BA62
3C27546D
BC8E3AC1
BCAD70E7
3BB5A20E
3CA22920
3A206EA0
BB017FC7
3C01ECD5
3CA38B8B
3BE54F7B
3C86B378
3C9DC0DB
BC1B5E96
3CA02752
3C66A338
3BA25D8D
3C271DE7
BCC8C0CF
3AC5A815
3BC81D3B
3C909071
3BABB44E
BC00064B
BB516335
3C67A312
BC2A64C3
3B7A69BE
3A313598
3CA2834D
BC8AE968
BB784018
BC3951C6
3C1EBE9D
3AAE9681
3B823854
3C262ED3
3C4ABC51
BCD6B442
BB016F00
3C092685
BC96A26E
BC073FFB
3CAD8A11
3C694AB2
BC74CB19
BC9A6506
BB16BB99
BCD0BD88
BCED41B7
3C3E37DF
3C4A643D
BCC75E63
BBF42785
3C3A98EE
3C05CEE1
BC09C1B5
3BD972CD
BCDEBFA9
BCEC93A7
3C3BA98F
BC79A8CE
3C9A1123
BC6BD09E
BCBDB7F1
3B44DEC2
BC0A04D1
3B7A3769
BC9FD36F
BBB02928
3C31C433
BCB5286B
BC2E0C17
BCA15769
3C969E3D
BCB7C350
BCC66905
3C03E857
3C3E9C88
BCD1B0CD
BC38FDE3
3CA799A2
BB82278D
3AED5F14
BB6B9A17
BCD7342F
3C2EAB7A
3C8216C6
BC75E41D
3C9D25AB
BC9E0829
BB7FDA40
BBD01C0D
3CA9BAE4
BBE5BC88
BCD918A0
3C9AC57E
3C0AB4FA
3BB5F5F1
BC8A3B58
BCE38002
3C4F1801
BC54D834
3C4B74DE
BB115BDD
BC5B9C73
BC628AA4
3C45C9A3
39AD8A11
BC91D799
BC904D55
3C94F69D
3B727BB3
BCC692F7
3C8BEF8D
3C725A25
BCDE00D2
3C18244F
BC848E04
3A784018
BBE7253E
3C9EA140
3B81E471
BAB60F1B
BC5F3301
BC75BE5E
3CAF35E3
3A727BB3
BC421188
3C75DBBA
3B87E38F
3C5B3BFB
B9B2C83F
BBF51266
3C025E14
3C74666F
BB307D0B
BC6BB342
3A73CB3E
3BDAEC4A
BC2C81D4
BC9DD7ED
BCCA0C28
3B3B7F9D
3C18E970
3C9CA9EF
3BAF038E
3C44F3BA
BCCE379B
BBD9D777
3C8383AE
3B51B717
BC715A4B
3C13037D
BBB6C7A8
BCCD8DBD
BC49E237
3C34C3C2
BC4D5305
BC30079A
3CCCD0FF
3C99A416
BC5F04DE
3C1E94AB
BCC5DA6A
BCA3B57C
BB733440
3C9BF9C6
BBB0079A
3C887EBF
3BAA758A
3CA18373
BC5099E1
BC89BD84
BBE91C8F
BC0A697B
3C96D8F5
3C390646
3AE43244
BBD306A3
3B35DCC6
BC5FCA00
BC8919F0
BC7A5D29
BCA888B5
39B02928
BC09613D
BB6A1837
3CC15D2D
B9E410B6
BBF5989E
BC4FD08D
3C605CCD
3B9491F3
3C0EFBB1
BC9E2BD0
3BC25072
3C4E9A2C
BCB52C9D
3CAD44DD
3B169A0B
BC9309C8
BB915BDD
BC1A176E
3B5BAD3A
BCA67621
3C38800F
BC6D4E4D
3CAB063E
BCCBF2B2
BAE581CF
3B9AD42C
3C65B856
BC22DB62
BC317482
3C47192F
3B79E386
3C2D7D7C
BC0E086C
3C0D0892
3B977425
3CA0AFA3
BBE43244
3B5BCEC8
3C01E03F
3CBD2B6F
BC965F52
BC8D4BAD
BCC4F1A2
3BACD9E8
BCD74928
BCCCEA29
BC911277
3BFA1E3F
BBC5B079
BB6A5B53
BC56BA8C
BC88509C
BC8B502B
BCCCDB7B
BB4CDD94
BBE10CF6
3C27546D
BC8E7792
BCCD0FE9

