3D6E6C8F
3C7672B9
3CDAF8DF
BDDE0DED
3B0A58B4
3C3AC2DF
BE01B329
BE24A904
BCB95A29
3CAB6F1A
BCD6A594
3DD5DD4C
3C69B38D
BD3A53B9
BCE1C369
BD7E21D9
BDB82F51
BE2B55EF
BE41B7E1
BE1262CC
BE1EC8D6
BD87C73F
BE03C8E2
BD060675
BC1D883C
3DDB0BBF
3D695D92
BD371B8B
BD10470B
BDA2ECAF
BD51C8EB
BDB704FF
BDD3FE19
BE1EDD48
BD96848C
BB1DF117
BD107FAA
3D0C64FE
3D18A761
3CF8487C
3D8F7D31
3CBE5D9E
3D8F07C0
BE17FA1A
BDDBE4CD
BDBD640F
3D5E3EAF
3C5AF8DF
BE1333B9
3E18F10B
3D859D99
BBC308FF
3D9209EE
3DA53EB4
3C5FCE31
3B4BF2B2
3DC67F0B
BD0A8199
3D595358
3C8AC5C1
3D0A3C64
3DA795F6
3DA01041
3DA83127
3D88DB8C
BB94A2BA
BC73A57F
BD3398E9
3D1492FF
BD03D578
3C46EF3D
BC1F340D
BD2D9BE5
3D113E81
3C6B074A
3C3A0A52
BCB4F1E5
3D8C692F
3DB76923
3D5DC832
BBCDEA03
3D42A66E
BC7A97E1
3C08EFFE
BE0D7ADD
BD83BD5A
BCE3821B
3D8E08F2
3E122681
3D8BA27B
3CDBEA0C
BDA5F959
BD5450F0
3D119158
BC3F0564
BD5ED395
3AD306A3
BE027F5F
BDEA6F3F
BC913E81
BDC453D2
3D4BC59C
3D4EF673
BCD551D7
3C610CF6
3DA2E558
BCF3ABC9
BCB12F4D
BC2F9A8D
BC7A4830
BD8B4AED
BE168B1A
BDD1F927
3D53B5BF
3D8F4730
BD8EE17A
3C3A450B
BD2A7EFA
3DBBCF4F
3B983D79
3D0A31E8
3E0906CD
3C89DF11
3DACE9A3
BDC48F11
BD5987C6
BCCF8F8A
3C49A77E
3DE1797D
3DE8101F
3C35568F
3DE21188
3D1EC80C
3D1B60AF
3DFBB491
3DE64FDB
3D9935FC
3D3B4D49
BDBA0F91
BC572BCB
3C5E8F6D
3D024D4D
BC480C74
3D8CF744
3C141C82
3D4FE692
3E04D552
3E07BD06
3D806A6E
3E147736
3E3641F6
39895D0B
BD6ADC4D
BD166278
3CC386D3
BD8DB61C
BBCA361A
3C13EA2D
3DE262CC
3E182667
BB84BE40
3DF6427C
3E537FBF
3D3CB5FE
3C85C897
3D12502F
3D39841B
BD576146
3D3123C4
3CD2F3C3
BD98F92B
3C19780C
3CCD0DD0
BB9235F8
3BA07F67
BDD228DD
3D3B395C
3C6FDC9C
3C9680E0
3DB9B34A
3DFA4E7B
BDBCC63F
BC2921CD
BCC7FBAD
3B9539B9
3CC75C4B
3DF4C09C
3DD5DBBA
3BB356DA
3DE055FC
3E2F3C2E
3CF90321
3D643676
3E1F1D3F
BDD16CA4
3CE25205
BD588095
3DC73605
3BC2C5E3
3DB7C3D7
3E1DE3FC
3DA95B79
3E34DB9C
3DA5321E
3DC84838
BB0F53C5
3D37C782
3D15FBB5
3D629846
3DC61848
3CAFB7E9
3D18EC96
3DB5A4AD
3D759FF5
3D021C04
BBEFDC9C
3DBA8F7E
3C67AFA7
BD0D26FA
BD47DF5D
BDA8DF37
3C6BE9C9
BCE3F9A5
BD7AACDA
BD818612
3D0942D5
3DC46499
BCC810A5
3DACA149
BC09CA19
3D8B007A
BD0B2314
3D5000C9
BBA78290
3BD5C747
BD03E100
3CB1209F
BD0FA9C1
BD181062
3DA4EF89
3DC99F1B
3DAE3E6C
3DA6A338
3DCDDE7A
BD9D5B25
BD0880D8
3D91D4FA
BDD83CF3
BDD84231
BE054153
3C8E7792
3C3399F6
BDF57E67
3CFCC9EB
3D577100
3D834E33
3D04CDFB
3DB588E3
3D0219EB
3DD10A9A
3D52ED78
3D69CBAB
BCAF72B4
3C8D92FB
3DB5C960
BD1099E1
BCAF533F
3D2F587D
BB6BBBA5
3DFEECC0
3C0F0414
3BDA9004
BB6E5ABC
3D9C5F7C
BCA8DEB1
3C9322F2
BA25EFE9
BC854046
BDA291FB
3D6B851F
BDE2174C
3D2DF612
3DBD8C6D
3D8C0618
3C845FE1
3D105D10
3D74E11E
3D3384FD
3DA33615
3E2BBCF5
3E506FEF
3DBFA872
3CD26FA4
3D92ECF2
BDE9A77E
3D8D84D3
3E2114D3
3DEEA854
3C28B08E
3D89A3D3
3D126E98
3DAB9E49
3E08372E
3C157CD4
3DF7DAE8
3D98793E
BA00F990
BE1BA451
BDA9624A
3DBC7F78
3E53A7DB
BCE9DD7F
BBA6CA04
BCEC764B
3E70025C
3E42A023
3DCB54E3
3D48893B
3CCEB789
3D79D2BF
3CDA7D24
BDB69EC3
BE3DD7AA
3CD70E6F
3D9B4917
3D0BD124
3C686C66
BD35ED8D
3DC63843
3D6960B7
BCFD21FF
3D1AC57E
BCCFDB0A
BD295315
BBDB0DD8
BD02480F
BD00F66A
3E35ED4A
3DD84FD3
3DB6451C
3D169D30
BCBEA2D3
3D504E62
3D6AD81B
BDD39EAE
BC0DD1E5
BDFB877B
BE07589F
BD815875
BD53BAFE
3CE4BA95
BCB1140A
3CB0270F
3DF22079
BE006EA0
BD99FA98
BD1DD096
BDBD4307
3B360F1B
BD78D0CC
BDA1E57E
3AEB4635
BD4651F4
BE179C41
3A339192
3E01A826
BC43EFAE
BD2147AE
BE1E5D18
BDD90C0B
3BB85A4F
BD14F7A9
BE0D438D
BD171B04
BDA6002A
39902DE0
BD5E83E4
BDAD45E9
BD7506DD
3C5CF462
3D97D8CF
BD3AD18D
3D5C90C5
378E9B39
3BB5E52A
BDA28E50
BDBEC67A
BC336BD3
BE243782
BE2FE7E2
BCE6F2E9
3D18F1D4
3B463F14
3D5E85FD
3CF37FBF
BBE4B87C
3C8B8F15
3D280065
BCCAD14A
3BFCE747
3B95F245
3DB014B6
3D6CA46E
3D2E4085
3D8D6452
3DA0FFDA
BCCAA327
BD86E43B
BD63DD55
3D01FB83
BD5DB121
BCD5F783
39206EA0
3E14F8F9
BB2E2110
3DB8140E
3D7B7F9D
3D1EA572
3DE3443D
3D8FCCE2
BD45521A
BD9A68B2
BD67D029
3CC33F85
BC6F5A96
BB96F651
BCE149C7
3E04EA4B
3C9E2BD0
3DF58C09
3E129FE0
3D6365CB
3DCE160E
3D947304
3D8FD114
3D6BB235
BC9C6F37
BD84DFCE
BBCAA327
3D47E176
BCCB0186
3D80FE48
3DD5475A
3DD63993
3D0CE704
3D2631F9
3CB65ECC
3D6833C6
3C5801B4
BC39CF9A
3CE11FD6
3C205144
BD23DF6E
BCE6F0D0
3DBEC99F
3DAD0247
3DA02321
BD3D5886
3D779B78
BC928BF4
3D93B320
3D29B49A
BC51AA82
3C04CAD5
3CCE0978
3D0BE0DF
BC1FC6DA
3BF77F28
3C4C2507
BCD9D990
3BFADF2F
3BC83665
3B437E6F
3C38BAC7
BD8E1E71
3D60C49C
BC2860DD
3C7D156A
BD2EEB70
3CFBCE42
3D6718A8
BD31550D
3D8C2EFD
3CF3DC05
3D7BB1F2
3D63F9A5
3D3DB6E5
3CE5CD4F
3C12146A
BDE3C85C
3C6BFA8F
3DD028A2
BC5D095B
3C144674
3D359EE9
BD14F052
3E4C9EAA
3C896FEB
BD26BD6F
3DA95BFF
3D743D8A
3D784556
BD0230FD
BCA1E81D
BD57BB73
BBDFCE31
3DAAA4BA
3CCB5569
BD55E17E
BD3C408E
3DDB4BB6
3CC17657
3D296C40
3D8E9707
3D5AC797
3E0D6A16
3B5B0575
3DA07DD4
BBCD9620
BD027E95
BC8EC95C
3D3DD441
3C30E5E6
3CBB3A69
3DBB1748
3D42DADC
3D95D67C
3D6541D9
BB1F40A3
3D45681F
3D385511
3D886C66
3C8068DC
BD22B064
BCEFDEB5
BC9B823D
3CBC1CE7
3CB7CDCD
3D7125DD
3E2217D3
3B81CB47
3CD19DED
3CEBE9C9
3ACE2D1F
BBCCB3A2
3D0D141A
BD8CA149
3C1014B6
BD278F26
3C3FA4C6
3D8A276B
3CF6FB09
BD43D146
3B852B4E
3D99DECE
3CF92296
3C2A0CAE
3D62131B
3D81C92E
BCCF2F12
BC6310DC
3DDF0A1C
BCC7B891
BCA543F2
BD0286F9
BCBB05FB
3DCEF45A
3D19B5E9
3DADA1A9
BC6ED890
3D744B2B
3CEBB98C
3D97279A
BCBDD54E
BD97507F
BC8D9514
BAE368F1
BD150B95
3B4D20B0
BCFFFDE7
BD041030
3D776816
3D916D2B
BD3A7009
3D0639D6
3CFC9DE0
BCFE38EB
3C632A06
3C35ED8D
3D1F1BEF
3D61C044
3D65ADDA
3D308030
3D448388
3D6ABCD8
BD12F5DC
BD69424E
3B36A61A
3C577319
BB81A9B9
3D9A9197
3D806AF4
3C836007
BD0CF074
BC8F776C
3D0AE968
3CBEF6B6
3C5AA92E
BD572DE4
BD96C15D
3C1A9542
3BF92296
3C0FA377
BC7F8A8F
3CBE1A82
3D64A16A
BD5512EC
BD7C9EED
BDD01A7A
3D169E3D
3BB26BF8
BD872192
BD16377A
BD841893
BD32A498
BD7FEE2D
3D0115DF
3D0D62BF
3DA94B38
3CEF9980
BD484A51
BD079C41
BD49FE87
BD1A9542
BDA9D495
3D39F234
BC1FC6DA
BCB7AC3F
BDA618CE
BDFF37B9
BD460781
BD23AD19
3AF57F73
BC082ADC
BCDE4A38
BCFA658C
BDF5DB34
BC8800EB
BD94C2B5
BDD3543B
BDAD612C
BCBED528
BDCD2D45
BB86162F
BCF6D331
BD5D6388
BCE7CF1C
BB8943E1
BD50678C
3CF27568
BB7D9FD3
3D7DB4CC
BCC8E8A7
BD9926C8
BDBF88FD
BD8718A8
BE267AD9
BD40346E
3CFF950C
3C2C3223
BD6ECD08
BC621102
BD996313
3C074C90
3C8DF58C
3CCF54D2
BD14A2BA
BD32E276
3C7483CB
BD039368
BB206EA0
3D5AB5C4
3D22D517
3B45B8DC
BD070868
BD5BBF0E
BDB8FF76
3C73CF70
3CE7967D
3A0C3F3E
BD730C67
BD7FBCE4
3C87980F
3C7398E9
BD3AB431
3D1E310E
3D8AD927
3D4BD33D
BD2C636B
3B82C6EF
3CB4D489
3D7DF2AA
3D6ACB86
3D44E2F3
3A30AF60
BCA66128
BD4B0E1B
3CE805A3
BC4B6C7A
3DA02EA9
3D51C6D2
3DC898F6
3D1A79FF
BD01461B
BC6DA661
3DE5FE97
3D518E32
3CFB3312
3DA5DBFD
3D6D1BF8
BD80F2BF
BD69D40F
BC10C4DF
3DB34EFD
3D153EF7
3D31A08C
3C5F43C8
BDAFC8B0
3C385A4F
3DA4430B
3D839ABF
BCE43244
BD3761CC
3CD42C3D
BD2DA017
BDC35D68
BD321A2E
BD0D477C
BD20B3D5
3B539DA1
3D1512EC
BD8E84AD
BD20620B
3C3DD767
3C99ED7C
BD643782
BD5C79B3
3D30F7BA
3C7CB0C0
BD79B670
BCA5332B
BD082492
BBBBE447
3CE965F5
BD9D7C2D
BDB2135E
BDACF180
BCE18698
BC220DDC
BE01F645
BE0E9A70
BD049A99
BDB34BD7
BD0A3D71
BC94EC20
BC45F7C6
BD2E46D0
BD961F5C
BD1377E2
BE01ED5B
BE09042E
BE0CCDD9
BDAE49F5
BDFD04A3
BE111D7A
BD8944ED
BDA74B84
BE05F959
BE151090
BD1147F1
BD6974A3
BD87B02D
BD6045BB
BE4166E0
BDAA90CD
BD42B94E
BCEABFFD
BCD8D584
BCB586CB
BCC68017
3D182667
3D0780FE
3DF5B574
3D8C7326
BD13AC4F
BD8C7000
BD1EC5F4
3D95F5F1
3BC79703
BC972043
BC6F88B9
3CFF6901
3CFDCDF7
3D90FA59
3DBEA78B
3CA4180D
3D6C7B89
3DFA719B
3DD719F8
3DB6EA42
3CC0F020
3CE1E710
3D39C305
3DE8815E
3DC1D756
3DE16052
3DAF9DB2
3DE04E1E
3DB162AE
BCF455A8
3C4FA69C
3DA1309C
3BC9D170
BD737868
BDF70585
BDBA47AA
BCE6AB9B
BD00B029
BC0D2E51
3DE63C75
3D6719B5
BC544999
3DD82A99
3CF3C2DB
3D8FC47E
BC0B6523
3DB74FF8
3CB58F2E
BC411E43
3D0B1EE2
BCD8904F
BE1C579F
3B112989
3D99CA5C
3C4A4F44
3D8B4C7F
3DDE6BC6
3D6CEBBC
3BCA46E1
BC0AE31D
3DC35159
BD0013EC
3D1EFD87
BB3AE89F
BD1EFE93
BDDC4E2F
BCCDF480
3C351373
3C7A00E2
BD0F4D7B
3CC1AEF7
3D77878B
BC969C24
3CFFD3F6
3D4095F2
BB90928A
BAB7A1C2
BD62CBA7
BE1B773A
BD89D7BA
BD72A8CA
BCFACA36
3B3BB1F2
BD38023A
3DE9F9CF
3CCB7D41
BBE978D5
BB856606
BD87778E
BDA22C45
BD1872F3
3D617C1C
BDE03361
BD397354
BC89528F
3D4BF7F0
3D5A7F3D
3D8BD6E9
3D67D88C
BD382907
BDA8ECD9
BD3F0FE0
BD9B3FA7
3DC894C4
3DB6683C
3D48B978
BCA908A2
3C595140
BD4D5B68
BD13CBC5
3C893B7E
3B33E575
3CB5C183
BD9E121F
3C982880
3D57A67A
BD07EBF2
BD4F80DC
3D650614
BD442529
3D8C5B08
3CA63D81
BE162AA2
BE06E19C
BE009460
BDB7A893
BD305D96
3D064DC2
BD9DECE5
BBBF0996
BDC9CE4A
BC91C2A0
3DB996FB
3C756EAD
3D5BE8FF
3C57E026
BD53AF75
BCA13C25
BD21C8A8
BC22552A
BD0330D7
3C02CF53
BD834656
3D1EF73C
BAFE6927
3C8FE47A
3C21A0CF
BCA9EB20
BBF62F9D
BC5F761D
3B84B5DD
BC24ACF3
BDA3009B
3B8E3EF3
BCA37260
3C224463
3D3167EC
B996FEB5
3C27B4E5
3C344E51
BCB10343
3D49A565
3D32C83F
BCA4052D
BD9912DC
BE164CB6
BD9D56F3
BD06EE31
BD6512A9
BDB5A9EB
3C1B951C
3C51DCD7
3C88EFFE
3CE76641
BD158106
BD6CEAAF
3DA41A26
3DA51330
3D14A6EC
3C80D1B7
BD4BD662
BD16E7A3
3CB5AEA3
BD4FEEF6
BD9B890D
BE0995EE
BE057B85
BC8D4131
3D870868
3C0A4C1F
3BD16B98
3D18ADAC
BCD2502F
3D856ABE
3D5C853C
3C8142F6
3D37707A
3D3224AB
3CE57321
3DBA7EB7
3E0F23CD
3E077A70
3DC0346E
3D9EECC0
3CB6501E
BCD8F92B
BBBFD2E9
BD5AC8A3
BD2BAE04
3D02D384
3D9019F4
3D53A81E
3C8945FA
3DA98677
3DC8A82A
3DF93DD9
3DBE6B40
3CD29995
BCD529FE
BCF2C301
BC75C6C1
BCEDA017
BC757F73
BC85C897
3D3A4617
3D620147
BA4F5B1D
3D83C9EF
3E2253DA
3E09A8CE
3DDDA61E
3DE18A44
3CBA1B19
BD33EFF2
3D6B063E
BD1ED4A2
3C809D49
3D645E4E
BDA148BB
3D2E8E1D
3D2AAE29
3C14E1A4
3DCBA0E8
3DA3E63F
3CF9E7B8
3D862BAE
3D7DC6A0
BCC3AEAB
3D31D606
3D5B9735
BC898D47
BD72B991
3D0E208A
3D8A0DBB
3D814595
BBD117B5
3CC4D65E
3D47FAA0
3D68954A
3DA73605
BD8DAD32
BA4A1CEF
3BDD93C4
3D110E45
BC9D4F9C
BDA2F380
3D5C2D28
3D4BF4CB
3CD44999
3D16F438
3C094813
3C0B08DD
BD875A32
3DCF4F0E
BD748E47
BB2350D3
3D878290
3B261177
3C492147
3D0B87BE
3DDFF25E
3B512019
3D2A4441
3D0A3C64
3DA6809D
3CF04BC2
BCF28C7A
3A4564F9
3A8CC576
3CAF405F
3C6B91B4
BB8398A6
BB8F9F45
3AEC95C0
3D5B499D
3DB8FCD6
3D54D940
3C2C7970
3D065519
3D13C686
BD9A02FB
BD2CDD0E
BD8BF877
BBE5C4EB
3D80CAE6
BD52D880
BD86E6DA
BD89CED1
3E131B15
3D959818
3D9D56F3
3D3E9531
3D0E8427
3D737EB3
3D95DC40
3CE5DBFD
BCF78FEF
BD248A59
BD00A394
BC9CE4A8
BC473259
BCED612C
3D94EDB3
3D7253DA
3C2F4278
3D2BC83B
3C826245
3C36D86F
3C40A8D2
3D91B36C
3D47E6B4
3C9D4520
3CE77708
BD069835
BD851655
BCCF5D35
BC1E7B81
3CB7E2C5
3D36683C
3D31DF76
BA9A2403
BC91E215
BB97E996
BDA2B5A2
3B9DCF89
BD639C52
BDA5308C
BC43504C
BD8C8FFC
BD59AE92
BD950D28
BDD3C2DB
3D9A2058
3C99B90F
3C946C33
3BA6223E
3C668A0D
BD56861F
3CA8954A
3D217B0F
BDA0F7FD
BDBF090F
BDB45309
BDBD12CB
BD44113C
BD98AC9F
BD9A2489
BC8FC505
3CFAACDA
3DDF6556
3DD36DEC
BD196FA8
BD8327EE
3C67AFA7
3C8DFDF0
BD9800A8
3CAE275B
BD9C2092
BDA7F024
BD181CF8
BC60C176
BC427E95
BC71E4B4
BD16C93A
3C482E02
3CF16B12
3D45C67E
3DAC729F
3D5054AC
BB3BC2B9
3D64D5D8
3DF9841B
BD9E175D
BD931B9B
BC35A20E
395F58C1
BDBB2AAE
BDAFC1DF
3C219C9D
BCC77575
BD023209
3D9106EE
3CA7E521
3CC0FECE
BBD783E0
3C9D1D47
BDA291FB
BD35781C
BD1615EC
BE009AAA
BDE2949A
BD8A25D9
BD860243
3C832980
3D15D3DD
BC588C1E
3D772713
3DEF2AE0
BC267A53
BC78C21E
3CA98AA8
3B3B6ED6
BD4E789E
BE01B717
BDB4EF46
BDE70B8D
BDA8C47A
BE185A0C
3D86BE7B
3DA5A2D7
3E19A77E
3D2D1E11
BDB0F16F
3B93C03C
3D33DF2B
3C762F9D
BC4CBC06
BC7F583A
BE1EC072
BE00B956
BD891106
BD232D2C
3D740810
BD11CF35
BD92830A
BD0D7F0F
BC224CC7
3BE2FBE3
3CA4FEBD
3D188095
3D44651F
BD3E6927
BCCAFD54
BD3FFDE7
BD7457C1
3D9018E7
3DB4F15E
3CC9E881
3D1799E5
3C337004
3D881ECD
3D19B3D0
BD0B2852
3C99DA9D
3CE503FB
3C7E718B
3D861416
BD9417CA
3D1A6C5D
3D329C34
BD2B6E0D
3B34D057
3CBF316E
BDAE2F38
BD5B2E5A
BDBE646F
BCC36DA8
3CE90FF9
3D648A59
3C31FAB9
3D4B167F
BCCAF70A
3C74F0D8
BC5B6E50
BDD1422D
BD2FC04D
BC05B185
BD8B2B77
BCFD1BB5
3CCA0A0F
3DDE73A3
3E196313
3D85AAB4
BC7C0D2C
BDA06749
BC423316
3D2C5F39
BC59F0A2
BD540DD4
3D967B1C
3DCAB25B
3D993815
BB2BC515
BCB7BD06
3D78EB03
BD359DDC
BB2D03DA
3B25CE5B
BDC141EA
BC40485A
BCF3C925
BDB69CAA
BD105187
3DB16335
3D5CDA2B
BC03F91E
BC83A323
3C7DC161
3D84C511
BD0C4CE0
BD5F5CF2
3DC6772D
BC88EDE5
BD7827FA
BDB4538F
BDB85C68
BB831AD2
3D248F97
3DCD92FB
3D3E1976
BD3009B3
3C96F651
39462E4D
BCD918A0
BCB7E4DE
3A1F1F15
BD039FFD
BCDA3C21
BBDB2F66
BD2D56B0
BD8CC038
BCB83CF3
3DBC7475
3CE8576D
BBC929AA
3C7212D7
3DFF9BDC
3D6A52F0
BD9DC161
BD92DB1F
3DD13D75
3D3A7547
3C058794
BD8569B1
BDD54B06
BCD9CF14
3AE97072
BC563886
BC4E032E
3CD15486
3D825C81
3D4C4695
3D69A6F8
3C8B1572
BD2A25D9
BB7F10ED
3D31FAB9
BD9B0A2D
BDAC258D
BD73ABC9
BCD8D9B6
3E058EA8
3C93964A
3DE44524
3D374DE0
BDB3860A
BD881E47
BC9AED57
BDD4D163
BD39E59F
BDBB9D80
BE372431
3DBC6541
3CAFD32C
3CE81A9C
3D56D5D0
3D1AD539
BBAE1049
BD87296F
3B67DDCA
BCC45027
3D9717DF
3DE8E044
3D98E326
3D829281
3B801712
3CF92D13
BD8167A9
BD2DE54B
BDD3354C
3C7F0457
BCAD490E
3B9CFDD2
BC048BEB
3E0C48AE
3DCDCE3A
3DDB2E5A
3D53E5FB
3D690FF9
3DB3DFB1
BD970B4A
3C8A02B8
3CC23960
BD1DA37F
BD0CDFAD
3D26AFCD
3D12ED78
3BEC6BCF
3DAAA5C6
3E0B2F66
3DD3E469
3D285122
3D65B531
3DA27286
BD28E821
3DBD5ED0
3DBA6DF0
3BE23290
3B4069E8
BD730942
3DDAE3E7
3DA860DD
3E04F5D3
3DE74539
3E25BBBF
3C767F4E
BCD9F4D3
3B1ADC90
BCAC6AC2
3D130DFA
3DCFB4C4
BC8E4B88
3D8025C0
3CC44BF5
BD576AB6
3D61CBCD
3DAE3609
3DAACFB7
3D35CD0C
3AAC7DA2
BC591255
BDF93682
3C7CB924
BC94F69D
BCFC3F81
3CB53932
3D087981
BD8053E3
3C35CBFF
3C3CE853
3C7CDEE3
3C690FF9
3D2E70C1
BABE7297
BADF15A5
BE1912DC
BCFA0946
3C8EA7CE
3DD79852
BC09DAE0
BD50E23B
3CDE6BC6
BD42CB21
3D0ED1BF
BBAB4741
BBA3AD19
3CDC0DB2
3D766E87
BBC8FFB9
BCB124D1
BCD6238E
3CCC78EA
3AF9096C
3DF084E8
BBB15F89
BD760179
BDD47842
3D605FF2
3C863E08
BC9AF9EC
3CBD07C8
3DA55B8A
3D07991C
BD9B1855
BDBC3372
BCB27675
3C868987
3C75CAF3
3DAB0532
3B9ADC90
3B650C5F
3B345AE6
3C62E6EB
B944156E
3D0477FF
3D227AEA
3DF034B1
3D9BA01F
BD277F6B
BC066A12
3BC00DA2
BC88D4BB
3D8136E7
3C15A6C6
3CC80842
BC0A32F4
3DD90AFE
BB89B0EE
BCB79314
3E0B7FE1
3CD2CE03
3DB163BB
BD4E874D
3D2415F4
BD07B99D
BD23B9AE
3DA5B0FF
3B99E94B
3D03D684
BD859C06
3DFB8C33
3DB9F2BB
3C95A07B
3CAECF20
3C4FD8F1
3DA975B0
BCFB1E19
BCFEC354
3D27A41E
BBF40E5A
3CC15F46
3D1059EA
3DA41787
3D3E9EA1
3D1DB878
3D84FEBD
3D063E08
3DAFBDAD
3DA11A97
3D8E8640
BD78EB03
BC1DBEC2
3C8841EE
3C7C9796
3BD234EC
3D19DCB5
3CD42E55
3C7A11A9
3CE98138
3DBABFBA
3D04C7B0
3DDFB15B
3D968F08
BD0C7086
3C3AD7D8
BCE78184
3CFC9FF9
BCA135DB
3CFD71B0
BC854AC3
3D4AA971
3D9BDCF0
BD887B9A
BCFD3911
3CAC03FF
3B650C5F
3DFE1F3A
3C1F40A3

