023F57
0533D2
07CA85
0B4256
3F0E7F
02B27C
051233
03B19E
028EC5
04AF4F
3C3F0B
3E27BF
39CCEA
0116DB
062845
0556F3
06CB64
132C62
07A355
07CC39
02E46C
01F1E0
013E70
05460A
0565C2
3A4324
3D410F
026783
0832B9
05BCDB
0D54FB
0A12D7
07FAB1
09197A
02A4B9
039C0E
00197E
0747A5
0520F2
045FE1
394717
3E8CCD
3823A6
0F168F
07A637
00A633
00FCB4
053037
026655
3F3E24
359FC2
06B3AA
006184
3B33B9
3DCC96
0128E0
362E7F
017A24
3DE2BC
004FA0
3A78F2
3C6AD2
3BF8CA
3F8BEF
3D3AA3
04052D
00DCA8
02AD3E
3BFF69
3D3910
3E5B20
3EC7B8
0D51B4
3E2E1A
3F26BF
0362F9
042B94
3B7A3D
3581F1
01C8EA
3EC460
3CB2E9
3DEACC
015875
06AB58
3DDB01
3DBAA1
0252CE
377E6F
3EB6F1
059A0F
0B44D4
023A8E
04E075
07FB04
02400F
3EBA5A
0BECED
03F63C
3D5B9A
3FFF79
3D7AED
38CFD0
066612
38AE85
3A9AB2
086067
0997B3
01D69D
05871E
04219E
07EBE1
01D8D7
3AAD81
3D146E
011687
3AC69B
092D23
3AB2AF
04EB03
3DD2BF
3DAAB4
06686E
00B673
0502CD
0B7C78
3AC54B
3DD430
347AE1
327818
014690
3E03C4
3FC819
048A37
37A040
3F008A
3B636F
3F7143
031E4B
00FECD
39CEBF
000852
016084
35EEFE
022706
3A5D8D
3A9D40
395D70
02C17E
38EE17
341A47
3BF088
05DEBD
0B49E0
3D5DE5
061986
047CB7
3C4AF9
35B4BB
377C02
0264A1
3A39D5
30EED0
3E0653
00F96E
3F8162
3D58C8
09185C
056CC5
0549B6
3E9963
3F5C07
3D4888
3AB1B3
05D909
0071B4
39E94A
3C2FC6
3C0874
3DFA33
3B839C
0704DD
003D03
008B86
3F9B77
05DEBD
001C71
39D4D8
3F9F98
3E0989
393E70
009289
074AEC
35BA0A
0198D0
0434D2
042613
01C853
002DAD
0188C1
3455DA
39D7EC
33C4E2
37B98C
3B08CC
3D464D
3A8501
00866A
3D6462
35CC31
3B393A
04C458
015F35
37BA45
38CED4
3D6B87
008A37
05949E
05E59F
08C8EE
043547
3D2B6F
3D2178
025E35
056F97
031CDA
3CF97E
3DD627
393AA3
05B8ED
39B728
0852A4
3FC5AC
3E480E
030E5E
00AD57
0143AE
064B76
063D70
0256DE
3EE568
3665E0
3CD573
3BBBA5
057386
00A8F3
3B5EC8
0F19E7
095A3A
0B4B83
037308
3F955F
054AB1
06597D
00EF56
39EBD9
3A2C88
3D856A
03DE50
365F0F
05A79F
031B36
00E64B
3EA5F8
394D0D
3D2D98
0285EC
005F06
047842
38F51A
3FA9C1
3B6709
05F1BE
3DB339
3D7E13
3E9185
0360BF
02D8A1
069CBA
3A49D3
054B6A
0061F9
38064A
011AEB
01D94D
3E0F6F
37E9A6
3C096F
3DC65C
3A009F
3478A6
347C30
3C29CF
3E80AE
0D49E8
0216F8
37A227
3B6124
3A7D13
38D477
024A38
3FA6DE
354F8B
00D1A6
3DA2D7
012C7B
3A493C
0174E6
0ABCC6
00DF7A
353EC4
0298CC
3D78A2
3E1FC0
392A0E
3586B9
337D95
3D2018
3E513B
3720B8
030995
005974
0F229E
3D3B4B
3B6672
026655
03BA34
3E581C
3A4A38
3B49CF
3E3704
351287
3D4823
3E744B
01666A
06F62F
3CBE94
3B570C
3BE5B8
005004
39563A
3FEBD0
3A6CB1
3A5796
04B4F1
3D3AB4
073743
041C92
06E6A7
3D9CF1
005CEE
02DE22
3C7021
015757
06F86A
070AA2
016D4C
0404C8
01FD26
050A78
097763
3D650A
3F85A4
081EEE
04AE31
38FACE
0359FF
04AFF6
0539DA
029C34
06E924
067C8D
09F6EC
02748E
04F893
06C55C
004BD3
0C7778
076640
04665E
05C0DB
06E008
0436A8
0AE4E2
029EE4
067A52
0B31D2
0C8776
12B2D0
0CB662
00F55D
03CE42
3B402D
04CC03
3C257C
00769E
04EBAA
3C4651
064A38
3E1C36
006866
00113C
3B3786
3D8C08
3C2289
37F7BE
3E7E62
080D6F
0275FF
3D4845
01BD0E
02A832
062867
3BFE08
3F2CD7
39C704
3DF559
03BE44
3DEE56
3C1C71
3F6FD2
087229
3F7DC7
3BAFA7
3BB44E
3D000C
052BB2
3983E8
3F0318
396CB5
38F1A1
01475A
3E7BC3
37EE6F
00D759
3ABE8B
3EB69D
0552B0
07227D
00EEBF
07C5AC
3A9C88
36C0A4
3738E6
3CB6B6
3D27E5
3C4567
03C547
3C7DA1
000FBA
00CF7C
046A2B
08302B
00B5ED
008637
39A1CA
373FA6
07F455
03063E
015CFA
37BA34
3C9E34
04A148
082678
037889
067FB2
02A033
08ADEE
3D53CD
065C4E
057BE9
025E89
3EC2AC
01A1DB
047789
01944A
06C54B
04B8BE
3E9AA1
3D2B4D
3F1609
076A61
3E453D
027F2C
03CEC8
041398
39ED8D
39096B
0341F2
0C317A
06F9FC
3AC80C
012296
02B990
01274E
080E38
31A5A8
3F6C9C
3E82C6
3EA422
3ADCE3
3BB7E9
06A161
3F26E1
001C82
041483
0236F3
01B6A1
010E45
047BDC
00A2B9
02C2DF
3AB495
3C152B
01BDA5
3D6DD2
3AC8D5
00A5DF
042784
022E1A
036102
0416BD
028B8F
3FB107
387DE5
37891E
00241C
032F66
3E3033
3D567D
3B4C7F
04255B
04D716
02EED8
0597B3
3E848B
03C33F
022520
3ACF20
34FDF3
3B25A2
3AC96C
01F1F1
3E6351
06805A
01A1DB
0296E5
03E942
09AB6D
3E0DCB
3EE45C
00D1D8
3DC9F7
05BCBA
3BD8BE
02365C
0160C7
0196FA
3DD228
03DAA4
3EDAEC
00AB3E
00CE1C
032170
06FB4C
3C9C90
3958D9
05984A
0207E5
004178
042763
3DEA46
3A40A6
3E9D1F
030D1F
040852
039FCB
034D48
3FA9C1
02F816
0AEC9E
038A09
026D48
08B295
3D9780
3BFFBC
04B556
3F32DF
00BC27
06EE41
395842
39CBEE
3DDB44
3A32F4
3D2817
3DDCE7
016CB5
3CEFCB
3824D4
3FB55A
026AA8
05043E
3BEB4A
0083A9
03F64C
052567
012418
3AD1AE
027A85
074EA8
04F81E
001669
3FB081
3FAC2D
04E571
3E555C
0029CF
0A3E18
010481
3E2AD3
021A82
07B3C8
039E16
00A32F
3E9036
03BA88
3C6801
3E16D6
3F6CBD
3A7AC8
06FA93
06875D
0AE88D
002BF9
02494D
3F76A2
035C8D
06AB79
095C85
0B0C67
065A03
03C30D
398490
3CD291
022531
3FD944
079021
04B5ED
092AE8
0C86AD
03EF06
022D51
0AC519
097D7C
3C49DB
04420F
06D959
03EE80
004167
3F7BBF
0121FF
06175D
02EC7C
02B1A2
037DB6
0BFFAC
0EE968
09E02E
02C269
078B7A
02DB83
023736
05D701
075FB2
0356A7
3AD3D8
062281
05C0CA
3BF5C6
0A27D0
04E1F7
00219E
0344B2
3D3059
0221FA
3FA56D
076B09
07D1CC
3DC6F3
00B662
018090
3ED72F
061BC1
0945D8
05E59F
3A49C2
3CADCD
3D9DA9
05E82D
0135DA
074299
01DD7E
3D2220
0471D6
3B8F36
01000C
3F21B3
026E75
01FB50
3D3BD1
016356
3E78AF
06731D
0BC9BC
029867
0436B8
3BE7AF
3C792D
3FA040
3BD34D
006994
089C1B
3C96ED
3F9B66
39E0F7
023F67
01B291
07AB86
051ED9
3FE4FF
0502BC
081F96
06BEAD
0321F6
0371C9
003F1C
0103FB
081C92
02E8AF
3A9ED3
3F2F98
09FA43
0992B7
01D82F
3C61A6
044D55
01E19F
001615
00ADBC
3DD9F4
3BE5B8
3E5657
3F7995
066927
04296B
0C8ACE
3F8FAB
3C5293
050C0A
0151B4
0D36F7
03C4E2
0582A9
016B54
05691A
009928
0A7C5A
0678F2
042B73
0E4042
0D1AFC
017ECB
00BE61
3E62DC
009F94
03E414
3B4D9C
07558A
02ED56
049F40
06C00D
08F041
024C2F
055A8D
07383F
057BFA
006940
05568E
058915
07312B
05BC98
0809F6
377B4A
05F3B6
0631D7
09B24E
01E56C
049E44
0AF49C
05EA89
3C1A36
3A1986
027807
3EC53B
3DFD9B
3E8C47
04318B
3CD477
3F3B96
3DDE69
0772C5
006898
07BEFD
3ED612
3C0FA9
3E4E9C
3B14CA
3ADE97
3EA854
035807
04840E
04E2D1
02173B
0192C8
05A005
073E14
02F61E
087DA1
3DAA82
376C58
01A294
3B70AC
34487B
3B020C
013996
03FAE3
023A4B
01A79F
0269F0
3B3FC8
08F616
06B228
04372E
38F2BE
3F05EA
36F9A8
365710
3B24D8
0592FB
063001
3AFAD6
049060
065F95
00AB81
3DECF6
0EEFF5
097AED
06C6BC
3D5D0B
08A5BD
02C9D1
3A5F41
053ED5
00A1CE
042FF8
08D3BF
027792
0445FE
10B966
0D13A4
0C8659
3EDE00
068FC0
0B1993
3ED762
004241
07CC07
06A044
0389D6
02D5AE
09D69D
08D1E9
0BD7B2
02A52E
09A3F4
0308DD
044007
3D014B
3F294D
0B11E8
0CFF32
0353C5
0BC4E2
04C61D
033051
03B0C4
006DE7
06C721
039B77
037292
039F34
3E9414
05095A
054E8F
088919
3FBC7F
093532
02659D
3C9A34
04B417
3D2EE8
08D4CB
0F1055
0A95D9
09EA35
05C326
0489D2
094317
0498C3
0569D3
0E2CEC
0A9AB2
03C6C9
3FC3F8
3E6C5D
040064
0ABA06
035C8D
044944
070F27
0897C8
0952C1
0FE996
3EBDA0
047B78
3C89D2
091C6D
062717
037047
052A30
052263
3F0132
031E7D
0CD0BB
00C4BD
019392
0369A9
05BA7F
08DB9C
3DF00A
3FD4F1
3FF5A5
02D7A5
0414A4
0E0275
0C9AAA
084D87
0378BB
098E21
103B3E
0B2C94
044EC6
07DF4C
02630E
056D2A
02EDDC
055464
088D4B
3F37B8
06836E
0A3FCC
044EB5
0B5979
100895
102CD3
06D783
0819D2
0C5319
04BB6E
0B9E59
3CA86D
3DF245
016345
3F33FC
00CBD1
01704F
3BB602
39DC2F
3E5ACC
3F5696
3665F0
35199B
3B8E29
378487
3D0EFD
3F251C
0096ED
02640A
014089
032021
39782D
00576C
3CA904
3E25FA
38FE8A
008E68
3D68D7
3BEF17
3F17DF
084816
038551
03D04A
3F5F1B
3EED35
3B47A5
3C763A
003632
38CC89
355E8D
355853
3CB934
366E11
01666A
039789
041A47
01058D
02C54B
044CBE
02E631
3FF0ED
0278C0
03F65D
01A144
3EF134
3FFFDE
3A5A68
3AC1B1
054552
01B5B7
032830
0430B1
01ED7C
3C1EEE
39B8AA
3D6A26
011C8E
3E6F93
3C87B9
3E2856
00C942
0B8DE6
00C469
092146
3F4C3C
3F69B9
02A758
05270B
397689
00FD08
3F6C05
02D267
3CDD2F
03B917
018FF7
06CB64
3E2079
3C5069
3CFCA4
0516FC
07A387
373DC0
003211
3A93C0
3EDCB1
017E88
04F883
0243FE
392923
3C8D08
05D9D3
031077
0026ED
3C01D5
01987C
370931
3C793D
3BFB26
05B973
042107
018B1D
05B4DC
3C6C65
0422DD
3D8DCD
043C29
0AB2F2
0A6EB9
0672B8
397689
3C0D80
3BD0BF
3BC17A
3E67D7
370132
3D857A
0056A3
04BC7B
3D7332
033658
3B2A8C
069824
3C3BF7
3A0589
37E0EF
04E736
3BF7CE
0016BD
3F9EAD
3EEB91
03C85C
06428D
03C17A
0156E2
3AC03F
08CFF2
007054
3FB5BF
3AA033
009491
3D6A59
02681A
3FEA5F
07C0F4
00A090
074E98
0BA259
096ACE
01FC5C
3DB7AE
0441DD
071E29
0C370C
3BB46F
374CC2
3B4B0E
050F40
39A650
04E51D
064F76
02A93F
0A0C06
0DF2CB
04CB8E
06A23B
3F0EE4
03CD57
0A5CA2
0113A4
0048BE
354690
3A9196
05103C
05D430
0A4ACF
02E978
09A986
038A5C
0B0B49
047A4A
0753E7
0BC664
025F20
0B1BEF
065BFA
06B484
0577A7
3E032D
01984A
38BC48
00CD63
39881A
32D395
039FCB
030813
3ABC2F
3EBF33
066916
028FC0
03CB0C
076AE7
08FB86
37F9D6
3DCC42
3F7E4D
0077FF
03B46F
02ADC4
0B44B2
070036
07B938
0C3AB8
059274
08BED7
0901C0
3BFBCE
03E74A
061A0C
3E3F67
3CDD2F
3D38FF
3EBF11
030186
009268
07B98C
051409
079431
0124AF
0E99D8
02AF9A
00DA4C
3C2FA5
050DF1
00BC16
3F67F4
398EB8
03E33A
043569
013F29
0573D9
086D1E
085D0F
02D4A1
3EB8F9
02FE2E
092D34
3D2A94
3CF42F
023F9A
01CD91
022984
3930F0
07C957
088861
02E3D5
064A9C
3AA715
3BF66E
3F3BD9
3B572D
3FF1E8
3E745B
0000C9
0042C7
02DADB
027E30
0323BB
3C813C
0743E9
3CEAAF
031E8E
0A29F9
3F85F8
3FFC32
0B4C6E
013F18
01F56A
02DA87
3E4CD7
04522E
3AE5BC
067008
0253DA
3CF765
0515F0
0A2995
060392
0449A9
0897FA
3F0CFE
39CEBF
02BFEC
38B5ED
3D5FDC
0870EB
0C3287
06B074
3E9446
021155
082EEC
3972EF
35A36E
02AB58
3FA626
3EB580
386D93
0B0292
06C050
05E58E
070EC3
3D8750
004D76
046E3B
3F9BAA
3F2CB6
3C52E7
3DF82B
02DCD2
3EFD75
39ECB3
0C1CF7
3F37C9
38E054
0109E1
019F90
018F2E
040160
02ED35
3C3D79
3FB4D4
05462C
3EA194
3F4B1E
3F544B
084124
042331
04D013
04AE85
039C41
01782D
00FBEB
02328F
03F876
3E6794
39BDC6
02E45C
013293
02B2F2
01CDA2
0EA1F8
0A7EB6
064F22
01C2B0
048B43
079B45
0B52FC
3C6A4C
03B17C
03507E
05F2BA
3E1709
3B56DA
00E629
3FF27F
01C9F7
3E871A
3E120E
060C6B
0478A6
07531D
080746
3FB7B6
001776
001A26
3A3337
3AC4A4
04E6D1
3EEF4E
01832F
012BC2
3FA333
01781C
066277
3E2E09
3D2C59
3E4649
3B3333
3D919A
00F0E9
060B5E
3C9731
0155C5
023C53
3AAB25
0257FB
3A13F4
047CFA
073A25
08B007
092A73
01410F
3E070B
01A804
007970
3ABBA9
3FA248
36E33E
3A8587
3A2EE4
38AE85
3A03C4
0B825E
03CDDD
07E319
3DAE92
02BCA5
3FDFD2
02E9BB
050F0E
39003E
3AFC8B
3D9631
03861A
3BCF3D
3E6202
03BE33
3CB6E9
380DC3
3D3BF2
3BFEF3
0261AE
3BA55D
3E3D1C
007E9D
3E5A68
38C7E2
070004
01AB6D
007CD8
0A9D40
3AE49F
3790B8
01D473
01B4DC
034384
00D38C
025ABC
02E2A8
03B8C3
059242
3D8809
077E6F
07ACB4
006E19
07F3BE
3E597D
04C0CE
038B37
09EA67
3BB8C3
3AE7F6
03B352
3FB203
05976F
3D819D
023DA2
047757
0113B5
005F17
005597
007E06
05B6D4
0511AD
0BEB5B
3CFF32
032042
3D976F
042C7F
3ACEBB
3C7192
068D75
076523
070EB2
3C5C57
3FB7A5
05BC66
0842C7
0C8B32
03D438
058490
020DAA
0827FA
00399B
02291F
083B81
09378E
07B374
07DED6
031886
3CE496
01DF33
04F605
05C4B9
028405
02006D
03A2F0
01BCCA
3BCFA2
37D640
020956
3FE79E
3D9924
036827
3C6B37
034107
3E12D7
011BA3
3CD5E8
08BE2F
00535C
3BF8EC
3E84DF
3A6BC6
0407DD
01FF4F
03DDA8
08420F
029EB2
3E94AB
065881
09E03F
3B18EB
3D805E
0417B9
3F8AF3
3DF223
001B10
070D41
03D449
3A13D3
069414
008CB4
3B96BF
00FC50
0571D1
3DBDB5
36D698
02C0B5
00919E
3B7E80
0328A6
00E629
0711E8
3CB407
048073
09614D
0748A1
3B8572
05EDF1
3BB667
3B7CCC
012007
3E40D9
39DA48
02327E
0449CB
3D72EF
3E394F
084380
06F405
081722
0406C0
0189BD
0A7674
09987C
02B8A5
0370BD
3E1E0C
018266

