E36D2
DF3D7
C4241
FC643
155B4
14CEC
E3779
0E981
5B014
F8498
BA754
43419
FC158
1479D
0F16F
F85C6
3A26A
1510D
25D4A
F41D0
28F8E
3BC90
2C365
C91AF
29FE0
09331
34235
44641
052B4
C858F
15E17
C180D
DE529
33461
CF483
1F969
325E5
EB0D9
F46BA
C1722
280CF
49214
98DAC
976DD
5743E
4E9D5
1DB55
BA604
A6C09
A290E
051C9
A1B9F
CEA4A
2B851
A415F
475B3
46F15
A6666
E1975
AD490
0883F
C10F9
02289
4EBDD
54402
D1CD1
C1DF3
D2828
B4E33
EB11C
E8C58
A0F4D
548FD
F5CAF
1C098
22424
E887A
3CA85
53F4A
014A4
B5536
9EFF9
B774A
94DE7
BB46F
CF312
5FC2A
5A661
C93FA
1E8E6
0BDEC
33FD9
2137F
949B6
2683C
FAFC8
5626B
254D6
ECD8D
317BD
9FC2A
D34BD
D1BC5
37D0F
24C2F
31140
DFF82
46CA8
15F13
B7004
400FB
CF8F8
0738A
10C80
1C50C
E3C64
1438D
0E150
F0670
2DDAC
3BA01
C0D0A
9D27C
E6FD6
97B52
F4602
DB61B
13D42
2BBFD
5C8FB
A162F
E7A52
1059E
E04AF
E770B
F6FF3
E34DA
C5D52
C3F4E
5944A
A8858
44684
430D3
BA9F3
59620
59AC7
D3AC4
16494
2E44B
BFBDF
0999D
22163
3FD3F
DE0B4
8E011
5FBD6
E9B7B
F5265
274E2
EBB55
10D9D
E5668
CD6F5
B3860
A4C1E
5ABD1
B4634
96E15
F6640
53309
04F5D
9A5FC
D4845
0E38A
3AC1D
07325
2F3E4
20535
B41D0
50C5E
094F6
2B0D9
E595B
C25F2
2E935
1184C
A3BAB
39873
FD7E4
B995E
F82A1
33AEE
C3914
E1A50
CCAD5
C53C1
516EB
480C7
0BAF9
DCB46
C14C6
EC6AC
FF572
0B1CC
B7FF1
DA78F
4BC7B
5BCBA
4F0A5
5A61E
156B0
E3582
767A0
0651F
05A81
1F04D
07475
4FB22
2456F
DBAB2
12DCB
520AF
9A240
AC16D
FA7DA
12999
79E9D
5C065
37A80
ED55A
E161E
616D6
C5D0F
06FDE
EA821
0EBDD
2CD8D
49342
16CE7
307F2
AB5C3
167DB
F50E3
0CCDD
A279D
D9AB6
4EEAE
3A8A3
C36C9
C2B0E
9322F
3A227
51EFB
C96CC
14E3B
D3AA3
E43ED
A671E
1DDF4
C2A77
AE2DA
994F2
24B55
A392E
97D49
2C775
286A4
AE989
F7974
F5925
421F2
1A240
13AB4
DC747
4E443
15CC8
B4091
2DD48
9DE05
39E6A
D9D45
C0CE9
06152
BF4FD
94067
2D278
24FEB
8E3BC
FE9EA
55497
B3711
CF8F8
472C0
B20B8
52D87
1A3C2
37154
EBDB1
DAB19
A6D58
27978
35F5F
9BE09
26FE7
D3059
51D9B
C6950
D9503
41333
51676
C2C1B
2F0AE
1003E
AD948
B3FA6
E6EDA
DB5FA
AC96C
2DC7E
E1F08
41D19
C0346
DFD26
40DB2
011C2
AF6B5
26E32
0345C
5B940
C0831
01F85
D1127
33C81
F86E3
A1F4B
ABF65
0BD12
C9C5E
3FFDE
E832B
D6C82
603F7
E0514
BD46B
D04C4
654E6
43D68
32A17
DB339
A490A
06983
1CA6C
D1C3A
130CE
30B6B
1858B
0386D
5601F
969A0
2B4A6
4712E
0F062
17353
3BC1A
F6694
5AEA3
54FCE
FA13C
B11B6
0473C
06D2E
A456F
20B3D
21B8E
2C0A4
3A16E
F61CB
09A88
8BF6E
4CC78
B2FBA
061A6
EFF6D
3E132
217F4
FADF2
06DE7
2EFA1
883FD
DBD83
31CC9
2F922
1A7F3
14F9C
47097
ECF74
25D7C
F415B
EC8F7
FB6DC
3DD54
16DD2
EBE9C
16345
4CB29
4317A
B400B
40DC3
1276F
F24B7
58F0C
0F590
21C8A
44A2F
4243D
0959E
1E82D
3FDA4
DE603
27B4E
36DB9
E6AFC
A6373
A6A11
55768
5A21E
B91F7
1EC3D
8DBCE
DDCB5
BAFB7
C3BC4
FE931
4509B
B84CA
95981
F3D8E
C8FC9
DA34C
2DCB1
AB96F
4EDA2
4B285
237AC
F5D89
B811F
B1498
D3C03
CF6CE
BE814
514D2
5B78C
ACFFA
A4628
1E0B4
2D46F
31A9F
4C847
14DC6
1CFFE
DD65A
A8B8F
61511
AB990
D0BC7
1173F
9B152
1B66F
EFA82
14F26
A63D8
215DB
CAFC4
AF5BA
4AFB3
0FE69
55B78
28911
0CAE6
C7C73
1EFA6
DBB38
00D5E
E3FFE
1A921
10342
555B4
272DA
3C01A
1BAD3
0CD74
CFC82
0DFBD
38993
1EC91
F9607
18783
29E2B
0C319
C980B
1CA3A
B48D3
BEC89
C2539
25109
1BB27
3150D
18F0C
154A7
DCC20
99018
B8C43
E41E5
C6AE3
CEF56
3CED9
5759E
2413D
B0F5A
BB624
2A444
58A32
DE18E
1511D
30F6A
C9060
D19EF
13458
ADA98
CD7AD
2B6AE
BE62D
49118
FD178
03CF2
D67CA
471F7
CD6A1
998AE
D3B18
E0FE4
0446B
B1737
D4003
98B0D
F5D9A
B9C51
BEDD8
D8EB8
16C3F
B852F
CD013
A9520
5A62E
A2B06
058FF
B673C
B6E82
97CB2
4A0F4
19B4D
A848B
D41C8
EE360
E974A
A643C
BFAC1
D7268
5462C
C0229
12934
0C0DF
1933E
F7857
B3205
2DFC5
0298C
EF76E
2F75D
5B0EE
C8B22
B8561
1E375
109AE
9616F
A630E
F3D29
223D0
DD1C3
41F85
A0D23
A848B
4E13F
DBB38
944ED
A3A19
0BAA5
E1804
1BD61
A19DA
53198
C4F6D
0815E
FB1C0
43FB3
B33A8
C78A6
9F969
1A2C6
0D4FD
54C44
A160D
B6B8F
CB4AE
D4DB5
C6E3B
CFB33
CEDB2
2CFFA
5AA92
39D1B
135FC
E4B66
F6F3B
29CFD
870A8
02DAD
07C30
4066C
9097C
C3E63
A8CEF
CAB81
FC89F
3CD24
928F1
0347E
D691A
AFF8E
1BB59
4E5D5
3C5AC
D7258
11969
FF38C
A4E48
12E2F
40086
36262
21C15
464BA
3A871
99999
AEE41
EF77F
12E72
A43ED
D976F
1DF22
9C1A4
2AFFF
B5D13
2B1A2
AC6DE
333EB
DF3E8
1B24E
8F9F4
3126E
93D42
FCD24
003EE
43547
A56CD
04B5D
D4FCE
43D9A
CCAD5
54F05
FF1B6
DBA1B
3A700
4F787
E6080
EFD54
ED4B2
AF2D7
D4F26
E5093
CC016
C2ABA
E1BF3
AAF46
05E2C
21965
1AE0C
433D6
CF9B1
9F7C6
9B089
40160
F0479
E0BF5
BBBE8
0B567
C24B3
30EC3
35C39
56C3F
A265F
8F238
BCAFB
3AC0C
02A77
FEA1C
26223
E0B2C
FC371
B41AE
AE1CD
36805
3F1D8
37E6F
3D0F1
098A2
ADA76
E3582
31183
B16F4
A23E1
4256B
DCB89
32357
AA737
32367
114D2
4111A
0EEAE
E465A
FD534
F0E2C
CD9D7
9D29D
01F64
0D024
51772
C3537
1B2A2
99967
AC343
25D7C
E2A80
F5DDD
EB7FE
E291F
DFD7A
D9C38
655E2
5D3ED
A0A20
10518
D6E47
D2BB2
A2877
0C8EE
0534B
D2E62
19F5D
44C37
019F3
D8B1D
5466F
E11DB
94AB1
44A0E
E7C6B
EC54B
4EC84
48B75
2CEFE
07735
538DE
3251C
F09D8
44D22
BC914
350E3
81ADE
A849C
CDBDF
34E54
4E12E
89374
DD9B1
53448
9FE64
1C62A
A747D
44F2A
159D5
3FBCE
474FB
04BB1
A978D
23FCC
E4A59
5F7C6
A0008
584D3
957AB
EC493
E822F
25519
D2B6F
07842
27D34
F1098
50D06
D6EEF
CB5BB
F6F8F
31E3A
D5F78
C9E44
C78D9
C1F64
393BC
FAE36
B508F
C8238
EC1E3
5EEDC
2909A
2CAFF
6325D
0A515
46540
49BA5
EA10E
ED927
EBC62
05FE1
ECACD
4507A
DCB89
AE818
785C6
A9424
385C6
3FEC1
E1682
A1544
EB7AA
0E69F
9EE13
8D812
F589E
466E4
BFE2A
0BEA4
6D341
33CD5
65DD0
B70CD
37DB6
04E3F
575E2
4C804
CABC5
019C1
51C5C
B508F
ED905
C384B
16ECE
3DD76
FC4E2
3D5A9
E3E9E
C26CC
A1101
D4EB1
D23D4
144BB
DA858
4D20A
5436B
BC9DE
0A686
F4BA5
399C3
FA493
E2706
0D77B
20C49
5B1A6
49613
409B3
01440
07B67
10321
19945
21565
0284D
153AC
F4EDB
AB851
CD7AD
246F1
A75FF
A3D2D
FA637
4D551
2AD3E
95FED
24CA4
372D5
10EBA
D0A24
89481
A527A
2C2DF
D6B65
1AB08
32884
C5F9D
FE1A8
6072D
2AA8E
2F5FD
AA4B9
A8134
14866
D89DF
C4630
B1E18
A2B9D
CBDBA
A9878
FB7A5
E0A41
4BE2F
30B06
B2841
F25E5
E4207
1AC79
31E8E
32B34
54ED2
BDAE8
2D1D0
97742
425F2
A6E97
5713A
27008
E16F8
53A4F
B2745
8AAA7
F630A
AC386
5362E
B38E6
D857A
84816
45DA6
A25E9
342FE
E43DC
F4299
E1134
CFEDE
29867
C069E
93DFB
D37B0
A0F3C
09E34
181E0
33669
0C532
ABD5D
978D4
9B280
FD976
498B2
37F8C
30142
AA1A5
30963
DFE11
27275
F48B2
EF0E0
4D002
11105
2008E
D36C5
09E44
5AFD1
93272
2A2A0
20B6F
EFAB5
22563
9E80B
FD512
ED234
5C358
E8F5C
4A116
F29D4
AD0D4
BC632
2F9CA
07442
95BCC
DF676
CFB65
2C28B
A8448
35DDD
A237C
1B078
F3BFB
ECEAA
969B1
3F1E8
F5C39
BC371
571B0
B8045
08B97
56E04
020C4
9691A
ED8F4
E6948
AD14A
EC15D
5857A
5B90E
2B0B7
462E4
E3369
17DBF
3AFB7
59AC7
FDDB9
E8A71
C16AC
A6CB1
39E16
99A84
C3CF2
9F212
C1E68
37DFA
201EE
C92EE
F53E7
3F5E8
61437
EC3B9
A0EE8
4B4BF
48030
0C62E
E2995
3605A
5D323
43C18
3B699
9F57B
4140D
54562
5FC9F
2697A
33A9B
16744
D5DB3
F0A2C
00CC7
B8D0C
9E56C
4CB07
27D67
F5FD4
2F3C2
49342
BA02F
EEA63
AFDDA
E8A50
EBB77
EE807
AE7E6
24A59
4BA0E
A14AD
4CE70
C98C3
E060F
5BB16
412AD
E9BAE
3BC6E
B22D0
E3F78
D65F5
5003E
FDBE3
63AD1
D796B
CF98F
C9CE4
F8CFB
C10E8
13F07
AA3AD
C2763
EC625
2B484
0A70D
A8A2E
10214
ABABE
A8512
FD9A9
B4BD7
ACDAF
F8E7D
EEC8D
B71C9
58809
02ABA
DD6E0
18DAC
0E1A3
2EC07
9CAC0
A148B
9FB2E
CB45A
265CF
8EFCB
E9424
02F51
B839C
1A9EB
23CA7
07D1B
21C47
CE4EA
CD51F
311A5
21544
D6638
984A0
EBFB9
52589
F9F66
99BB2
FFD0D
EF651
CF7B9
4053E
4D7CF
0F462
8EBDD
433B5
D5F67
EA6C1
F3E03
2B65A
987D6
25C5F
CBF6E
1AE2D
A3193
CB0D0
91276
084E8
0F40E
196D8
FC936
AF1ED
E070B
A0D13
431BD
3D156
1D0E9
C7CC7
CB849
96C1E
41D9F
C117F
24D8F
16DD2
AD45E
87475
EB895
0A090
1656E
D0E45
404D9
109F1
BD534
EA593
140FE
CE032
24E05
1F45E
15E8D
A7286
D7BD8
0650E
B46AA
5EDD0
C8BC9
4A98A
F2010
0BBF5
44DDB
53048
AA0EC
270B0
AA8EB
CE51D
5E5AF
B6816
24E7A
ED6CB
15DF6
12EC6
E7D34
9B90E
969D3
32346
F12D3
3A69B
5BD83
1AEC4
34E76
3EA70
16590
24BBA
D107F
47347
0F473
C027D
9C087
37A80
214AD
3DE72
32B34
340E5
C6A6E
8C1EB
37974
8C8CD
EBB88
CCC14
F46CB
D1C08
0E864
26091
512EC
041FE
A8C8A
DA6D6
CE725
E0381
1D031
16B00
F45CF
2AD81
94D0D
3B752
4F3EC
1BC33
94B16
8CC46
CB157
1975F
43DEE
961E4
25A68
37058
2F72B
A0D34
51E10
ABC83
9B9E8
13858
E7FA1
1886D
D146E
3E920
13532
FE692
4D2C3
57BD8
E47FD
193A2
E2A80
29446
C66B1
4CEF6
4B2E9
098C3
B393A
A51C1
E9878
3677F
1F505
B6BE3
A7F6F
CDF7A
56C50
5BF7A
D3EC4
8CD42
25F20
53C89
B15C6
AAA3A
48062
C638C
102EE
C51FC
BFDC5
9D26B
047C3
150B9
F8950
F2441
5BD0E
A94CC
2C5D2
4711D
E5375
1C4B9
A4D1A
5A5EB
B8A5C
F2085
35DCC
AF8BD
E671E
95A18
55619
5AA3F
C7B78
338B4
46F58
FEB6B
BB3D8
59370
2364B
D0D49
C39AB
178D4
FD88C
2EE41
22531
412CF
FD295
F3C70
D2E62
F1DE6
C3F81
3BBB6
EC2EF
E2FF0
8A2A9
3224A
52589
D5379
BF1D8
C27E9
CDA09
2E818
1FEB8
43FB3
E9C66
C142F
4D541
4FA9C
F15B5
A05BC
18F81
2B4D8
E9A5E
F4C1A
40D5E
A8F08
4611F
08333
29531
11665
B15A4
D9FF4
D0CF5
ABECE
963BA
CDFDE
FF2F5
53565
CE629
FD4CF
080E8
AE5CD
531EC
42A23
B3051
D2253
FF023
36A1E
1C4FC
1ED06
B9BAA
F5C7C
09BD8
948CB
A0A95
2BE59
1145D
3F173
064CB
095BF
DDC1E
425E1
5B50F
D42A2
F4D05
1F905
E6677
BF162
354C1
51947
B33CA
45EE5
FBD59
22ED3
1A72A
AF06B
D5C52
24239
E1D64
963A9
AB063
04B4D
9B951
5286B
08F21
48051
CDFAC
FE1B8
194D0
A47CB
18255
24799
1A8DE
62995
E5AAB
0A548
62110
2BD3C
5F5BE
03E96
D653C
2C1A0
EB799
8C682
4E475
CC5C9
942C3
1BFF0
D73C9
0EE39
008D8
F0CDC
E54A3
33E24
C85F4
C72F3
A5E99
E2068
B9799
CCE5F
BD9BA
097B7
B6CEF
344E5
42C6E
160E9
1249E
1F623
E6948
BB15B
472B0
B27ED
F5CF2
A76FB
A6687
B66C6
965C2
4D844
B7878
AA5D6
EEBC4
0ABE6
B4BC6
569A0
F5935
EF1DC
953EF
B723E
08872
1A122
F7AD4
B48C2
0D812
16ADF
31D81
A7D67
4958D
B58D1
4112B
E5918
1FEB8
5C66D
AC7B8
A5647
B2021
2E74F
06E9F
AE71C
1C9C4
4B08D
96EAC
996C8
FA765
5DD8F
0D7CF
3F609
BB203
06583
AF438
B6E2E
F4F61
8DB9C
985CE
BD662
2FD54
5333B
1ED4A
A58D5
49E98
44FD2
BA5A0
F4890
224AA
F86F4
E4F65

