F266CB
08357A
08B6C7
18DE2A
FB5B5F
FF2CB6
0706B3
0FB2FE
1290CD
FB35B0
F8E92D
F33E89
FABEDF
083C29
066C7E
F6468C
22B1F6
3512CA
20EA28
26AF25
1B83AD
F91383
071C64
0013FD
FF6A2F
EF7271
EE48E8
FB1A8E
F8A793
FFD673
25D7CB
22BD5D
F9A565
0A56FF
002DAD
031F14
F922C8
013DB7
F89FE8
047219
EE771C
F453E2
FE1EF7
1DF6DB
1AA151
1EC4C5
F465D7
F466D3
1BEE91
F6DC4C
EF1F57
F44F3B
E6F6E8
01691A
135D24
FFFF9B
F0CAA3
0BB741
E9AEF6
FAC797
146690
EAA7BD
F71C32
FBBA66
FAF587
063C31
FC1B64
0218EF
FE12C6
F2D1D0
FEA151
0ADA98
FD5464
F5CA07
036A61
FBE0DE
02ACA7
0FBB94
FB8D4F
FAD927
13E718
E7F62B
F9DA8B
EFC2A8
117DF1
0C5458
DDC3AC
E7FB69
E5A522
FA9B17
FA0C7C
2310DB
18100E
0667E8
0113C6
FB08BB
EB0E7F
0D6E8A
0DCF46
FF3AEE
F80181
D9C065
EE0978
1237CD
0996A6
F626B2
239639
20ECFA
FFEF06
F43E42
FABE59
16B0EA
0F2064
017353
E204E1
E2E4F3
E48D4B
09816A
0264D3
026E32
02AE9E
F74D26
F8B5ED
E99D77
FA69F0
149C7F
F91AC9
F984D3
E3C88E
D82B30
DC7E28
E8ABD5
00D0BB
F62F9C
E7E4FF
EBBEFD
E88F64
E9C875
F2BCC6
0BDAF8
02581C
0A871A
F4AC4B
EB8737
E075F6
04E9D5
E8ABF7
DF3BEA
00CAB3
EC3265
DA5DAF
F54CEC
DE25D8
FBBD9C
0C96AA
118EB8
EBAC71
F6ACB8
D2D72F
D9C304
F60DAA
D42C6E
EB45E0
F2682B
06746C
05C3CE
E37F9D
0B65FD
FC27A6
0A3D3E
085F6B
028438
FBEF39
FD600F
06D1E1
0391B3
E7FB15
F34A01
E8CB7D
EC9F62
EE9670
220EC7
028922
004F09
15883B
010774
F2A21A
EAAC21
0FEA1C
EC4695
BFAFA7
FAF501
F81F42
D22E7F
0EEC5B
1090D5
2F1DC5
1482AD
14E29F
FDD9D3
FC4E3F
0A60D4
EBC9BC
FF7F17
02AC10
172485
0514F4
FD513F
FA1FAF
F7264A
09CCD9
17E36D
F0AC7D
F35FA2
0507D9
139639
06D117
0D8E64
F71FAB
F6C55C
067275
0991CD
0C841E
1F1E8E
FB416B
ED0060
DFA626
EC270F
E96095
07009B
FF6B5D
1A2717
069ED3
09DE8B
1472F3
1082F0
0FE4CD
11070F
028EC5
EE9FAD
FB0EC3
F0A127
EBE7E1
F6A800
1A67B5
005692
F3F2C3
1103EA
FB6F19
10AAC9
FEB0EA
04B662
09567D
025860
06DBE7
056DF3
0531EC
ECDFEF
F36E1D
F4913A
12B495
EBB795
F9C52E
F0662B
E9E84F
046A1A
EE10BE
E5712A
0E1B6D
E132F8
FF2A06
F860ED
0829CF
E2D01C
04D0BB
EC6CA8
FE8CCD
040325
13C408
F5744F
094477
EC3DCC
E8B49E
F73AEE
FC21AF
FCD9F9
E86CDA
F9934E
DD0E34
E1A176
EA366D
F6F102
EC1A04
C387CE
21E5AF
E1A1A9
E2D549
E38C54
05A9A8
009331
FE0DDC
FB939A
EEADF7
10E67D
F407CC
059641
FA07B3
0092BC
15FBD6
E7CD14
EAEF2C
FBD09E
062A90
0F544B
CD4749
E4999D
FB5C8D
086983
13226C
FD56C0
F4F91A
1B62C7
1B4666
FF5653
FE5D6B
F0FA9C
F53059
0308ED
F6496E
1B20C8
1ECA46
E7BC2B
FF3764
EFC42A
FA2888
160BE5
0ABDD3
DF04EE
02C0F8
F7EDA6
EC2374
EAA758
F6F0CF
043643
1A07B3
09CD0B
2874C8
1D3EE5
FEDA87
FAA4B9
0C3DEE
1D88D2
029E5E
E8D4CB
033E9A
E6EEE9
EE44E9
1A085B
02B15F
FB2EAD
0983E8
10D962
1356EA
0097FA
151926
0DB1B7
1E92B3
0D54B8
FD5B9A
088A58
E4CC25
DCF4D7
ED5087
E61459
0598AE
03F983
0989CE
0B32F0
1DCFCC
0E2DB6
F7DB1A
08E25C
D87D6F
057492
0CE2B0
027A31
156D3B
27318F
2784CA
1B111F
FDFE43
FB74AB
FF6B3B
0EA52E
0E239E
17BD05
0AEF4E
06DD26
06705C
EF343F
FB7DFA
ECB662
F10CC3
01A62E
FB78FE
F5C8C9
FE0EC7
088850
151C4B
04C059
0FAD7D
015619
FF482B
DDDE69
F5ADA7
F051FC
F48701
F7CE63
F1C219
F92828
050D17
0AA572
156883
F78066
0470DA
F386F4
075F1B
F4EE06
0A0381
ECA89F
DE27AE
F0E864
F125BB
E793EE
F854CD
FF923A
FA0BA1
05A3F4
0E4649
F658C4
083298
F640E9
EE48A5
E32CB6
E64788
EC996B
FD5033
F47B13
F8677B
0FB44E
FF16C1
F932D6
0277D5
07DD65
EC34F3
00FA69
ECE160
080D4D
EB315D
F6DF2E
EE5CE5
F40357
0BDED6
03980F
F3F067
F94A6E
F7FCEB
0293F2
F4E29F
FC868B
067ED8
F94141
05A469
F6D645
FFAECD
EA0A73
036C37
01BB59
076EC5
F60C5A
F7DF7E
0BFB58
F7D9EC
F7EAE5
FCFC1D
FBAB64
EE9057
F21997
FA730C
069FE0
FB5515
F6C0C6
024638
F73CF7
FD6228
0E7D13
E53B29
07C42A
109E77
F108E5
FDD8F9
F53A81
FB26BF
FBCED9
037963
00801F
FA1CFF
F5F99C
FB7835
0DFE43
F32ACF
030813
F7BBD7
F05C57
F0E075
EA62DC
E9E6CD
FB7531
FCEC63
141B86
0AAB68
F26266
F047A1
0A615A
EAEA31
FC195C
F97C1B
F4EE17
EF2FA9
EE9B49
E507E9
EA6D26
F64F65
09F655
058116
00E8EA
F3C361
F71758
F34A23
E2A5A4
0A9446
F9C875
EEDBE7
F33764
FD7870
F577EA
12E653
0181BE
12FAA4
0898A2
ED694C
F57F0E
F6F3B2
FED267
F4A87E
EFE7C0
EE4B87
F4E9F6
FC47D3
152FE3
0BE058
FEBD90
1A3465
0AF405
0C75A3
03F2E4
FF4B94
EC2D7B
E7738E
F7E586
E388EB
EC065B
F06DC5
10DEA0
081787
1B415B
06965F
1A0C49
0F7952
0C1F53
09944A
FC102F
E724FA
025732
00A9DE
F4ED0B
13077C
07DB2B
F62014
01DDA0
F58F2E
EB86D2
F67CAE
F7C760
F6F694
02B181
02B8B6
FC7CFA
EA2F05
E823A6
F605FF
04A3D7
F96F97
0E09AA
029707
F98CF3
FF5989
FF72F7
0925DD
13110E
F800EA
FAA92E
EC8616
F7D5FD
FD5A07
0DBBE0
04B44A
09C4C9
13B539
06A90C
178EC0
201E36
13DB4C
10E8FB
06BACF
0B6709
EB52C9
F17614
F2AFCC
0427B6
F98BE7
FD8DBC
0D145D
0095F2
0DB1FA
FCF1A1
085100
0C7F34
0E04D1
18FF86
03193F
01FB0D
F6B9B2
0293C0
EC3D46
E89E44
0696D4
F48249
FA2E4D
0263C7
FF3721
035C6C
22EC17
15CD0B
193D74
1ABD90
FBD816
FA4777
FA0210
FBB320
02FFC1
FAEFA1
00A31E
01FBF8
03415B
05DC93
1D6238
07445E
0C941C
0B39F3
066A55
FD4B59
142FB5
1307E1
0EFA2F
06AC21
FACCD5
EA9B7B
F31F46
07DFB0
0B4741
FF1172
FD1FF7
020429
0CFCF8
0B04AB
222270
0FB213
18A201
1305FA
FD2A62
E65929
E5CEBF
050689
082203
01B2B3
028F6C
F0E95F
0E1C68
10EFCB
1546A1
045DB7
09B973
12AEF2
FC6B26
F6F62F
F465D7
F7F9F8
FFD901
F786B1
005447
E8B7F5
FC5857
060589
179D6F
F3136A
FA5D39
F64BEC
E5E215
DB2580
F4A45D
0193E5
050BD8
E8F93B
FBBD59
075B0B
02D490
0ED16B
2AD8F4
FEEB3D
F4F00E
06A572
09B6F5
EB37C9
F392AF
F8780F
FF1704
016616
00F81E
0D61D4
10A17B
16554B
2FB9E0
0F192E
016638
018D04
09BD83
EEC6EF
FA5753
F5794A
F1D11B
ECD3AE
FCA0A0
F882E0
131DD5
1AB4A6
1383F0
121A50
FE2EF4
147F77
163326
064EDF
165311
00230F
F87E38
F1C992
0AAAC1
059FC2
0EC460
267296
1A236C
132B02
FC8872
0973B8
12DAEC
181FD9
07ED63
119136
146F04
FA4388
001B97
FE5710
0C2374
271CB8
149CF5
FD83D7
F10D28
FCA5CE
FBFE8E
0B3322
F8FC0D
01F98B
F86045
FB49CF
0F268D
178BEF
0C6C33
D8FF54
FB58AF
EEDA98
00FD2A
F43632
F951C5
EA40E9
E2390C
00B8AE
05C6E2
0731D2
000757
036113
0B269D
F2440F
F0BDDB
03312B
F698CC
E0FBB9
DA0839
D7C8F3
E76F9F
F46A3B
F36805
E6D7D7
F04252
0A2739
1D085F
21816A
FA23BF
02235B
F8D499
E14E7E
DA4894
E2F230
DADD26
DC0E17
E78769
FE9C99
F13101
013D85
19F373
0A3422
137414
1DE01D
0284AD
F12E72
EAF4F0
D4ED80
C889C1
E65F0F
E17F84
EC2D8C
E3DD00
12E84A
164734
259BE4
F95AD1
F3AA25
FA10CF
FF5EE9
093AE6
002645
E6FFB0
E57EFE
FE20CC
F842E9
F1B9E8
17137B
0E705C
221804
F894C4
F20BE5
0DFC7E
FE543F
0086F0
046CDA
F20BC3
FBA893
021198
FB23EE
1F68CE
3C117F
2CA276
153B6C
FA275A
F690BC
020839
008FD9
06979E
FCE022
F94067
0B9767
15375C
128FF3
21187E
10829C
069520
FAED24
ED5592
EE9036
05FD9B
148FD9
1E070B
0E60B2
106499
21E42E
1464CB
0260A2
11AD53
1621A7
029CCB
06E371
E8DFEF
F9B23D
171769
1C5A4F
29F937
2929FE
126687
FDE0C5
29373A
218CC1
1C69F8
0B9D0A
FFDB3B
F86B15
F1C28F
F35696
FAC40D
079335
18AF92
1DFCD2
1A580C
1B7B28
311526
1BE9D9
FEB788
FFD36F
04D67F
026351
063193
F31F03
EDDD8F
012C06
1CEDE5
1192C8
05320D
115BEE
1F2E27
1B2FA9
0C3393
08BDA9
FAE408
EE57FB
E7BE33
F451DA
06EA20
21B089
14D9F9
191A21
140A7C
24BB90
14E171
0AAB8A
067807
0616F8
099157
F325E5
F4DE09
0DEE78
112029
07F5B5
10A569
F94AE4
FB1422
222467
1F21A2
23A5B0
1DCDC4
0BEBE1
F9F45E
E97A35
0D13A4
0D654D
1F82C2
1159B3
FDFD8A
12450A
FD4467
F8A3F8
01BC01
F4142F
EA2F37
E6873B
F4FDC1
F70D73
0E9AE4
183276
0F381D
15F8B1
15374B
127A52
FFAA36
F95810
F89F40
E394D9
ECC8AB
EEA886
F5B1B7
01F04D
04126A
0FFE8E
091BB4
0A6948
FA8900
084684
F62025
04448C
0354B0
F40464
E62552
E9A198
EFAB21
F4FA26
01B328
02B28D
F605AB
07F79C
0544ED
E8B535
1875B3
F9EAAB
F3EA91
0037D6
E1529F
EF25F6
F93C46
F2B8E8
F38359
07E7C0
020A0F
F27E95
075CAF
196DA0
016FC9
ED4552
0051A8
0357D5
FA9EF5
EA773E
EB8E08
E2DB50
024D6E
013BAF
FA392E
EE6937
01D92B
18A98A
FE5B96
F16312
00C89B
F9B5B7
FDE8B3
002891
09B4AA
E5B7BF
090AED
F9270B
EE0AB7
061459
F3358F
FD5D1C
ED3272
03A365
015571
02A316
F25657
FB674D
FD9956
E83654
F74F3F
FC4A83
EFB4C3
F7CCE1
F892FF
057A35
F93EF6
F0AE74
083B92
05695D
FB63D3
F2876E
0CDF58
F97DAE
02D8A1
04D9B5
F5C13F
0BA99F
087171
106801
EE7536
04027D
FDD00F
01FEFB
F84A94
F51958
F32CA5
045985
0AB6D0
08B05B
0A7B1C
FC7714
06730C
0E7DBB
FC639D
01C842
11E4A3
014174
EAB10B
F4D972
EFD06B
FB8130
007581
0660E5
0C101F
0FB84D
10C5B8
08A665
06E9CC
FE2AC3
F90119
FE7C49
FEE47D
FFBD05
FBBFB5
F5C853
0E02A7
1EB1E5
1DEB31
07661F
0FFA8F
01D82F
F58A76
0E5FC7
E74D26
F1A836
EC9B62
0E019B
F8DA4C
01C1F8
0E20BC
0EC918
2CCBE1
2ED03D
1300DE
171715
FCF7B9
F1BB9C
F8CA2D
FA8869
E0ED3D
E94C33
F14823
15AC68
07DA1E
0BC0B1
105DC8
1E9835
0869A4
0C17FC
10929A
0FF6C2
03910C
10621B
05FE11
09141A
FDFAFC
09004F
072441
F47FDC
DB646A
F579AF
EC9518
E4D951
0A4399
F5A144
EF14A9
EE3326
0B8BAC
1601DE
FA54F7
F7AB53
0B0510
D571C1
E570C5
0471D6
07606B
00E991
07FAC1
0567A9
1B3F20
22AFCC
30CC57
153A71
144673
FE0ED8
F0D67F
F76D97
07B29A
FE7557
FB7A3D
F97EFE
F3AEFF
09B856
1743C7
18014F
1440BF
170A1B
082ABA
0F8BAC
F40767
F2C354
FBB1D0
E446D8
F7F434
EE88AC
DED9F0
F6908A
FA1AD6
037A70
1CC144
12044A
0A8B19
020BD4
0B1832
1EBFDB
15EDBF
040C41
F9B552
E60242
F316D2
EF03AF
F8FD19
FC9385
F89FD7
0DE785
0A4473
EFFE08
0E13A0
FF926C
FFAB10
085597
06F273
F510E4
FA390C
0040E1
F5601F
068448
EE428D
0FFCEB
F6146A
EF5818
06C519
02BE59
01EBE9
0D71F3
F1A08B
0728C7
FBFA3B
06DF71
0528D0
0C1398
F86C00
0DD616
086024
08BF1A
1F93EE
0C536D
F65C3D
EC2C4D
F895F2
FC1398
FD2A30
F0219E
03F38C
06C1A0
20B3A2
0DC4DA
05421C
0ADF71
095A8D
E89A02
E13554
DA1869
019F6E
0ADC1A
059BD4
14096F
0D24D0
FF2DA1
1C9678
012D77
0742DC
06C2EF
FAC050
E7C371
EBE74A
EADC4C
F2F5A9
EE4788
F5D649
FEB302
0A7BE5
F96356
0D8D47
245964
0DA07B
0CB380
044B6E
FA6EC9
E3B1AF
E94ED2
FECE89
FF6EE7
030B28
048701
1B2D0A
1FCE42
0B54E2
032EBE
045F17
0F3248
1F6A83
FDFADA
DF62F9
E39F01
E8C4AC
0001B4
EEF77F
FE6373
24E779
270489
F416CE
FB68F0
F83409
162068
0A47A9
F174B4
DED091
E9FB93
FE81A9
F73929
E1E7EA
E45C13
02A21A
02949A
06B367
0929BA
FAA8EB
16BBCB
0625E9
F6923E
F82D7B
EC0B67
FCC77D
E100A3
EC6FEF
0F57A3
F9BE09
F1DF76
0B3376
FD6E8A
0CBB90
165BD9
E3FC11
FB2EAD
09B595
FC0E27
F77C99
FF5382
073C92
00F5E4
0BEC46
F4E3BC
E2B441
ED8E86
EF8C54
F6173B
F8BFD2
05E7FB
067AD8
0D9DA9
081322
055E4A
F2A875
FC5575
E4317A
EC47E4
EEDC2B
00CC89
F19E94
EBEC46
08B662
01D97F
F878B7
F158A7
F6F3F5
F225FA
F92146
F6E978
E8E7CD
FC9279
FB1E5C
07049A
F0E1C5
E03914
0DFA87
E76124
FE1932
F898E5
D51BB4
02C18F
EB8BDE
F0FC61
D2352E
F51C7D
EDCED0
04FA7A
0001C4
ECFC0D
136A50
F57AFE
F0E011
063454
F3E814
E2FF4B
FBE165
0009A2
E9C0FC
F00885
001882
108B75
10BFB1
140EAE
04AE31
0870EB
17EEE5
FEA209
0C1D6C
06A444
FE238D
EDDD7E
030AB2
009ACB
0BABDA
0112A9
00957C
213E81
074CE3
FDF2EC
EF2B77
00ECD8
0B008A
065BC8
103361
FCC597
18D65E
05F8E3
0A146A
EDC6B0
F57F62
FD6ACE
009EBA
025E24
0C301A
012E2F
0E400F
1AFA2F
13D640
FEF8F0
0C8EEF
051633
0B9C94
FAB389
F97518
006876
0EEA63
07FC97
056C2E
01AFC0
F4F648
15CBFF
0FB688
10D4AA
11C13F
023B57
F59817
F7F61A
F4A383
D7BBE8
0CFD5C
FE1D64
10CE4E
11D840
EFB1AF
01BE1A
082081
0D9168
F7B99D
FCE13F
FF0FF1
E72734
015475
E5C38B
0E0696
F527D4
139B88
1B5BE5
FAA63B
06E675
14282C
21BBCF
F12C8C
F2EB1C
F625A6
E8B9FD
EEBCB5
EFF36A
114A6E
0BD6D7
FAE58A
15C8C9
0FBDAD
FF45CF
FDE625
0A8427
0329B2
E3C87D
FA8640
E233EF
EA05CC
F24C0D
20BD01
0593E5
0CC187
0C2FD7
10981B
07CC6C
0D3576
01D217
FB1E8E
E6B452
FAFEF7
F12E83
EF517A
F72778
1591BC
1F5C18
07CCC0
0864FD
066B83
1021F2
0EFC04
F76B2A
06603D
021E71
F161E4
F83FD5
E74363
FB8151

