00BCBE
36ACA7
07954E
3DF70D
04FCA4
3F1854
016F54
3E5ABC
39F255
015464
051F92
015ED0
3CA233
029489
3B4A98
384B2B
3F3EDD
356430
3B5419
3A02D9
03D5BA
3AB5A2
377814
3E598E
04B9FD
3FEA70
02D0A2
017396
00FFC9
321006
0317DF
3C3287
05171E
066AEC
08B6E9
0054BC
3C3C8E
3FA0C6
3CDBCE
02A454
0AC97D
026106
029728
02FBF4
09886D
3BAB96
0D7082
059620
055A7D
15421C
399EC7
3BD35E
021F7D
3BAB43
3D6605
03FE3B
022930
04E043
08A58B
00F6DF
06BB44
084588
3DED4A
101861
033ECC
030307
3D1947
36C56D
396CD6
3BAD9F
3F3DE1
0079D4
06950F
084124
064F76
3C434E
05CA18
0375C8
08AAA7
37EB7C
0349BE
3BDF6D
005197
047F34
3150CA
3C7453
0075C4
3AA9F7
0EA3DF
3C0F12
032DE4
3714DB
07F983
3A68C2
3A698B
3BB256
031DF7
035B81
3E3486
04F3FD
3AC2AC
0272FB
067BB2
3C6573
0166E0
3A9F6A
3E12D7
019407
01F05E
3429BF
321F29
025870
39E247
0C1ADE
3FE1C9
3E5A9A
3A5A14
06C55C
026080
02034F
31C443
0246AE
3B8305
380485
34DFCE
04D067
3B5BA2
3C5F5A
3C28A1
083E63
3B2734
04ED91
3E57EA
0108E5
0A2DB6
3E7A41
02AA6D
3C6412
34080F
03E3B0
3E221C
011C3A
3CD4ED
34D413
04A01A
0AD2DC
06A9C5
014A1A
03D512
392D66
0730A4
341FA7
3C3E31
022C66
3A5343
302A99
3E7DDC
3D5379
061554
12EF1B
3965B2
00C814
1195EE
013CCD
055AC0
3812F0
06F577
37B3A6
0B8327
38D0ED
3B13CE
054898
3B1886
039378
077292
07E026
0219EB
39D0C8
3EC732
3ACD18
3CE421
3B9AF1
09CF03
3C65D7
36E6B8
3CC942
05A78F
0AAEAF
098665
059AE9
104F7E
3A466B
3FBB1F
3CD21B
3443A2
029563
35C94F
029F38
011559
3FC98A
043D9A
03A237
1316C1
00316A
04EABF
022595
3BD2B6
01D6AD
3B709B
08D120
3E160D
3F0D0E
3CB039
3DA6C5
3872D1
08751C
03F92F
37E9FA
040AF1
36C248
391DFF
3B39C0
3D9C27
3D4FBD
0087DB
3C41CC
051AFC
03F551
01719F
013D96
00A148
3B3EAB
0060ED
076F6D
35F9AC
3D7A13
0534AC
00FF54
083C3A
05974E
069E7F
06F598
09D5F5
0DF5CF
3BCCD0
0394C8
0A7E95
027653
04D445
37B30F
34A3B5
36030C
387F02
038B15
3F08FE
3AF5DB
3CC261
039895
0662ED
0489A0
0A9563
0F7F49
0A8405
3DAAB4
3C5718
34D77B
38C404
390917
3CD035
079E16
3C5E4E
05056C
01931C
3CDFCE
3EC226
3EC1F4
03ED74
3D1B4F
3D4B38
3E6E65
380D0A
38B1DD
3FBFE7
017ADD
03964A
39B435
38FF75
3B4B83
06DC8F
04BC05
0591EE
382B94
00B178
0C66F5
3CEA28
3C7757
3FC526
0D0A13
075115
05BBBE
392E2F
3EDBD7
08D21B
03D827
042784
3C7B89
3A6B72
3A596C
34B817
3FAEAB
3EF859
3EC17E
394E8F
3FA7FC
3CBCDF
0549D7
3A8F08
3CC122
3244C7
040991
3B61FE
39FEC9
367AB7
3BDC26
0AAFFF
114D61
078B58
3C301A
3C55DA
3E9542
3B7681
3B020C
2BDA40
323AAF
3294FF
356312
068438
0D1665
02D19D
04AEEA
079192
371E18
065BA6
3FF2F5
372A9D
38793D
3287B1
011EB8
063369
096F97
3A1006
35563A
01A7E3
098116
3E3971
3A0DDC
3ACCE5
3EA561
3DB057
340778
3B6588
0BB278
06706D
014078
38AE42
0058DD
3A390C
3DE40C
39E94A
3467AD
367FA1
3D704F
3CEB67
068986
048893
3BB19E
3F0D30
330BAE
007F88
3FE9FA
06B29E
070E5E
3CE193
38817F
3AB756
3AC98E
025E89
3F54B0
3800C9
020285
001FB8
3C3F5F
062A80
048DC1
3DDA37
38D51F
3996A6
03DC26
069003
3D9231
3F7318
3CDE4C
01AE1C
3E4862
0A771C
065D4A
3EAE07
3EC94B
3C5122
3C5814
3F6F3B
01528F
06FA50
016D7E
04DD93
04067C
050603
099E94
08AA75
0160FA
01AEA3
3857E2
3CA6A8
3D3847
00A665
08E097
3E7631
100453
3DB478
02FB4C
3E2FAD
394C76
3C296B
03F2E4
02AB47
05E1D2
0341E1
3E4ACF
39FA87
0930AD
09041C
035781
003FE5
0BD816
06D490
3861D8
3F34E7
39B5D8
0538DE
0164A5
3EB52C
04445A
3B54E2
0057D1
023E29
01B20B
083CF2
086940
07EA5F
3F7824
02A79B
00D6B2
3405B3
03CA31
011BA3
3BE293
0322D0
3CBA1F
3EC28B
37585B
04AF4F
3957CD
3B38E6
001626
024217
07E468
3BA6DE
3E555C
3EEC6B
03AD7D
0686C6
030D0E
3D592D
0545F9
0AA28F
059146
38A2FC
009B0E
3F6640
3A95D9
3C330D
06949A
3C1F53
03F887
3DF655
088C50
07F2F5
07458C
3E178F
0168E8
032B55
3CAAFB
32CA68
39D00F
38E757
009906
019F7F
017796
3C5F9D
0274F2
3B7CBB
3B5A20
03DD00
05C8EA
03C17A
3CA82A
3AAD2D
3D274E
060A41
3BAB32
009624
060019
3C945F
033764
3F0867
01652B
3D783D
37A69B
02949A
3ADDBD
364C0D
039F34
009880
3947E0
004439
012146
01F394
3FA040
00B3D4
08270F
3C4F2A
026CA0
3CACD1
3CF93B
01E5C0
3F83DF
032170
3AB0FA
38AB92
3E79BB
001D6C
091127
3F1088
38E93E
027D02
3B0435
011A86
3CF93B
3FA700
3AF5CA
00C8DE
0441CC
3B4517
3B456B
37C59B
3FB341
0678E1
3F1162
05F03D
3E2318
07F91E
3822AB
39A5B9
3AE19B
3C4BC2
38E54F
3B68AD
3EF976
072852
373B21
01681E
3D3E3E
08A16A
3B7C88
033354
3D8EC9
3ADE87
012977
02AAE2
3C752D
3BF077
06923E
06D0A2
02963D
05BC66
3E9CFD
3CC08B
3E8FC0
39C7BC
3FBE22
050C1B
3FC30D
3C398A
33DFB0
3F57B4
0052C5
39F527
3818D6
3BC88E
3E1294
03BA23
380BED
3C0FDC
3A7E84
00BEC6
03BEEC
3BEDD8
39C9F7
33F195
39043E
380192
3C1D9F
356E58
389363
39E97D
39DE69
3F631B
3C82E0
3D2C59
3D844D
35018E
3D802C
3131DB
363443
3BE63E
3EABBC
3CB88C
38D2A1
3D9B5E
3DA4AC
39E0E7
3567EC
003BD5
3B2EDF
3A2B5A
3D5842
36F4F0
3B4107
01EC91
3A56FF
332F87
362AA1
39E796
3C8C1D
35BD72
32A619
01D68C
399F4D
3A2EF4
3C23D9
3BACB4
069AB2
046CEB
3DADB8
3842C7
3C95D0
38AA75
353B18
33A5C1
35A294
312FF4
3576DD
3C17DA
3FC361
0685CA
00B3D4
3B0414
3FC4D2
383D35
3C2938
3B7058
039A49
3887CA
38D844
33D391
3D63A9
3B1023
02C743
04FD08
0660E5
3BB224
388E58
036BB1
3EABCD
3FB98C
379ACF
00245F
3D99FE
385DE9
3B52FC
02AC42
017492
07E996
07B762
01F527
02CE67
3D7386
02FD75
0118D2
3DCF67
389667
3C5F17
3A9E6E
370813
3E4C83
0A7158
069E4D
047F66
3D4A1A
3DBEE3
394CDB
014D50
026FA3
0152D2
04EB67
3C1908
394D0D
3FB86F
39F2FD
3A8C04
3F340D
3EBD5D
36D3E9
3D3F07
373040
042396
3DFDCD
3EF7A0
3F93DD
37BF83
376A40
3C729F
399E51
05B23D
019FC2
3AFDA8
3AF294
392535
3B53B4
361D10
396B65
058D04
01E9AF
01CB68
3885A0
372074
3E4F97
04813C
3A3150
347757
3B1172
35A415
387C52
323E7D
33F77A
3C342A
383675
3E2EF4
376CBD
33660E
39D3AA
362BE0
3C6402
3CF712
368283
396DB0
3DB845
2EE1CD
334F61
35B25F
3A9D0E
00724B
01F234
3D1A00
3AA971
373FD9
3A7B0B
3DF751
01D883
05D206
3F35C1
03AC3E
0A78C0
03442C
362AF5
381FEA
394E7E
375E63
38AB4F
345447
00BFC2
009060
06B9E4
05CCB7
0B2E27
09AA0C
3F1F68
05ED5A
00CC03
3B4602
017518
005510
3A0685
391266
0839AB
0D0AAA
021E81
054AC2
01C4A8
3AAD92
3860ED
3CCEE5
06847B
3C508B
028AC5
38B817
3ADD59
3A4C94
0023E9
0A3D2D
3E8038
3C0D2C
0B8C75
04C836
0903A7
3CF616
050D06
0999BB
009741
3EC1B1
3DE69A
3B8A6D
009F0E
07B8A1
049B30
04039A
06E675
3F89C5
038AB0
37E62D
3E56CD
04691E
3EACB8
3D657F
0E7A0F
0CFA15
0C4F7E
07D684
3E89FC
3F1F57
0871E6
11DBDB
09601F
0001F7
3D84C2
059524
3CAF4F
387A7C
033C2D
0EBB98
09F56A
0B6E1D
3FD0AE
07B331
127C9D
0B5A20
03DF7E
06E275
021E81
3DFDDE
07DA61
3EDD59
03E3C1
067610
3C2FF8
07ADAF
00539F
0A5B31
07E458
034C5D
00A979
0553CD
3BC6A7
078077
0AD19D
00D184
07B3E9
06B074
0676EA
016B22
10ECC8
09EF95
06F4AD
3CA676
029941
0DD16F
035968
3D5FDC
01A294
087AAE
0344E5
03F898
38EDE5
0281BA
060C9D
3F71DA
0AAF25
0BC243
029E2B
0208E1
3926B7
080325
006088
0637AC
08F6F0
3FE63E
3FB30F
069468
100570
11A1EC
058505
0D9F5D
07F5C6
005D63
3989AC
01F5CF
3F2E9C
066F60
0764F1
05F362
03A67A
0C03CD
099DA9
099EF9
11286B
0B736C
0750F4
3E6CD2
3F4E98
3F0803
070CCB
05276F
0E3A08
0BB84D
3E033E
03990A
09DC61
05A954
04AE31
0A26B2
0A0E62
3C9D38
3FBC1A
002ADC
3EFE60
06AF03
0C1F10
022D1F
05D96E
098601
0087CA
0B0C13
1035DE
07061C
3D5E07
03C2A8
05095A
380A8D
077AB3
009752
3CFACE
00DC33
00FD08
07E069
0B8B47
07CCE1
031412
019114
0842E9
01AD85
3DDE58
0511F0
099BE4
01EEED
3B7CFE
3BF993
3AE17A
3ECEDD
3853B0
09DF54
3BF1B6
396861
3A0C38
3ADF71
3F95F6
029C02
0412BE
096D8F
00C6A3
385510
3F68CE
3E9F7B
054306
0212C6
0C8C50
057891
016BCA
055C85
0046C7
39F1F1
0930F0
0AB5F5
3D9557
3BB18D
07C3C5
3ECBD9
033519
076A83
3EA982
09A272
0B01EA
3FBEFD
095486
024DF4
350907
3BB17C
390ADC
029C34
3E0D13
006B8B
039D7F
3F8865
3FA205
07E7C0
059168
01CB9A
0940CC
077564
37179B
025ADD
3D8FE6
396484
3999AA
3ECF95
01694C
3AAEF2
015A6C
044D55
04FE69
04917D
01F559
3F7110
3C6C33
02E08F
34067C
3FE6F7
3B9389
35A33B
3BF1B6
3B0BAE
0364CF
3FA6CE
0E2F7B
03D449
3ADBB5
3EFEA3
39801B
3F7E3D
01B057
01AF6C
3A1DEA
067839
0A1869
0199BB
3DD15F
034916
0700DE
0346ED
05A6E7
3EFDB8
3A5A57
00245F
3FA2DF
3D70A3
030941
3D3415
394D1E
0319B4
037329
3F3311
3E3715
3E6256
3B5147
0065F9
0266CB
3AC786
37F748
3F0BAE
3E25A6
3FC18B
38B1EE
364E9C
041ACD
3AA50D
007229
36E7B3
3830E3
398DEF
00F6BE
03825E
3EDE97
3AF651
00D3AE
061F9F
0755CD
02A28F
3E5365
3BAC3E
3BD4BF
3C5E6F
3AEBC4
3AED89
047E49
3B0A2C
048094
3A2A90
37C968
38FC0D
3BE197
3C9752
3CC521
34D35A
0780DC
02AE4B
39B435
04B44A
049353
02222D
0822FF
3C26BB
3D7F84
000FBA
3EA5B5
3D5FDC
030EE4
3D9D45
3A5892
3CAAA7
3DC63A
03C2A8
38AAC9
384220
03358F
031A3B
070AA2
02FAA4
006DB5
3E908A
041CA3
3AB313
07A17F
04470A
39D52C
04BDFD
01FD9B
3F6B3B
08817F
3DD57F
0043A2
031422
3CBA94
031FAB
3234EB
0494F6
369110
3A0620
31D8D7
3925BB
37DBE3
37B55A
3F19B4
00BF8F
3A0A95
08407C
3E0589
3BE974
3725A2
03B9CF
38A9AC
3BB86F
399FB1
3520E1
3BD007
3A174C
040831
3EF47B
03D3D4
06596C
3B8BEF
38AA00
07456B
06CD07
01BE3C
00E91C
3F7DC7
379B13
3C800E
3A88CE
3A4A16
04B114
06DD05
0043E5
3AB2F2
3550FC
06EA74
08BBE4
395FED
3BFF47
034341
01B78C
3B5643
0751DE
360136
3E393E
3F7121
0032EB
026091
021911
3F44D4
3E5E02
032F98
34F2AE
39C6F3
3A5492
3E939E
0A17F4
01379F
057470
101722
010E99
3D3BAF
0551A4
3C488C
3DE95B
096861
03AEDD
3F91C4
01601F
02C5E2
055161
3D6894
0156C0
0189EF
3C665E
3EA066
3E73A3
3B7DE9
3EB81F
081C71
3F397D
061D10
02E1DE
365D4A
3BC2A8
3690BC
01A166
38196D
3D9791
3D4A7F
03954E
071F68
09F5F0
3C43C3
3BA658
32F390
068CAC
3FB235
06C42E
3F8F79
005FE1
3F1209
3C578E
3D8EA7
3E6FE7
009396
3E3B25
01DFC9
3E659D
3F4256
05171E
01CBEE
00C597
39C0B9
002A99
3AFB6D
0011A1
04CEF6
0169F4
011809
3435EF
3CABF7
3EAF46
04C6D6
3B1726
356BB9
018B2E
3A279D
3AF240
06CB85
063C21
001EDE
087325
00B838
3BE132
07E36D
0524E1
3A3044
05610A
3DCB68
3AE7E6
3A493C
391409
3D2DFD
0BB129
086434
05886D
0112FD
02B7AA
3B0C34
343F1C
3D2AE8
3EFDB8
3AC94B
3E9CCB
3918A0
050225
3C2752
07166E
019C5A
0320FB
3EDAB9
072830
088CB4
3A32C1
008FD9
02CA57
011B60
004230
0174B4
39362E
37CD46
03359F
02122F
06491A
0A429E
3F51EF
3E7818
38B380
3EB606
009752
0538AC
006AA0
02D688
028E92
3D8687
3C56C5
0204AF
3527F5
003819
3B48A1
013F5B
02FA82
3F2EF0
03F3E0
3F546D
38D280
38C0AD
0167FD
011244
37778D
069CA9
078FAB
3F3ECC
0244B6
04F56E
03570C
099392
3D7742
00B8CF
3F7BF1
39B3AE
3E6BB5
00FCC5
008D5C
0048CF
01BD83
02CF0F
38F29D
3D899B
0725A2
06D3B6
01A1FD
3D9641
3D4B6A
3D3437
0040F2
074602
3D78A2
0B97FE
3B8A4C
041FEA
3F7164
3E4D09
057364
04B7E4
3ADACA
3B5C8D
01BA4D
383254
068177
072E9C
3595DD
093C68
3F8800
05E343
3C3222
3EA726
3F94A6
07AA9B
3A67C6
3AFC69
36F694
3A7392
02F49C
3CA287
38F40E
3B3493
3FD102
3EC258
3F9CF9
37AB53
3E5C70
3D5208
3629A5
355E9E
3E087C
3693AF
050F0E
01F4B1
017332
347CC7
025D8D
001FA7
03DA2F
0AA77A
3DAB9F
00D823
051AA8
375CE1
389EA9
3AD16B
3FA0B5
3BA700
0594E1
3B4289
36EFC3
395304
3ABC40
01D701
3BDC48
03368A
3F455A
02480E
378CC9
020620
034AFD
020D02
3CF57F
024D8F
371316
3F1B47
3730F8
3FFA4C
3BF844
3BEEB2
3D1F3E
3AB27C
04EA6C
369142
071498
0262ED
06BA16
01337E
3EEDCC
3A7BD4
3EFAE7
026A87
3B61BB
3F04DD
02FF8E
3BF9F8
020999
3DA35D
021D32
354F48
3D5E5A
3EC7EA
3EE5DE
38D9D7
3CECD8
069CDC
001E47
3AE019
3F868F
0574E6
3EDE87
35DA16
058C4B
3C5CBB
39BEE3
015033
3EBF44
3D62F1
00D184
3D7A89
054C33
35BA3C
04B06C
3EAED1
3F32DF
33B6CB
024399
067978
3C6716
0A1027
0AEB2D
3B1AC1
053868
3E6E00
3F99D4
3870EB
3E85A9
3E0989
347410
3F9D3C
3DD3DC
390ADC
03CD9A
037803
3C4449
3D4131
0CEB56
3A32F4
36F61E
36A865
3F607C
0AD0A2
06CF41

