706067
124063
0FD8AD
1555C5
7F86B1
019CE0
082E77
15FB3F
16771C
04F840
040CF9
071A6D
071077
03E111
7A37BD
03C2CA
0F9F01
1BF0BA
182DBE
1101E2
0D8394
131811
2240E9
0B3471
09F538
02C710
058969
02B7ED
0394A6
00C32A
05D851
0BE21D
0C33D6
07ABC9
7C33A4
0BB0F6
216851
11628C
05DA7B
0B5DAA
0B0468
077D0F
00A84B
0F9A5A
15E9D0
0DE625
190B0F
74BEE8
08ABA3
7C8249
05D0E9
0B21B3
104A72
7CE8A7
0FE4BC
13294D
06AB25
02A5F8
0FA52A
0774CD
08E560
73C222
6BCD9A
799578
0BA12B
06A8DA
7EB5E5
0268B1
7DC2C1
0A5FA6
7A1815
008733
0AEA52
0CB124
042E12
0ED2ED
7B0C56
72F6E8
115C85
0D6F97
047E49
646CA8
7E3F57
01A31A
77B352
73BE55
01F2DC
04259E
769457
162B5A
0A38FB
6B9D6F
06DD8B
7C33D6
70C975
79EB31
7C157E
005B29
7B5265
009129
11E710
08B2C8
78868B
12B074
7AE44B
6F3482
049507
012780
7657C9
051C8E
0A1522
0886AD
7AF438
7BB8D3
0723FE
0417B9
706FBD
03DF3B
77D987
7FE143
0B97BB
6F2C40
71AF7D
74C7E2
0AC6EF
7C80A5
69550C
0076C0
74C2D6
737521
7AC753
79EEBB
738023
77CD89
7E46AE
6E0A95
74050B
7131DB
04FCA4
7CC7C0
74AA43
05858B
7BE9B7
70307F
7A9FBE
00B9BA
660296
749EBA
0A42D0
033B64
79FEC9
02DC7E
7D7D9D
0589CE
7CA548
07C979
02E685
78183F
681D9F
5D0B95
79104D
6971F3
721EF7
7CB684
0DA1A9
09462C
033387
04F12C
7EF987
7F739F
00C63F
04CD42
73824D
063FFE
09C69F
0F6F6D
762B9D
6D2B5E
7ED9CF
791D68
7A7B0B
136DFC
7373AF
7AC775
03D8CF
75E9E1
6F88EB
046759
13F434
047E38
7B4235
6BD6E8
040F23
661EA3
051E85
021A82
78790B
7BF401
7C7432
7DB530
053825
7F36DE
73D2D8
0A36D2
0A4990
1203E6
095BBB
1A8B9F
0C17EB
7EEB3D
716302
7470EB
76BE48
016345
78C825
0006F2
7E1B19
0FD805
176390
1854CD
1FC819
113B29
011C08
0C6E2A
0F0DC7
7E441F
761294
0FAA79
7CA915
023715
065ECC
102331
017364
210F0E
1CB0D0
175F1B
0512FD
0A32D2
1D7CF5
049EFD
053F07
7D028A
7C5597
75EE45
0836EB
777308
75EE34
0FFDB4
7FF0AA
78F872
075DCC
113804
07CCC0
094EC2
0B6230
785AE5
0C8B86
7EF1CB
6CC729
00BE0D
0FC621
7C04FB
7969A0
7F31C2
012007
0A6A11
06CF41
0047A1
057B95
6D8EEA
7B7DE9
7CC319
091B3F
04FF10
78258D
7AD959
1637CD
07B4F6
00E9A2
725D28
0340B3
79CA4B
7A05EE
7A707E
041C1D
7034C1
64AF2D
6F8173
63F013
75818C
7A63C7
7507A6
7578A2
6ECEBB
0CAB60
73FB04
6CE0C9
69AE1C
7CC1EB
7F3BB8
71EE45
7DDBCA
5E2941
738769
749BC7
779431
7609DC
04B189
02A11E
682D59
74CAA3
0157DE
018201
1360F1
7834A0
733700
785447
7DACDE
7FBFE7
01CA3A
04F3A9
7DEFE9
046024
73D145
6C5479
6CCDFA
6A8AB4
785836
68D6F5
7211FD
7AD117
6F27AA
08FEBD
1A53B8
149107
02C00D
0376B3
798212
73CDDD
6E16B5
6DD66A
76543F
0AEE84
02B756
0EFFC1
19BA90
2DA858
176ED6
0774BC
07826E
11B5E9
0E93AF
7999ED
6B4F72
7FB4A2
718761
784838
11C182
7B481B
08205F
0506FE
017460
02DA33
0363A1
08E571
73BD9C
79CF03
00DC01
1666BA
166D8B
7736EF
03C233
03F993
05898B
03EBE1
759BF5
01DB65
7A618C
09A5CA
0718A8
038F9B
7DE646
74E5A3
0433A4
156C1E
16BD7F
17A5E3
7CCAC4
7FA92A
21234E
09F1AE
07B9AE
7140BB
7EFF2A
0A24BB
109481
121006
084380
03661F
7E697A
0B69CA
05B8FD
06E9BB
12C57E
0796AF
7C6067
074B51
7C622C
7C3F70
03DCDF
0DBBCF
042268
7E60F5
7BA7DA
071C10
078F25
11DD1A
060C6B
02D517
004695
02DA12
043B1D
010108
79A9DA
022584
7E456F
745186
766A33
08C804
03C70C
025E35
7E0685
030E2C
03B04E
0762C7
031832
0A50D6
0889D2
0E99A6
7601EE
7CEBDD
74AC6C
77C782
6D7918
753921
7C7E17
041D08
0564C7
00F7A9
006466
02AFBC
02BAF1
00DD2F
0708CC
789E98
713EE5
05BF48
06C871
71C011
7A2E3C
7B49E0
00D195
03C9DE
748E04
72FB09
0D02AB
0606D9
030542
7F9EE0
762749
7F3D4A
7B8E7D
02D30F
762142
08FA26
7A366D
7F4256
79E343
789EA9
056440
04BA94
0656DE
7B9463
6DBF16
76553A
7C929A
7785F8
6D59B3
71A47A
7F90FB
048E36
73C9CD
061416
7B2580
7AB3AA
07C632
71DA8B
78A350
02FAF8
718490
043697
70E63A
7D52B0
7BEB28
00FCB4
78DD1E
7A033E
00894C
7F1A5C
031AD2
6E9AE4
76A8EB
00E810
7B3269
7A55B0
72718A
770F38
05A47A
7E55E2
7EA832
7EA50D
7B3D4A
7EACB8
0090A3
7C50DF
762574
010DCF
0012CF
755C0F
7B50C1
038A7E
7D6F97
7DB823
02A886
066E22
79E6BC
07BDF0
7657D9
70ED5F
6F4B2F
7D492F
7AA023
7B0941
03F52F
00F755
7EAF25
0539A7
7B3BEA
0D0F73
06BD5D
74F93B
7B583A
7B0C34
07FA8F
701ADE
7CC35C
046C54
7B4677
7855C9
033B32
7E77E5
7EC322
02A26E
7581AD
0894D5
0AEA74
02C3FC
0A3854
7A7FD3
716B65
7F23CC
746BCE
7BB05F
0047F5
03FF8A
154BF0
06BB88
0138BC
7C8626
7CFFB8
077069
73CAFB
03CF3D
00B167
742880
748C82
07CB4F
02007D
0A6213
099817
074D48
0F1748
0451A8
783E20
028976
10E325
14F840
14623D
134C4C
0CCCFF
0660E5
037079
1A3C53
0DA911
0890D5
07B41B
07E09B
0A8E0C
030931
045A70
08D972
04DFEF
03C2A8
0B3A9B
077C45
099F4D
17B139
10AE53
0FCE20
1022CC
031444
08199F
7E67A5
75EFF9
7D5D80
05F3C7
6EACD9
0201BC
0615A8
04958D
123960
0C2C2B
1030A0
09F5BE
0D614D
11B984
0AC68A
063CFB
061262
051223
013F6C
0B4A98
083B70
0523E5
79B79D
7842C7
01FC6D
00D6F5
07CFF6
08D4FD
09A533
7FF2A1
090FC7
05B489
0786F4
0CF3BA
7B50C1
7B2B99
095E17
78EB24
7210F0
70AEB8
7D4185
081A58
040DA1
7ED905
0AEEFA
7C94F6
77DDB9
023326
036FB0
7D9A41
03343F
7D48BA
765119
7720A7
09510D
00B3C3
061262
10216C
0964F9
7C538E
7A059A
78472C
7EF188
019029
0991EE
780325
7B1876
09D4D8
0DC9B4
02FF2A
7AE09F
0B9873
0CE725
03F2C3
039096
7713CE
02C4B4
096440
0265F0
71A1FD
7AE3B4
021DA7
7C3126
78A1CE
78A298
798505
048062
7E50A4
03E61C
790310
7822CC
0A77B3
0389F8
70B5CB
767CD0
731F57
759FE4
7DFBF8
08EB24
0ACDD0
089E12
782257
045EB3
7E75EE
755182
050BFA
7F29D4
7922FA
6C611F
7AF2D7
7D48DC
7D5F56
00B3E5
013E92
7BE4EF
038B15
7A99A6
745132
792B6F
772F66
02261B
7C81C2
75170D
73A4C6
0151C5
72BB88
7B3C70
73151E
7B5686
7ACEFE
7C348F
7E2046
7BA109
7E6762
092C49
7A9AB2
7B9FFD
026AEC
7D2E2F
734E01
7683D3
7588B1
07739F
7C21C0
03DB5D
7F10EC
7CD1D8
072064
0F923A
0B22C0
09103C
02FFC1
008509
73A29C
660264
7252EF
760232
7E1DEA
7997F6
726D26
6DBD94
02A6D2
1086AD
03EDE9
6F8A4C
6DA4AC
6D4280
76D55A
79B5E9
7E9BCF
6C7A6B
6CB7C3
6E62AA
769A91
76FEF7
7296B3
0023C8
042ABA
7C4124
67BDAD
66D56B
5F9756
674117
6223D0
6A0620
677835
5CEA4A
6BCBB3
7839FF
710A02
71EF73
79FD58
786983
60EF45
60182E
59FFD6
6938BC
62071C
65DC1E
660839
6D5B89
6D475A
723348
6F3A25
045D85
7F6406
799589
6D8372
6B77E1
6E5614
685CEE
753EF6
6D2FB1
7D3921
773B75
771609
688F32
5FF855
0F5D13
17089A
7F7100
7236B0
7973B8
75233D
716ADF
7EB4C7
7373F3
790268
7A5E02
7A9318
75BB38
6F6262
7E2728
0113B5
004912
7CCE4E
7E10F0
789FA5
71D7CB
74C597
016238
6F9F98
748387
01183B
7A1059
07FC54
03178B
08548A
0B314C
01BC66
785708
022196
7A378A
0B6017
169BAE
0358E2
0EB1D4
1CF0C7
0BDB1A
7DFCC1
7D1C9F
01C044
00854C
045836
0BD0E1
7FBB2F
06FE1D
0FC0C1
0C6C65
071A5C
013E70
00D39D
7DE97D
77D1CC
7E37CD
063992
0A9E90
7DA0DF
0600D1
126809
0D2817
099902
0A57A7
778DA3
7B2BA9
0969B1
013C68
7C96BB
7AEC28
14270F
1BB4B2
08254A
0A1E92
1DB573
1217B0
09FB50
123C96
76559F
72F294
73AD18
7E33EF
6FE4FF
7178C4
7C23C8
00A7B4
7AD04E
72B9E4
723B46
05C64B
06555C
095619
00DE19
71C3BD
7967A9
04A05D
790742
7682F9
7ACFA6
7D9E62
74D120
7B7FF1
79B499
736CDF
7CD413
015E8D
0A9318
074202
00A537
084977
794F15
76C721
043350
19DB12
0A5929
7FD102
7D9535
7F2DA1
7F59EE
78218D
057B95
0AEFF5
08D152
15F0A1
1035EF
748861
078769
097FF9
7A34DA
013BE2
08FFEB
7EB95E
15BF7A
14CAD5
126F2E
1EEEA6
0D273D
0A8F8E
0AC41D
7B2181
02A811
14CFAE
06C03F
024CE8
0C28B2
068A2E
7FD545
0D0D28
0F92AF
768AC5
014866
02D7E8
011E85
7C3D03
01B402
089235
0BF4CB
035CE1
0202A7
01742D
0B9CE8
0FFBDF
0B661F
03868F
7FDFE3
7ED2ED
011138
078B7A
097B74
0354C1
0A18DE
09DFEB
7AAAB0
72D3F9
7C5282
094467
093FE1
7B5A53
000453
087182
7AF2C7
0CDEE3
0854DE
039D0A
063EAF
0C2ABA
7AE653
7FD7B2
7927D4
72F3F5
030974
730479
74F29D
7FD7F5
0722C0
790AAA
032734
02682B
7EF3B2
06D0A2
07C42A
700F12
782763
05B046
77455A
725E02
7BC48F
7A3AD1
7BC968
09BA4D
050E34
7EF640
7AB063
763209
08ED2C
7608F2
76788D
0498A2
751BA3
7674C0
75F959
06AAC1
7654E6
070121
7CF073
7D512E
7E5F84
097470
7A6A98
7796AF
704199
6E500D
73FB48
7A7008
7566E0
78E5A3
064C0D
01C0A8
051926
7FB2FE
7AFD86
024BCA
7E9DC7
7A888B
74080F
73DF8F
7494E5
73B949
7BAA9B
0433F8
0148A9
76D9AD
01EEED
03F045
06A811
098809
0194C0
73D391
7F1348
7B7D30
705A3E
7837F7
75C5B4
7BF8CA
7B59FF
7778DD
77FCA8
7AA0A9
01CEF2
04C0BD
7712E4
78D466
7309E9
095443
76AFBC
78852B
7852D6
7F777D
7FDF09
7AD213
016D09
7D28AE
7C3A86
021EF7
790D6B
01D2F1
7FBF83
7F2745
100F01
02490A
0DA34C
056766
05AF8D
0A5F30
014888
11796B
79EDD0
04E810
7345CF
75A3E3
08C6B4
7F8854
00319C
7B1A9F
04167A
7D233D
01C1A4
79A597
75464D
045DE9
0DEB52
065D18
16FA1E
0785D7
0B356D
0D5970
7E1FF2
7DC497
6EC669
7521EE
038726
036E93
7F0878
7E616B
778F04
7C65F9
08739B
18CF8D
16FE1D
147432
046FBD
7EF1FD
079C94
763C74
024B87
78051C
7A25B7
797E56
775DAA
71AA71
6A8459
0309D8
06E3E6
07762D
760902
7FBA45
059C06
0157AB
045E2C
05C6B0
7B0EA1
760642
775CBF
6C254A
7917C5
78539F
7F7C67
0A74E2
0153BD
099C9D
062E6E
0B7F6B
0BF65D
71D430
740874
7E3561
7A877E
7C7EAE
71EBA6
7513E8
71C78A
7AE3A3
04C2A4
00C7B0
06640A
0858FF
0AE30C
71E050
7D7247
7F2E9C
75322F
043EA7
754F59
729520
042385
0266BA
6A86B5
0FD07C
160770
01D041
778455
00B3A2
04D089
7F3471
02FF19
022A90
7364AD
7AFA3F
7F7952
7DD484
11F633
16FC8B
00F084
7E3150
714F26
103515
0719B4
7AC14C
7F6C9C
759A1F
78855D
10BB3C
03ABC9
782763
09233D
7CCE5F
7B6177
7B3AFF
74BC6A
7FA97E
7FD673
7E8C15
076102
787097
7EBACF
7225E9
7382D3
03C536
0C2773
00430B
0624CC
0AB020
084F09
006716
740EBE
00DCEB
7DAC68
7AFD32
7111DF
6DCBAB
6BA6AC
06E4D1
0AEC4A
08A7E7
02EBE5
05919A
7F1290
700410
65F633
7479E5
710214
6D1548
06517E
01FC4C
78FA26
0B84FD
011F81
063B9A
02EFF5
0DFEB8
7D059E
700B56
69DAAD
753FE1
78A3D7
768EA3
0036B8
04B285
7E33AC
0541E9
7C0032
058A32
06E275
0B6998
05DD5D
7AAFEE
76F72B
732A6B
683526
78F062
7C677B
7CAD36
7AA747
055B78
7EBB12
7AE7E6
7CC729
78A643
0532B5
071CA7
74AA10
6A2877
6C2CC2
6F91A3
6CEF13
736E93
78F6CE
13E1FC
7DEDD0
02EEE9
09BC66
7A6D04
04ECD8
7E0CBF
761C36
07D88C
79AD85
734D37
734B94
71C90C
7A120E
00388E
6C65E8
08C09C
761837
7B83AD
0847E4
028273
0B851E
0A6CF4
79102B
6DA38F
6E10F0
71EDBF
7A5B96
02D612
761719
063465
7E0978
7FBCF4
04A88E
7D2524
019652
715F56
776124
7CF765
08F334
0AA51E
067F6F
02D106
75F7D7
74DE6D
0AB8B6
7D0331
0521AB
7D5F88
05AE2D
79E796
02A53F
7F3051
0C488C
7F9980
73E7AF
72D86E
7BE532
6A2DE8
006423
7DDD5D
00A6CA
07CAB8
7A496E
009353
7DCBEE
78FA05
75C400
7C21E1
786727
779FA9
7E69F0
782C3C
03DEF8
7A645E
7786B1
7E56CD
788787
74D62B
0E30EC
751526
04986F
798F1D
75BD51
64B0D0
0737DA
6DC92D
78D3BF
7FE308
7EB8C7
06E4B0
77F045
6DFF3F
7B470E
091AA8
747C52
7A5775
032207
72BF76
0559C4
0281DC
7CFF32
78ABB4
0ACA03
0153CD
047475
043C3A
6EBE6A
005D85
02BEAD
7E6916
019B4D
7A830A
7AB0D9
01451F
76DA33
77AC92
020FB2
7DBB59
0385C6
71B20B
037403
0057D1
085EF6
7FAEBC
745197
7D1C2A
7A544F
10C7F3
68342A
7C1893
708637
0F8D92
7D5B89
010DE0
0423B7
05B068
10F7A9
7A89B9
72224E
768F7D
01E0F7
0368DF
00F590
7C61D8
7FC3D6
0823FA
054BAD
09A36E
7F1C10
733C1C
0F1E4B
7EE7E6
01CFDD
789A45
7C6759
7C3621
7F7DD8
00FD08
6A8BD2
038FDE
036AE7
7F7186
026B3F
01551D
7E6E65
7F2A9D
1974D5
736B09
7AAFEE
7C07BB
77F487
01E614
6DCFBB
79A587
7C46E8
7FB45F
0B3B10
023CB8
05105E
70E8C8
0FD9A9
00D67F
6E3B68
009891
7D1B0C
022F48
766916
074A87
07B741
7A2467
783CAF
7CC111
7175AF
76C2CE
013E81
01D29D
78723A
7BB97B
7C81E4
7BE803
76E02A
092125
07A743
7CE842
7C5846
7E862F
059FA1
77C222
7F38B4
6FD449
04330D
79C37A
79932D
78C1A8
7D4845
01A576
0BDD22
04F0F9
03EF8C
79F0C3
09C758
074373
03061C
780FBA
7C40D0
007421
056BFC
74CCFF
050236

