7C180D
6D41A6
6C80D8
02FF8E
03DC8B
04B5AA
022CFD
0F57F7
6DBE09
7282D7
0AA023
7CF712
6725B3
770BD0
201D7D
1627E0
79EDAE
076CBD
140379
04A969
178AF3
16D490
0B98FA
746EC1
014573
7D9381
755842
051A32
0B84EC
1E594A
73BFB5
6E2AB2
1736BD
139389
08BC59
01E310
778737
65C1B5
743287
7C370C
76E792
7DB951
668FE2
1BEC46
71EAFE
79DB76
753847
726BD6
0C2B51
6F26AE
6FA5F4
6771B8
7496BB
6C3D35
648238
7FF950
70C187
050B30
69BA2B
0138BC
739F87
698127
025DBF
7F1540
78F3FD
6B4EEB
0A6A44
045FAE
61870D
0B864C
6DF905
7C9AAA
015714
70E789
774A66
6B0E5E
1813A9
7E4A05
5CCDB7
5C7C0F
7CB2D9
0559F6
714CEC
0629C7
237942
7E4EBD
05CE39
79A20D
650ADC
6A2C23
011A43
235664
6AF3A1
63E5C9
024CC6
7C6DB5
739D2B
2D67A9
107EAE
0076D1
0F4395
77F4FD
730A91
78E592
7A5460
77BF93
725519
77122B
71906C
75ECC3
03E20C
24A57A
19B5D8
7DA0BE
782F94
217481
057A02
7A27F1
7C9118
04B6A6
69871E
04F98F
6ACD5B
7DEA24
0FB2BB
11B584
1AD245
05F3E8
769F16
7EBD90
777A80
6E78D0
071737
786056
76E70C
00AB0C
01BD72
7EDAEC
0CDDC6
02C918
0550B9
7C0570
779D3C
7DC400
04116E
721AF7
6FD4AE
736A72
6F2734
677F7B
671D4F
7D7DD0
7C867A
0177FA
05F0F5
11A059
75BAA1
0E7792
7E27AE
07A6DE
7E79AA
022478
5C764A
739A8C
0680CF
106CA8
7ED03D
000357
7B5F3D
092178
7E61F1
0CAB4F
08667F
003760
76697A
1336AC
719589
04AFB3
141A15
0CFE8A
73CC9E
72C471
0AA9C5
7724B7
719114
0AA161
796605
632C30
74A6B9
76D7A5
7B776C
039B13
0CB5CB
6F508F
7DAEB3
6B0E6F
09F57B
623E8D
74EE17
759503
622BBE
740C30
727CD0
7B87BD
774B72
0BE857
7B8CFB
706AB1
796EEF
7671FF
7DC8EA
7248A5
6FE4BC
75F740
669BBF
71656E
7EBF87
7AEEE9
133ECC
7D95FE
064883
6B5350
7E2CEC
0340D4
7C7D1B
7B83CF
795BEE
7D919A
698490
5D9CAE
5DFE43
053016
6FE75B
64900C
76601B
709BA5
7788CA
72D30F
6C1669
69F43C
70A4C1
6ABF44
627418
6457D1
77CFC3
0BACD5
70012D
14FF75
1F4E87
26D506
000A17
751C08
004EA4
7C6540
71C0EB
797E67
7A0FC2
7912EC
01A943
592370
63CA42
7A35A4
07020C
7F7318
6AF46A
73301E
008B65
09CE28
79595F
74F67B
02A5B5
02DDCE
0B5664
6AF390
724894
75E02E
72D959
72E264
0AB5C3
7682B6
180703
04303C
7E6256
726AEC
00C671
0237CD
7D4445
71D334
0150FC
695864
5C09A2
63810E
0206E9
6C3350
795B9A
6A759A
01409A
7F3C4F
7A48B6
6A6B0D
605521
59DC1E
77EBF2
7ACC92
039789
025CD4
0241B3
13022D
10F1D3
7C3D46
6E3BFF
10AF92
71D367
74388E
5843A2
771DA3
770121
7DEC1C
73B0C4
693A81
02DDDF
0BC903
310A02
0A2BE0
06A2D2
01C1D6
7A2089
175A85
75B6F5
7E70C1
061459
7B7BBF
0CE725
7D95AA
6C6A5D
02E5BC
0A352E
76C226
014D94
0F4DBD
15EF30
0AFDEB
5D7C6F
747160
005857
07CFE5
176683
053C03
009279
110CA1
08F51A
05270B
080F23
14A3C6
21219A
177FCF
0735B0
7D099E
78B49E
1555E6
07446F
7C14A4
01C736
237425
7C5E3D
7335C1
02EC28
056C82
7A0DDC
016E8A
09FC8F
14168B
212220
7BD7E4
7A290E
7FA259
160179
0EE392
13B59D
04DAA0
01D6BE
0788CA
0D0870
0D8201
7B2A06
10EFED
0EBC2F
74D24E
1CBBE4
214BCF
136CBD
0144DC
0BA355
001A26
701DF3
6FB129
78FBFC
6F9DD3
0594D0
03F077
0034A0
71EF0F
7DEFA6
704966
6B7A1C
746C00
043A86
0A0CF1
7D7F51
708C0C
0EAC21
7DE279
7E5A57
72DACA
73C254
7BBF1E
762142
7F44A1
6FA54C
70662B
03E39F
0FB634
02AFAB
7871B4
7D8958
03F23C
78F323
70B018
748DB0
6BB363
6CFEEF
7F9852
6E2ED3
78F93B
7832EB
73C6A7
7C4F8F
0A3DE6
7A1CDE
7F606B
069036
75629D
7E6B72
6A1CDE
03A3B9
77440A
76DBD7
6E7B91
7C11B1
7F91E6
7E5710
7F74AB
09FB3F
00ADAB
7BF748
75F926
77383F
7C3276
75F516
096462
76EF6F
729DD7
0BD1ED
07E20C
09003E
78EFCB
0C4F7E
7E7664
13FAA0
0B5D35
7307D0
78F0A5
73DED6
770974
011A65
02089E
051F1C
7E1177
0CFF54
044028
7464BA
7E784A
72AC21
044F6D
7E28AA
772F01
7D19AC
7AF416
728240
13BF40
795725
7B5E20
7B86E3
09701D
70D8A9
7DBA3C
651633
7D715C
0A1294
0888C6
6B504C
7DAD31
7EFB09
076E0D
093F4A
0762B6
7411F4
7610BE
7E0F1B
0F6EE7
7FB139
79E258
7A2318
00AB4F
7A1CBC
6F2734
0178F6
7306E5
056F43
05465E
0D95BB
017A99
00E182
77B384
702F83
6FF690
01AE81
06F0F1
031A7E
7B499D
78302B
74B86B
071B69
04D8BA
04ACE2
0C271F
023843
02AB14
757108
6FB677
07B8A1
045E1C
0B4506
0E39F7
7EDCE3
7E0F5E
0E0C5A
038D82
7A4074
033711
07496A
041A04
7FC32E
09A2C6
736683
7026ED
06F3C2
748366
7F02B4
70D4BA
00B32C
7414B5
7FA908
009353
7D8149
7E8869
6D85DF
03F21B
77EBE1
116E9B
05AE0C
01208E
0713BE
7DA6E7
135610
7A5AEE
7C1A04
1023B7
0F5147
052F7F
0F0A91
750203
0770DE
0C95E1
0B5D03
0477FF
073BFB
06E770
6CE0C9
74BD66
7075C4
6D323F
5F8401
63688B
5D2146
6391E6
6B94A6
5BEA1C
60D1FA
6A4ADF
6E6B3F
6EF32B
62E83A
7F5DDD
01C747
743C7D
72A4CA
6B0260
6602FB
6ECB85
64C7C0
71EC91
7FBF50
0D219A
052231
7722C0
7A4EF0
00A04D
110E99
70548A
671433
7AE70C
74DD72
75EC5F
704EC6
00534B
0D1D68
05F1CF
754A1A
71096B
0BBAA9
050EBA
0E8188
023EF2
7A2AD3
6D550C
680B56
5F2C1F
793682
018537
78DF47
731FEE
790E45
7DC24C
196A37
15116A
118383
7BC48F
0F2745
0F08DD
01E1D2
7753B4
06F251
03CDCC
690763
01AB8E
06DD48
7CA265
21FB71
1829AE
148190
7A4180
7DD00F
7D4D2F
02BB55
0DCB9A
1AA769
0CFF21
7B9CC7
027685
096A6A
080E9D
114552
0CC8DE
0A6E65
7B9884
7BB795
7A8CEF
6B647B
7D12FD
035C6C
78140D
7A0D23
111665
08D089
0CA43B
1A5F41
161B4B
05E679
70AC3A
777154
0079F6
7986CA
7FC17A
11AB5C
75C0FC
645974
7B991B
028512
013C25
0A40B7
0B4538
7E6623
77037D
78011D
00AEEA
13396D
7FEDFA
016CD6
7108B3
682320
740DE4
7B7479
104E2F
026BB5
04FA9C
09F6DB
0D1FB3
7ADDBD
761D43
024F44
107CA6
00B75E
6BEB39
76A865
04714F
0B1800
1F7B28
74FDC1
02D612
0452E7
06C700
7F9F87
7BCD9A
0A48B6
091622
08B2FA
063422
00446B
035A96
08C5A8
0E7C06
74BC9C
7A681A
03E63E
0507D9
0779B7
78BF7F
03B613
06A8FC
02BD4C
034F3F
0268C2
08EBAA
1941E9
0DCB46
7E7610
0C51A8
02C354
0501F3
0A1FF2
04B60F
08725C
05667B
04D855
0EA800
128049
25E2CD
13DF4C
0EE392
09F98B
0C1190
1170E6
10801F
0F7931
0E8049
1110D3
129C34
0C07BB
0A5FC7
1CEEBF
2625B7
23A669
231012
7D271B
0AAB25
13F62B
1EE957
12C7EA
7C6455
789118
7F3871
714B8B
750BB6
104C59
0A553A
0B20A7
0692A3
7EC753
003372
0816F0
7C942D
017342
059E0E
179EBE
25B9A5
0F9389
7C2EDB
7C7097
775265
79522A
08280A
789268
7BA398
05C25D
05CB68
103BF7
080474
03E069
18FBDA
133333
0CC9C9
0F3D5B
197F1F
0BAFB7
0E9680
0688BD
7F211C
0B1C21
04EAF2
0C9D27
13EA4E
7E788D
0ED6EC
0E7BF6
18D280
07A461
0A8B4B
07C45C
7ED341
712567
78713F
7C9070
7F6FF3
0920D1
0CDFCE
084BF4
0DB91F
0882CF
09B4AA
0AAA8E
14A17B
0A64B2
01E9AF
6D803C
020514
05DDF4
7D3B8E
7A495E
1690CD
159AB6
1290EE
1077FF
07574F
134BD7
014994
03A4E7
03E953
1653A8
11FEB8
00AAC9
75B024
7FAABC
0DBEF4
7C8711
02DC5D
023E7D
05D8B6
01FFE6
03C8C0
03A94B
07CDDD
13E931
053964
70D92F
6275CD
738BDE
728AB4
734D05
7D2FD3
7F7878
7632A0
7D33F4
7231B5
02FB8F
05F8B1
0CBD55
7184D3
74DBAD
7D4AB1
770E5E
73E24F
6E440F
6FFD3F
67EAA2
62B420
7E7924
0CCF9E
0384BA
038B04
019FB1
797DD0
10F605
13C2A8
09E00D
7B35B0
6B55FF
66DF50
70C61D
7A7B3D
15D40E
1A93C0
070C67
100863
7DDFA8
774A44
09F117
113A3E
08D466
013E92
0599CB
79AD64
67F9C6
6642F1
039B45
1070FB
04A808
156FC9
7CB85A
7F6AF8
7FF8A8
0C9689
20486A
076DCA
0409E5
7987A4
6F4751
67C88E
0577D9
78F462
0739E2
0BBD48
189B0E
1402F2
07A2BE
239F98
132367
037A91
029F38
05FF2E
7C6E4C
00791C
031023
703BE6
7A06C8
064207
093F7C
03D199
04488C
0EC13B
053CFF
01F633
7422EE
59C465
6E6BF8
79C90C
03F7AD
7C88A4
6DF9F0
093975
798BE7
6CE571
6EDC3B
6F60BF
761975
7FE34B
058DEF
7BC98A
6F4A12
676BB1
76AD3E
749E66
6CA009
75B024
08D76A
008637
7A9542
7D4BCF
719B1B
72F2C7
7C32DB
762446
0826ED
6B2F44
6F7670
789603
71F97A
73240F
7C111A
7E47A9
7B7CED
763561
748798
7F77C0
69C315
6B3647
7DE98D
740E6A
5E48C7
710ACC
752E62
706455
679325
794CFD
765E78
734F50
75A7D2
7320EA
00A2EC
7E64F5
015F13
7CDF8B
777B28
7A66A9
7335E3
717FA5
7274C0
7DCFAA
75002E
784C05
7BE542
000AAE
0F7AC3
7532A4
76E09F
01AF4A
01AD10
77EA4E
6DF00A
66875D
042D38
73E308
7D753A
7F0A1B
0D9A95
0BCD89
03FCFC
0284F0
76D9CF
039FEC
7A0B4E
06220B
7E5E46
71D65A
155150
7A048E
78E53E
7A34DA
045C9A
04C319
6C152B
0B7521
7A8911
702678
7247EC
7B6912
7BF290
7AE75F
7F008A
795CE9
7DDA05
088ADE
76075F
7E9CBA
61DB01
732D2B
7689EB
79CAAF
70EEE0
796F97
019168
086CFC
1774BC
095CB7
72C8D5
0B9B66
08D749
040C84
794185
7079F6
6DDE9C
02921C
7BE38E
759F5D
003C07
7C6499
059DBA
0E350D
0EB94D
0BC4D2
77486F
0156B0
7FF002
043A21
76E2DA
7E684C
003F81
7DA5FC
79361D
79095A
0817A8
0670C1
7EA0BA
120A41
127589
096430
6C26AA
78080F
77722E
004BF4
039A9D
013B3A
04B20F
05D649
04E67D
09B7CF
06CA46
12F30A
16CECC
1355CD
13F10E
14CFD0
6DA9A8
778609
055421
759F5D
770BD0
0CCFBF
0917F8
7BF898
0C111A
02326E
7C0C0F
013D10
03E414
0EE115
0F036C
7293AF
72D2ED
786AB1
7CABD5
7CD3BF
19DD8F
05D9C2
01CE9E
0FD901
7ED506
0439AB
027104
089060
0B163B
0D04D5
022DF9
10D66F
0A8166
07EC35
780BED
6E1016
734528
034AFD
7521BC
6C623D
6BA365
757ADD
7E73F7
758E97
0FB2CC
121F29
0CB1BB
7AC3B9
7BE37D
69028A
05A144
7771FB
7A38B8
7BFB69
028C69
1B0B49
151CD1
157B63
244ED6
1C8051
0C408D
7FAFB7
73A92A
0B709B
0422EE
6504F6
026DCE
08C932
065679
164DF4
07DB8F
143C29
174E22
0BDF09
0B12F4
0948BA
0FCAD9
07C925
74DAB1
6DCFCC
0F3259
78024B
708494
745814
083FD5
072873
0EC18F
14256B
09B35B
092546
7DAE92
021251
75881A
7A2328
0E4DE3
051BF7
0D9274
0C8E58
00EF77
0658A3
06F976
0DEF95
0F95F6
7B7963
632702
730281
7E4441
043E53
790A45
6D4424
08B19A
08A32F
00F1C3
69743E
7BAB86
0F7D41
72837F
747B89
0B878B
094E3B
05A661
7CC5C9
003FF6
0C1BFB
113C46
11146E
6C7714
78539F
076262
77BB62
7525AA
795326
144380
0BBD7B
06D549
09F8D2
06FB3B
7B8CFB
7FD145
007991
72F156
054477
045803
7C95E1
759828
0F5158
0D3E70
756F43
6EB25B
03165D
04EFFE
78183F
772FEC
0A1FE2
6B96E1
6F293D
7C1EAB
7B5F80
05D28D
0FC115
0E85EC
7F0FE0
01CA4B
082D8C
7F8A3B
6DFD47
6C5122
7E5F63
78A611
66DF71
041C82
7AA28F
00FA15
7E0C06
0A2D0E
03F92F
6FB784
7C1D3A
052BD3
7E6490
7AF1BA
71DEBD
755C96
7AB1E5
07166E
04BD44
77035B
077479
07586C
0165A1
77B539
030014
07572D
0EB29E
768198
74CE70
0966BE
0E38EB
7FFC22
0571B0
7D2F90
0A51E3
1748C2
071832
076252
061598
15C64B
06C9F2
053FAF
03EF5A
7ECE03
0E4EDF
17E9EA
19389B
040735
7FF9D6
177BBF
0D42F6
7F5F2C
0A239E
1CF6AD
0B5EE9
082A45
0BE3B0
0341AE
059589
116041
0B49E0
099AE9
090507
7E1D64
05B057
086705
0210BE
081D08
77EA3D
05DD4C
7CAD9A
768815
7C752D
77B224
72C647
013953
023076
0D5E8D
0822BB
0F0AC3
17B6DC
0844D0
04C921
12808C
7FC547
7319B4
6B4D7A
7EC8F7
777058
78C21E
7EFEE6
146F7A
7E6F60
7FEDD8
18FF54
170B5A
0748F5
0D013A
0B3882
7A1FAF
5FCB1C
73D6D7
71230B
702D05
7F0C77
0A9728
00DED2
763B25
7D38BC
148798
0E2A4D
7F85C6
73E89A
74F3BA
7C68A9
7179D0
726959
706C22
01F30E
7E4BDB
0ED5BE
0380EC
028672
03FCFC
0A06FA
14DC44
125072
7F6B6E
6A1C68
79EC4E
08CBAF
01B152
141B21
745E5F
071348
045AE5
137CBB
038316
08F733
08C100
7A0A84
0BA4E7
0A6CE3
7AE9BB
7A9552
7CEBAA
1B3450
70791C
7D7E67
7D58D9
134730
0C73CD
7E5B53
142EFD
73B4F6
7941C8
141301
7A4D4C
024BBA
7ED9BE
109BD8
7755BC
7D4B59
02BF76
76AC64
00B0F2
005F8D
092C8C
6DC4DA
095747
7FEA3D
0D01E2
5FD76E
7EB6E0
0BA893
00D456
05331A
7FC526
04195C
7DCB03
6DCEF2
732580
78E38A
066C8F
00970F
002480
75A826
62D740
039032
7FD6A5
02E0B0
7D14C2
0845BA
78EC84
7F8476
799780
6D1C5C
736177
09D7CB
0B9E06
6F2EF0
7B1455
7568B5
01A33B
7689FC
7BBD48
018E32
76657B
755CE9
794BBE
7F9841
6A2D51
6F0FE0
0CBE2F
0122B7
06E675
097C4E
02DAA9
7D100A
7D4680
764399
794DF8
01A4DF
6A1405
701E47
7AC775
741E36
082B73
01B339
023087
0C8227
087B45
7A7C17
7FC664
01E247
782DF0
7B2628
725E35
746573
02BAE0
7B9E8C
7E3CA7
7B7A5F
04C74B
168815
7DB691
7E455E
7715E7
04E9C4
713910
7A75BC
6A54F7
00CDC8
0E8D86
0CC250
0B0196
0ED85D
7F85F8
04AEFB

