3CF7F280
3BBBECAB
3D6FE3F3
3D50C0AD
3CACB641
3AD9F905
BD7953DF
BDCEF5ED
3B22552A
39956C0D
3CE6D9BE
BD8E88DF
3D61ED5B
3DAD080B
3D163FDD
3D06BF01
BCA0BE51
BD5D29DC
BC9932D7
3D1D9A0F
BDF7FF15
BCEA9A3D
BC042FA5
BD2262CC
BD5332AD
BD01F85D
3D04EC63
3DA004B8
3C0BAC71
3D187619
3DA8576D
BD3B2357
BD0EC743
BC12F6E8
BDBFCDAB
BCE3A190
BCF6D331
3D41B973
BD368598
BD00DB27
BD450481
3D8F13CF
3D6E9FF1
BCBAC2DF
3CE147AE
3C9372A4
BBAB68CF
BCE2B496
BD3353B5
3D3D4BF1
BD05846F
3DFDB22D
BBD9F0A2
BC8F94C8
BC7EB4A6
3C317482
3CF78573
3C52C7B9
3DF138BD
3D0FC936
3DA12C6B
BD41F538
3D0BE2F8
3D63C105
BD038B05
3D68F4B6
3D382907
BDB94AF5
BD04B2B7
BBB7AA26
3D2FC9BC
3DAD96A7
3CDA187A
BB87EBF2
3CD859C9
BD9F4880
BC339E28
3D6584F5
BC629B6B
BCF03D14
3CB990B0
3D0C9214
BD63736D
BC1D909F
BCBE6E65
3CD1DEF0
3C276102
3C17DD01
3DE0C6B5
BD099392
BD4D38CE
BD45D95E
BB2009F6
BD051223
BCDF04DE
3CFF1B69
3C29435B
BDC3DBC2
BCD7214F
3D8D056C
BD86E32E
3CADF2ED
3D06BCE8
3C233376
BD2E2435
3D753719
3D64063A
BBAC4B4D
3BC8711D
BC65D5B2
BCBFF25E
BC652DED
BD1C1D6D
3D0DA6E7
BD31A198
BAE06530
3D1A63FA
3C7EC56D
3D345E0B
BCBE186A
3D28F9F4
3CB52EB6
3BC0485A
3D073797
BDCBDE40
BCEC13BA
3D020924
399AAA3B
3B812BE5
3D5D81F1
3CADE43F
3DB25892
BC89528F
BD48051D
BCF1FFF8
3CA37692
3CBF11F9
3DD1BD62
BC443B2E
BD914339
3C659F2C
BC8110A1
BD31FFF8
BCF90D9D
3D7D1351
3DEDAC26
3E0CDBBE
3D448BEB
BD5846E9
BBC1EBC8
3CCA233A
BB259C06
BD138CDA
BD979852
3D58C8EF
BDAE9681
BD439CD8
BDB66B61
3CAB8A5D
3DFF2885
3DC2A90D
BBC61D86
3D720D99
BD20D994
BB43C18B
3CF42BB6
BC9172EF
BCE3CD9A
3D502FF9
BDD10A9A
BE2217D3
BC75E41D
BC61437C
3CE351DF
3D312C28
BC8DB8BB
BC886DF8
3C3F0996
BD994D0E
3C0E086C
3D068BA0
BD3FB9BF
BC7ECDD1
3C82FB5D
BDA3D578
BD5B1855
3D3E8DDA
3D3C2118
3D15C52E
3D8B3461
3D17BE98
3C09374C
BC7F9F88
3D1C92DE
BD1C4977
BDB96313
3B92BC30
3D998AEC
3CF4A772
3B574928
BAFE4799
BD016F00
BD58E758
3D09FE87
3CDBAD3A
3D8EB570
3D5E731D
3D9AF8DF
3E1515CF
3E0861A6
3D0E3476
3C9159C5
BDBFE868
BDC2FD76
3B25375D
BD4509C0
BD599AA6
3C5BDB5E
BBFBD274
3D44113C
BBE94EE4
3D0EE9DD
3D0C09C4
3CF1EF31
BD37E804
BB85D313
BD028D43
BD2B0963
BC5CCEA3
BD11CE29
3C835DEE
BC9524C0
3C72AE08
3D42DE01
3B462E4D
3C827525
3DA42071
3D4AF4F1
BAC17657
3CB951C6
3CF7E1B9
3C3D512F
BCCFB763
BB1C6F37
BD23AF32
BD0F56EB
3E188377
3CF73E25
BD48BB90
3CA09AAA
3DAE47DC
3DB54C98
3BC9EA9A
3CB60D02
3CA85CAB
3C837F7C
3D4050BE
3DC3BEEC
3CFEDA66
3D0AE42A
3DC02646
3E0C9796
3C6D5F14
BCC1EDE1
3D7E0264
3D66C3B9
3ABFC222
BD2E74F3
BBE086BE
3D0F9C20
BC86B378
BD7D86A9
BDC35BD5
3D063F14
3CFA58F7
3D163886
3D65F634
3D912A95
BBCFBFC6
3D371002
BD3DD65A
BD53F7CF
3C54B6A6
3D255C10
3D167FD4
BDC7C06E
BCB63D3E
3CB76B3C
BC403793
3D9836A8
3C9A47AA
3BD17C5F
3CCCA2DB
3D2D117B
BCCD35A8
3DCECFA7
3DC197E5
3D400757
BBC9EA9A
3C22CECD
BCDC896E
BD3EF7C2
BB5B6A1F
3CBC9258
3C6325D5
BC677D52
BBB0E1B5
3CCF1801
BD47DC38
BBDF6988
3DAEFF5C
3D050CE5
3C9BE6E6
BCCBF8FD
BCF839CE
BC9741D1
3D1F44D4
3D969D30
3D3DE508
3D935B0C
3DC44B6F
3D10E992
BD988872
BD41259A
B93673C5
BCEF9336
BC36390D
BCA66DBD
BE064F98
BCAD9CF1
3DA3F141
3DB892EF
3C89D063
3AA11666
3D07E069
3CBDE615
BD5FB613
3D725A25
3CD106EE
BD30DF9C
BCA597D5
BCF63800
BCE3454A
3DAA6C1A
3DB79B78
3D4D90E2
BD1CE076
BDD118C2
BD85E918
BDADEB10
3C4C2507
3C90342B
3D0B5782
3C25B963
BDB21922
BD8F0308
BDAB0A70
3CADA555
3C0C64FE
BD93E0BD
BC91BC56
BD613C25
BD9ED30F
BCEAAB04
BD0AB0C9
BC7F6D33
BD104817
3CA95853
BC66EEB7
BC211EC9
BC99BD40
BC845BAF
BD96E58A
BC8068DC
BC995CC8
3D612620
3D0AF816
3D45564B
BD241C3F
3D79FFD6
3D8EE49F
BBD9B5E9
BD3838C1
BD0867AE
3D6B3EDE
BD4012E0
BDBAFFB0
3CA044AF
BCBC621B
BD651A00
3D32FA94
3D873D5C
BC0B1DD6
3C30E5E6
3CBDEA46
3A6991FF
3CC22EE4
3C159A31
BD80E411
3C8C2614
BB6CFA6A
BD5742DD
3CB78898
BC9524C0
3D8AF577
3DB79A6B
BAAC5C14
3C3DC6A0
3D1271BD
3C809918
BD61D53D
3B04406C
3CA719B5
3D146801
3CBFB15B
3CBF1C76
3CC8E044
3D41D8E8
3C8F2389
3D06CB96
BCA06C87
3B2A326E
3CED6777
3C1AD42C
3CA51C19
BC3C0E39
BCB2702A
3C359147
3C71FDDF
3D9D1CC1
3CC0B136
3C982A99
3D435697
3C788FC9
3D02AA9F
3CBA53B9
3D261D00
3D03B603
BB06594B
BC456D5D
BD45058E
3AF62739
BCA99FA1
3DB3764F
3C895076
BCF7B17D
3D533B10
3D510F52
3CDB91F7
3CD3671B
3B8EFFE3
3D033E79
3D123E5C
BD25CE5B
3D06F694
BA48472C
3C0A19CA
BA5C3372
3D84ED70
BC3D5561
3D246E09
3D700150
BCA27AEA
BC7BCE42
3A0DD1E5
BD136A40
3B75B1C8
BC322D0E
BDB590C1
BD687F45
3C38AA00
BD46D613
BCB89B52
3CC91080
BCEC2CE4
3D0A148C
3CF2D5E0
3CC24C40
BC254824
BCAC753E
3D47D806
BCEA4010
BD1871E7
BD36BD2B
3D135979
BC585165
BC8DAC26
3B426139
BCBDD335
BD27674D
3D1DD3BB
3D5E28AA
3D52B1B3
BA982CB2
BC47192F
BD3CB817
3D635C5B
BC14D50F
BD59E300
BC0FC0D3
BBC1F42C
3CAA2C23
BC6A1837
BAE30447
3C83B603
BBF9B995
3D00B674
3D1F090F
BD33D4AE
BC9363F5
3C804966
BD243DCD
3A3D87B5
3CF9B34A
3C7316E3
3DAC3A00
3CB8A5CE
3C874EA9
3C7737DA
BC35F5F1
BBC0724B
BBE7AB75
3CECF41F
3D0B7B29
3CECC1CA
BD083DBC
BD5EE45C
3C751EFB
BB59F905
3D5E2EF5
3B80AE10
3BA1DFB9
3BBE1651
BC74E011
BB7DB09A
BD5EDE12
3C94855E
3D8E93E2
3D373D19
3CE5EAAB
BD3EAE5C
3B745176
3C87C632
3B8FD9FD
3C96B11C
BCA5B0FF
BC23F898
BCE5EAAB
BD2B3893
BBC70868
BC1C12F1
BC1EE88E
3AF0E90C
BD6005C4
3CE8C693
3CA65ADE
BD327137
3D245B29
3CF0B49E
3D126C7F
BBBF22C0
3C8C9B84
BD8B0293
3BA5A46A
3D0EDB2F
BD50EBAB
3D66F0D0
3C30318C
3CDAD96A
3C9EDBF9
BC9843C4
3B322079
38302928
BC669271
3ADE2AC3
3CA76D98
3BBB8801
BCC94B38
BD02730C
3C6B52CA
BD66A65D
3D33E575
3B87C201
BCBC4B0A
3C538477
3C9450F0
BCDF1173
BCD7CF5F
BDC513B6
BDA6D699
BD5F0803
BD5A7B0B
BCA938DE
3CB3508F
3D3AFA72
3D1E57DA
BD386B16
3AB02928
BD451330
BD4C069E
BD6D81AE
BE04DD2F
BD0E3151
BD7ABA7C
BD119696
3D15CFAB
3B8C36DB
3C4243DD
3D43F4ED
BC4386D3
3C036220
BC056A38
B9EF1349
BC310774
BCE82731
BD8E1EF7
BDB53693
BDCDEC1C
BD35FA22
3C5A8BD2
BD3291B8
BD9004FB
BC072F34
BD1EF0F1
BBA9A3D3
BD06C11A
3B6E49F5
3D121145
3B18D478
BD8533B1
BE04A3C6
BDEB6F1A
BD63E8DE
3C8257C9
BC6E6B83
3D137B07
3CB3DD12
3D049881
3CB419E3
3D210E02
3D580B24
3CC8A7A4
BCDB5D89
BD55347A
BDF1D0C8
BDC1B08A
BD859536
BC46A3BE
BD06BCE8
BD210CF6
BD1625A7
3D423C86
3D8FB54A
3C4FB331
3CF6A93F
3CED0918
BCF774AC
BD8AB68D
BE0132F8
BD7061C8
BCD5CFAB
3C6AA6D2
BD1A09CC
BC8F3CB4
3B845996
3D631E7E
BC226A23
3CECDF26
3CE08F21
BB9BB6AA
BDB7B7C8
BDD4E5D6
BD728848
BBB64170
BB125786
3ADEB0FB
BC6AFEE7
3B585597
3D967FD4
3D779208
3DA222D5
3D87C4A0
3D21986C
BC02949A
BD8387DF
BD9E7211
BD982B1F
BD7FBACB
3BFB3312
3BCA0C28
BBFC6973
3D057AFF
3D69E3C9
3D5A9EB2
3D30C459
3CE9DF98
3DB8D4FE
BCAFD75E
BD461848
BD441DD2
BDB0F0E9
BD605682
BD170A3D
BC082ADC
BCCD50EC
3CBC98A2
3D6B81F9
3D9609DD
3D5BF9C6
3D78EF35
3D177857
BCCBCCF3
BD54A0A1
BD98FABE
BD54B274
BCDC2D28
BD0AAC97
BD09ACBD
BB32A6B1
3C5C69F9
3D63D3E5
3D92D44E
3D6DC2B1
3D6E1156
3B6A9E6F
BD039368
BD79D3CC
BDA619DB
BCABBA99
BD578A2B
BC879C41
BC7B19E7
BD0F301F
BC0B1572
3BBEE808
BC30BBF5
BC22DF93
BD23454A
BD85A815
BDBCC07B
BD10D499
BD72BFDB
BCF96E16
BD563023
BCE66666
BDA03E64
BD49E55C
BCCB2746
BCF210BF
BCB3354C
BBE53650
BC187400
BCE72325
BCE785B6
BD8603D5
BD56A594
BD3D017E
3BDC3BD6
3CA0B1BC
BCDCB9AA
BD843351
BD0C575C
BD1BCDBC
BD81D9F5
BDA491B0
BCF41F21
BCFD8ADB
BD88E369
BDB1C64C
BDF6F007
BD96249A
BD207A29
BC2AAC11
BD410518
BDC9845E
BB87A8D6
BD6FA616
BDC1F751
BDBC07EE
BDA214AD
BD6B649D
BD8D7D7C
BDABBE44
BE16F32C
3C9AF9EC
3BF6A50D
3D8AC7DA
3D3B2AAE
3D957ABC
3CA8A82A
BC8D38CE
3C33E575
3D493533
3DDBA6F0
3D0094E6
3D701FB8
3DCEC398
3DC81CB4
3D3315D7
3D34A559
3D2EAA6D
3DC6F8AD
3CB3BD9D
BDDC5AC4
BE077D95
BE0EBA6B
BD811B1E
3C3912DC
3D8BAC71
3E28F862
3E1E136E
3D96C482
3D9DC400
3D67FC33
3BC386D3
BC6C84F9
BDBA8EF7
BDE1700D
BDB74363
BDA088D7
BD342CC3
3D15DC40
3D22888B
3D2CD7CF
3D941C82
3CCB89D7
3D16D19E
3A688590
BD188F43
B8388CA4
BCFF51F0
BD96084A
BD824F66
BD8753E7
BC829AE5
BBE58A33
3D5A88AD
3DB09E99
3E0D62BF
3DECD078
3C4DF267
BC8F42FF
3C8E4B88
BCEE392E
BD6EFF5C
BDB14984
BD4538EF
BD014D72
3C3417CA
BCA1DDA0
3C95F245
BC520297
3DCAAEB0
3DED4563
3D463498
3D92ABEF
3D65F634
3D244D87
BCDB9410
BDA5B7D0
3C0C692F
3D4E1F7D
3C3EA4EC
3D19FA12
3C7EC13C
BCC7E6B4
3C838195
BCA92A30
3BC753E7
3D0915BE
3D583409
3CB8F9B1
BC2CEAAF
BD2B9F56
3D47CC7D
3D5B291C
3CE19546
3C2BBCB2
3D94BA52
3C1CBAB6
BCCCB5BB
3A87CA64
BCEEC5B0
BB6CB74E
BD507E9E
3BFA7A85
BC9A62ED
3D186339
3CE2C12B
3D0C6E6E
3BEF4E01
3D5AF6C7
3D109D06
3DF75EA6
3D7BD05B
3CC77BC0
3CA07D4E
3C55A188
BC8DC550
3CFD651B
3CD8C2A4
3CA8ED5F
3D434E33
3C8D5A5C
3D94B9CB
3D72788E
3D27C7C5
BCBD2524
3D22877F
BB8E4756
3CE2B27D
BB5A9004
BD6BEBE1
BD5D00F7
3BAA7DED
BCD9231C
BCFA6373
BBC7A7CA
BD5084E8
39B99913
BCA89B95
B9A6B93D
BCCC5B8E
3CF54F37
3D8B9778
3C6EED89
BCF359FF
3A07442C
BD6AD1D0
BDBE81CB
BDF7F499
BE13AA37
BD131A8F
BCA56367
BA8AEFB3
3CAADE65
3D1E83E4
3CB0FADF
3CD6F75E
BCEA593A
BAC8472C
BC51BB49
BD97EED4
BDFBA3CA
BDF49492
BD61198B
3CCC2B52
3DA3B928
3C74623D
3CC04C8C
BC942B30
3D054584
BC1C1722
BCDD9C28
BD54F8B6
BD32F662
BD8A6B0E
BD0AEB81
BDD024F6
BE1CFF65
BB48472C
BC1713AD
3CCE874D
3CB94531
3C6A1837
3CC2938E
3CCB1466
BCF25E57
3B6ED02D
3D004C8C
BCE02214
BD994C88
BDB82880
BBE4430B
BD52E2FC
BD2F37FC
BD37FAE3
3C91F927
3DC7AB75
3D860C39
3D25321E
3D305858
3CFFDC59
3D230553
3D419C17
BD0AF923
BD6C0D6F
BA4AE643
BC00BED7
BC136C59
3D55C209
3DAED6FE
3DEE2B06
3DBA79FF
3D41CE6C
3C8B49E0
BD06E6DA
BCA938DE
3C9AAC54
3D725C3E
BCA91538
BACAC4B5
3C3AA583
3D13C9AC
BBD76AB6
3C01F106
3D53FAF4
3DBAF534
BB48DE2B
3D01094A
3D4100E7
3B9EFD87
3B37E4DE
BBAFEE70
3D1E7968
BCC1F213
BC90B418
3CD67558
3D3DE721
3D439581
3D715E7D
3D54D1E9
3BFED634
3CA19008
3D1BF37C
3D0F3238
3D096FEB
3D75019F
BD3C31DF
BCB9C51E
BA893B7E
3D968F8E
3CA5E99F
3CABEF07
3D301A7A
3D0D36B5
3D46F9BA
3D42E01A
3D08C1DB
3D89717E
3CE7429A
3A9FA54C
3CF3EEE5
3D8F97EE
3BB6848C
3C52B2C0
39CA600B
BD13E0BD
BA26B93D
3D4AFB3B
3B3D5561
3B3FB15B
BC55842B
BC1E3433
BD6FD652
BD937EB3
BD0A16A5
3D7356DA
3CE87B14
3CB65237
3D1CF894
3C1ABB02
BCCA01AC
3CF4299E
BC699E95
3CCE5D5B
3D316095
BC91819D
3CCC22EE
BB756EAD
BCF9CE8E
BD1ED5AE
3D1E42E1
BC265CF6
3CEC02F3
BB9BE8FF
BCFAE9AB
BBFFC979
3D52EC6C
3D66CA04
3D6C6CDB
3C64F766
3BE410B6
BCCF312B
3C89BB6B
BC9906CD
BCCAC083
3B1DF117
3BFABDA1
3BD2F5DC
BD063172
BCE02EA9
3CF64064
3BE9FF0D
3CEC7864
BD02F406
BB93C03C
BD7BECAB
3B4319C6
BD2FFD1E
3D28C79F
3CCC78EA
3C61A826
3D8FCDEE
3BA558EA
BC29A3D3
3D21986C
3CC7B45F
3BA90471
BCDFB2EE
BAEEF1BB
3C066A12
BCF40C41
BD176BC2
BD228134
BB36C7A8
3D49203A
3D7573EB
3D72D2BB
3D5971C1
BBB73D19
BC855758
3C0CCDD9
BD3DAC69
3C3CA969
3D7C43B3
BB62B064
BB7A26A2
BC3A1F4B
3BC70004
3CCBF099
3C2B2181
BD17DAE8
BD8A5721
BC47BCC3
BB9B499D
BD167770
BD7CCD10
BD3F737E
BC7DDEBE
BCB5653D
BD76B096
3D267D78
3C28B08E
3C3D76EE
3C88AAC9
BC9A8EF7
BC13293D
BC79830E
3B4DB7AE
BD58C3B1
BC33311A
BC041EDE
BD8D7CF6
BCB5C7CE
BCE9DD7F
BD7E121F
3A7A15DB
BC98FC50
3DB3DAF9
3D0AB820
3C3BB624
BB9F83BE
3D9DF7E8
3CD9EA57
BCE9D302
3C1C779A
BCDDE15D
BD23FAB1
BCD58644
BD051655
BB64DA0A
3C18EDA2
3BEE7C4A
BA252696
3CC54153
3D4345D0
3D9061C8
3ACBD124
BC0FE261
3D4BCF0B
3DF34BD7
BC5D8B61
3C8AC9F3
B9CC78EA
3D8C8712
BCB061C8
BDD712A1
BD138583
BC6481F5
3CB7C137
3DE55758
3D84CB5C
3C702C4D
3B1246BF
BBAC29BF
BE050939
BE25C6C1
BD03D252
BCCCA926
3CC9491F
BD32CC71
3C3A7B91
3D1B9F99
3D19F7F9
BBFAA476
3D655F35
BBC9F2FE
BD967C28
BDA5614E
BD9D9664
BD853006
BCA19221
3B0E8A72
BCC560C8
BD997DD0
BCA615A9
BD6A8DA8
3C237692
3D09DBEC
3D316D2B
BBB33DB0
BD710DBF
BD639607
BD6415F4
BBA2D2FE
3D4B47C7
3D5C8861
3D0ED917
BC279BBB
BCE0EF9A
3CCD5F9A
BD172043
3B3C169C
BC7DC9C5
BD08FDA0
BD6E9681
BD9F84CB
BDB33765
BDA15875
3C3C0E39
BD161A1E
BC6C892B
BC2087CA
BD8A361A
3D7C98A2
3D183E85
3D8842FA
3DFD3A1D
3D06D506
3C2BABEB
BD37AE58
BD180A18
BD56A37B
BCE65E03
BCDE82D8
BCF2367E
BD495AF3
BC4FE154
3C915161
3CB122B8
3DC64B23
3DAB9DC3
BCF062D4
3C90D5A6
BD83AE25
BD6CCD53
BCCD8BA4
3D349ADD
BB8C9B84
BB94BBE4
3C88E9B4
3CC3979A
3C36AA4C
BCF90FB6
BCF7BE12
BD067BE5
BCEF1993
BCB29A1C
BC84B3C4
B83CBE62
3CCB7D41
3D1D3DC9
BC32DD37
BCB6FC16
BBA03C4B
3D1AC259
BC87852F
BD28E92D
3D1BC87E
3C0051CA
3BCC2507
3CBAEEE9
3C3D1245
3D80B567
3CBB8A1A
3D770154
3D833051
BC401A37
BA50AAA8
3BC1C1D7
BD1BC01A
BC907FAA
3D3CB4F2
3C674AFD
3C699A63
3D8163FE
3D8C2939
3D871822
BC1FEC9A
BCB2AAE3
3CDDB984
BC7C5048
BD615CA7
BD81B08A
BD03A53C
3D5FA333
3D9173FB
3D3D8277
BA8D8EC9
BC7301EB
3B900C52
BDAB5137
BD7E1976
BCD5F139
BD1EA24D
BC4A6CA0
BCA95A6C
3D5A7B0B
3CBC05D5
3C9F383F
3D0F6CF0
3CED58C9
3B8954A8
3C16EDEE
BD5B6F5D
3C8E581D
BB180B24
BD567BA2
BD415A08
BD405E5F
BB9118C2
3C131013
BD3FD3F6
3C6DCC21
3BC12275
3CF1D1D4
3B96FEB5
BD071716
3C061A61
BBB2745C
BD1615EC
BCCFB331
3C5DB984
3C67C06E
BD1451FC
BD702603
BDE5FF1E
BD53F184
BD9F9D6F
BDBED5AE
3AA88F00
BD231D71
3D11F2DC
BD0BEF8D
BD1D97F6
BD31BBCF
BD139B89
BDC5436C
BDC2C1B1
BD50CB29
BDBE1EB4
3D500714
BC157471
3D41B75A
3CA7A850
BD7090F7
BD8C857F
BCBBB1F2
BC3D1EDA
BC385E81
3D8497FA
3D287F45
3CDDFA87
3D2DC098
3D698351
3C43DEE8
BC88893B
BD03F812
BCEEEB70
3D39B34A
BD5E0D67
BD064990
BC3A908A
3B9118C2
3CFA4617
3D059EA5
3D80F3CB
3D54152B
3D0D8772
3C84901D
3D843915
BCF23AB0
B910B418
BD411E43
BC941A69
BDDC768E
BC14DD72
3D6FF089
3D5DF43C
3D48EEF2
3D8E4B02
3DA950FC
3D871EF3
3C3F26F2
3D50DBF0
3C717BD9
BD1B5A64
BCED612C
3C12428D
BCDEA24D
BCC202DA
3CBEEC39
3D950764
3D29C77A
3D5014B6
3D08EDE5
3D45A922
3D1782D4
3CA2C669
3C744913
3C737B8D
BCA428D4
3C19C38B
BD7C4E2F
BDC8B19A
BD7ED95A
3C577B7C
BC433F85
3C761ED6
3D6E3715
BCC4F1A2
3DACEA29
3C6D3954
BD2DE97D
BCBC8E26
BD276966
BD78CEB3
BD690CD4
BC695FAB
BD85CCC9
3C7969E4
BD2F4BE8
BD592429
BC57060C
BD3CA106
BC09118C
3D842E99
3DAC99F2
3B129AA2
BD9B8E4C
BD695E9E
BDC6FB4C
BCE7F90E
BD9CB9AA
BD3B98C8
3C984E40
BCBF0FE0
BCE5B20C
BC0F0C78
BCE59F2C
3D4431BE
BB8997C4
3D8C2720
BCFC5EF6
BCA3EE1C
BD58D152
3CDE0B4E
3C8D8A98
BC871A3B
3C0BD231
3D6718A8
3CFAFEA4
3BE5B424
BCE7C4A0
BD61F9F0
3C5EDAEC
3CA8DEB1
BB99285B
BC88FA7B
BC92FB1A
BC215550
B8CF9E38
BA330B5B
3CFE5215
3CFFA5D3
3D23315D
3DA9E98E
3CBEE5EF
3A794C88
BDABC1F0
BCA044AF
3C9AB6D0
3D023FAB
3B4F398F
BC814D72
3D52D667
BC11600F
3BA1F080
3DA97E99
BBECE9A3
3D5FADB0
3C9DB878
3D28EB46
BD848302
BCDB35B1
BD082060
3CD3EB3A
3D123F68
BD800E28
BCD273D6
39BC382A
BD2DA33C
3D64DA0A
3C16312F
3BE4B87C
BCFBC3C6
3D389F84
3CC0D4DC
BD38194C
BBDF0D41
3D3C5DEA
3A8094E6
3CD651B1
BCB1DD5D
3C553049
BC818612
BC013448
3B5F15A5
BC83F91E
BD8D3522
BD257EAA
3D3CF2D0
3CA1511E
BD04534C
3ABFE3B0
3D30F495
BC90F734
3C72D7F9
3CB1F688
3CFE2E6F
3CDEC80C
3CD7FF9B
BCC319C6
BCB48F54
BC7CBD55
3BFE3F36
BD000219
BC6EA63B
BD262563
3D28B7E5
3CFAEFF6
BDB44C38
BC817FC7
BC3D05AF
3D10D5A6
3D68F29D
BD00A8D2

