3B3CBE62
BD153587
3CF2A9D6
BC023C86
3C9F9485
BB67AB75
3BB7AA26
BBD2A1F9
BCC1B542
3BAA326E
3CA3F24E
3BAF6838
BC577319
3C252264
BC96ACEB
BCF69A91
BB412275
BD29BCFD
BC957CD4
BCBFA4C6
3C756EAD
BCA94BBE
BD087EBF
BBD338F8
3C973FB8
B9AC7DA2
3C342891
3BB9CB68
3B7FC979
BD5EFFA0
3C45F7C6
BC735E31
3CA2E3C5
3CCD5D81
3D0B6E93
3AA979E1
BC70DC77
BABE7297
BC490C4E
3C291538
3D2C97D9
3C1841AB
3C25CA2A
3C3EFD00
3D1886E0
BC8A8D22
3D570825
3CB2C40D
3CAB4FA5
3DAA10E0
BCCC2720
BC859429
3C07DF5D
BC8A979E
BC267E84
3C7F8EC1
3C0A4C1F
3C9C0874
3D0A58B4
3B76DFC6
3CD7689D
3D04588A
BC04AD79
3D80C309
3C4FB331
3C40C1FD
BC39AE0C
BD13A92A
BCD26528
BC8A4C1F
BB421E1D
3AF3A9B0
3CD2A1F9
3D041249
3CC9EECC
BC6F2C73
3CB94318
3C5D7236
3D0AAA7E
BD014834
3C526FA4
BC841249
3AA32F45
3C8FE692
BD6AF35E
BC62EB1C
3AEB8950
BCAAC109
3D6A3DF7
BC7C3B4F
3C4B7910
BD0EB24A
3CFF3062
BCB2E7B4
BCB2CE89
BC89B520
3C477DD8
3C56E04C
BBE5BC88
3C9E7FB2
BCA7AA69
3C1CBEE8
3CCF7660
BC66A338
3BB37004
BCAC12AE
BBF69446
3BCA03C5
3BF82F51
BD3D640F
BD5E0D67
3C161C37
BCC3B70F
3D41ADEB
B9F1B25F
BBD2B2C0
BCB4BD77
3CD8AB93
3C18201D
3C00D3D0
BD63BBC7
3C11AB8F
BC8F9F45
BCFF6F4C
BD32031D
3C9A0CF2
BC948BA8
BC68294A
BC75D788
3D03E63F
BC9B1961
3C9DB22D
BBD40AAF
3B8472C1
3D22DB62
BBC2DF0D
3C2A9B4A
BC66FB4C
BD3F7F06
3C78EC10
BBEEF1BB
3B8E1D65
BC4AC4B5
BD32BECF
3C940358
3D2D2DCB
3CD538AC
3BA50D6B
3C7544BB
BCDA5333
3CE6149C
BD3E058A
BC70739B
3C0B19A4
BCB59792
BD7D566D
BBC111AE
BC2B2181
3CC2AA9F
3D9778DD
BCD349BF
3B4814D7
3D8CAF71
3B9E6688
3CAB5808
BCFDA1EC
3CDEAEE2
BD04C597
3D383276
BCE5E248
BC9D8623
3CA9131F
BC9CEF24
3C64DE3C
3CEE5259
3CFC04C9
3C067AD9
BCC5E6FF
BB9C66D3
BCA65CF6
BC46F7A1
BC8CA1CF
3D1CF030
BC668A0D
BD11947D
BC4DAF4B
3CB4F1E5
3D2AEAFB
3D18665E
3CB35D25
3D827BF6
BCB7329C
BA89C1B5
BC4B7910
BD3BC5DF
3C2558EA
BD236B09
3C27CE10
3B8AAC97
BA59D777
3C87B353
3C688DF3
3D98B60F
3A45A815
3C9D5800
3C09656F
BC85A922
3BEB56FC
BC91EC92
3D0D1202
BBF4F93C
BB72F124
BC53F184
BC164E8B
BCF1A5CA
3D0751CE
3C7E4BCB
BD016052
3C815E39
BD13DB7F
BCDC4007
BC98C7E3
BC18F606
BC2C1095
3B07DB2B
BC6F8CEB
3CA35F81
3C7D5454
3BB8CFC0
3B9ECB32
3B2148BB
BC982A99
3AC1DB01
3CEDEDAF
BD206530
BC217B0F
3CA69596
3B7F5409
3D03C3A4
3CB2E9CD
3CD3CFF6
3CDEB314
3D1D5F57
3D5F5CF2
BC8665E0
3C65321E
3D27E953
3C1D94D1
3C9A88AD
BD04CF07
BD35C4A8
BD1FCF3E
BCF01FB8
3C62C55D
BB770154
BCA14489
BC4F67B2
3C662563
3CCC5DA7
3C913405
3D29563B
3D77F499
3D28405B
BC1552E3
BC6A39C5
BD328848
BCE77F6B
BCDEDD05
BC4BF2B2
3CF3C2DB
BC686C66
3CA0AD8A
3BC98E54
BC480C74
BB9EECC0
BB9F05EA
3C7B5D03
BC392C06
BC2D31FD
BBC8CD64
BCFE5EAB
BCE9C454
BA80303C
3BBD6E8B
3C659296
BCC9795B
BCE0114D
BC968F8E
3CDB91F7
3C9780BB
3CB23DD5
BCFA8D65
3B3178B3
3D466F50
BC4575C0
BC622A2C
BA6B67C3
3D50A138
3CEA22B4
3CB777D1
BCDA3A08
BB92146A
3D0D21BC
3C7609DD
3C84F095
BC611DBD
BCB291B8
BCB4D270
BD347E8D
BAA2A90D
BB83D35F
BB9F40A3
BCD62E0A
BAB0079A
BC50C804
3CA93AF7
BCAE1EF7
BC4FB763
BD5BB385
3C81322F
BC93C03C
BCC026CC
BD18548B
BC847B24
3D2AFFF3
3D8A6B0E
3CF16B12
BC73F962
BC6A8976
BBB55EF2
BC912FD3
BC9FBE77
BDA12DFD
BD5C5500
BD56B010
BD29CED1
3CD08701
3D51665A
3C34677B
3C95DD4C
3CF2324D
BD0E1E71
3CCB74DE
B950AAA8
BD0D562A
BCF0D845
BD5784EC
3B8F5C29
3CC66D37
3D16F976
BCBDFF3F
BD2A9C56
3BD3F184
3D18116F
BBE34763
BCBE4474
BCA66341
BBAD4F59
BC13EA2D
BD3F8876
BC934EFD
3D3B2789
3CCE0DAA
3BA03C4B
BCEA37AC
3AB1BBCF
BCB8DE6E
BC06FCDF
BCC2D6AA
BD398527
BD1805E6
BC23EC03
BC45260F
3CD130E0
3C911277
BC89CC32
BB72CF96
BD4F4517
3AFF10ED
B9B02928
3CD653CA
3CE1CBCD
BC479B35
BCEFD007
BCA91538
BCA6CE36
3C17A249
BB2B4FA5
BCFFE6D6
3C00A17B
39FDC161
BC70281C
3CC55001
3C91B824
BC097204
BCE55C10
BCCD2B2C
3C7709B7
3CD2007E
BC1B738E
BB0CE704
BC486CEC
3BD70E6F
BBDBCEC8
3D2771C9
3CCBA94C
BBA8FC0D
BB9B5A64
BC6BB774
BC69FADB
BB10C4DF
3BA9478D
3CDF4A12
3BB6BF44
3C9BB279
3C80CF9E
3CA0C06A
3D19E94B
3D0AA759
3BB07D0B
3BD7518B
BCF503B8
BC5655E3
BC31EE24
3B26655A
3D0E0978
BBC4E725
3D80229A
BC12E1EF
3C3ED30F
BBE8294A
BCD67126
BC75A533
3C7CB924
3C2AD1D0
3CBC3A43
3C507853
BBDA9867
BCC0AF1D
3D130AD4
3D1041CC
3C55E072
3A7F9724
3D3D816B
3CDA921D
BCF3C4F4
BB4B1898
BCC944ED
3CA71BCE
3BB252CE
BBA569B1
3C888B54
BC9563AA
3AAFA2F0
3C0F8A4C
3BD905C0
3D03CF2D
3D069403
3CFD4BF1
BB07DB2B
3C29E6EF
3B56B229
BD3FA4C6
3C728C7A
3B8DD1E5
BC83AD9F
3C48B439
BC51782D
BB9EBA6B
BD0A7A42
3C95E9E2
BCD50657
BC98E326
39B13598
3C1085F5
3CFC8D19
BC8B2420
BBD551D7
BB89CA19
3C6B5F5F
3CD0D8CB
3C4343B7
BC29B49A
3CA8BF3C
3D2A28FE
3CB228DD
BCEBA062
3B1B0EE5
BB19BF59
BCAD44DD
BC733CA3
3CD2934B
BC782B1F
3C7E21D9
BC026AA9
3D08C500
3CFE5EAB
3CE8B19A
BBF4384C
3BB47410
3C4AD57C
BC554110
BD535979
BCC5FE11
BCE3150E
3B1906CD
3BCFBFC6
3BBBCB1D
BC681883
3C1D3CBC
BC906898
BC94BBE4
3C77403E
3CB91D58
3C705EA2
BC55F56A
BCAA5A47
BC362C77
3CC14834
BC8A99B7
3B16249A
3CC00325
BC5AE819
3C4DD93C
BB779852
3BB295EA
BC21F080
BD059642
3C252696
BCA44849
BD1B3F21
3C67CD03
3B188095
BCD703F3
3A88722A
3B90A351
3BF9CA5C
BABF7F06
3B33D4AE
3D0270F4
BC6C3548
3C1B280F
BC54CB9F
BC41B110
3BF2E05D
BAF84018
3C485C25
BCA9E0A4
BCEA8DA8
BBC32229
39EB67C3
3D111277
BB6F77F2
BCE2D83C
3C1F40A3
BC9F7942
3B8D434A
BC41B110
BAB1FEEB
BCA146A2
3B48DE2B
3C88398A
BC975D14
BC975297
BD03A648
BA997C3D
3CCF1C32
BB6E9DD8
3CBE07A3
BBEE73E7
3CFF23CD
BCFBAA9B
BCCB48D4
BCA3CC8E
BC6D0F62
BCE35611
BC92EA53
BB8344C3
3CE50A46
BD0C4DEC
3BB40F67
BC307076
3D0A16A5
BC906EE3
3C4CD530
BC1C4DA9
BCA42F1F
3B94BBE4
3C2AB8A6
BC62B496
BC81F106
3CD247CB
3CDA1449
3C258F71
3CB78CCA
BBB18117
BC4FDD23
BBB81F97
BCC70868
BA83BA34
3CA18373
BA73CB3E
BC719D67
BD4204F3
BB284BE4
3AA58B3F
BCC15B14
BCFCE52E
BC86EE31
BBF6B5D4
3C6E88DF
BCFE8251
BC7C08FA
BCB02F73
3B3EC67A
3C6FBB0E
BC8244E9
BCC6C11A
BD40E6B0
BCDF7836
BCFFCDAB
BC78982D
BD291A76
BCED9381
BCC2D05F
BCC432CA
BB1CE4A8
BC5F47FA
BC34E981
BC1EECC0
BD2FE719
BC1FF4FD
BD6CE24C
BD1CBBC3
BC83382E
BBAA21A7
BC51DCD7
BCE5ABC1
BC19285B
BC16D4C3
BCC3E319
BD298138
3A6F5665
BC9A2403
BCBA94BC
BC29EF52
BD10B0F2
BC97DF1A
3BF648C7
BCB52008
BD4D0785
BD1D55E7
BCC30D30
BC5CF894
BD2428D4
BD559E62
3BEB4635
BCCC1659
BCBA2164
BC7709B7
BC8A697B
3CD35654
3C8D9D77
BC1491F3
BCF7A701
BC5A8BD2
BCEAB14F
BD2C4E72
BD45A3E4
BD25D6BF
BD6D00B4
BD289225
BC7A0946
BA727BB3
3CD0B956
3B33D4AE
BC9F7D74
BA6CB74E
BCF85943
BC75B1C8
BC91F4F5
3C669271
BCEF06B3
BCE4F766
BD42C6EF
BC271583
BC9DFB94
3C31D0C8
3C9FA11B
3CCC1CA4
BC89BB6B
BCEE34FC
3C5AEC4A
BBAA1944
BA8CE704
BD065300
3A117D6B
BC19806F
BCF442C8
BC95A07B
3C2B10BA
3BBA493D
3CFD32C6
3CF6EC5B
3BFA93AF
3C3399F6
BC231E7E
3C3F5D79
3B8C692F
BC0C2614
BCED3309
BC683A11
BCAC3223
BD0F7EC3
BBD9BE4D
3D271583
3CD3C9AC
3C8FECDD
BC2D794A
BC10470B
BCD66491
3BA6A876
3C1BE8FF
3BA9691A
3C9D6CF8
BC79BDC7
BCD65E46
BA8F2171
BCC1A049
BCAE7F6F
BB4BF2B2
BBA1511E
BD12C16E
BC303E21
BD0CFBFC
3C8472C1
BC008C82
BB842FA5
BAD844D0
BD0407CC
BD095BFF
BC63582A
BCCC35CE
3CB647BB
3BCFE154
BCA04AF9
BCA1AD64
BCDB5958
BC95896A
BD1E2EF5
BCD2934B
3CB1A08C
3BF4D7AE
3BE5B424
BCEF4BE8
BD0DF8B1
BBD83409
3C902795
BCB9D5E5
BD388A8B
BC9DD1A2
BD25BEA1
BCF075B4
BD5C182F
BD408851
BC72F556
BCF93144
BBE88590
BD093426
BD499F1B
BCC58AB9
BD1D41FA
BC66FF7E
BC423B79
BD17D7C3
BCD249E4
BC11EEAA
BD88F191
BD4B09EA
BD24DA0A
BCAC5E2D
3AE496EE
3BF91A33
BC397FE9
BCAAD1D0
BD0C026D
BCB09E99
BC022BBF
3BEC41DD
3CBA40D9
BB4A3E7D
3C6B0FAE
3D278C00
3C510B20
BD1D50A9
BCFC02B0
BCD63023
BD0A19CA
BCEA960B
BD3ABB88
3B3FC222
3B106035
3CD73C92
3CB996FB
3D32E276
3D1AA0CB
BB609785
3CBDAB5C
3B4C0379
BC973FB8
3BBA8C58
3AAA21A7
BCBF2F55
BCDDB339
3D039ABF
3D50AAA8
3C07A073
3CA95853
3BE2541E
BCAA4DB1
BCF3E250
BC4C4695
3CD08F65
BC6BDD33
3C22B170
BCE8FD1A
BCA454DE
BCB66D7A
3A0FA7A8
3D23D2D8
BBBFE3B0
BC7CB4F2
3D38C75C
3C9906CD
3D103A75
BC427A63
3CA1A0CF
3D199BB2
3B1741D1
BB9F2778
BC06594B
BC8EB24A
3B1F0E4E
3CF71434
3C93660E
3C807358
3CDCCEA3
BAEC7432
3C62AC32
BD019D24
BBD4994A
3C8D23D5
BBA9A3D3
BC26A012
3D67A0F9
3D4FA15E
3D44F7EC
3CFAD081
BBBB01C9
BB60A84C
3D071E6D
3D8EDEDB
3D160200
37FBA882
BC1ECF64
3CB2A498
BC542C3D
BCF0B06C
3C4F0B6B
3D6BB98C
3D1F56A8
3D36E1DF
BA3D449A
3CF66623
3D93E4EF
3D35A20E
3C77DFA0
3CDC4EB5
3C07A073
BC008851
3CFB4C3C
BB91537A
3C78F041
3CCEC205
BC7401C5
3CF5B5FA
3AA73F75
3D25B318
3CFC8B00
3C53176A
3B2979E1
3CAA79BC
BC872B02
3CF00EF1
3D2D19DF
3B5184C2
3CF67D35
3CD60E95
3CCEDD48
3BB59147
3D876641
3D1EF955
3CDE95B8
BC566278
3C265061
3D5D16FD
3C565A14
BC2808C8
3BD14A0A
3D07AAEF
3C513943
3C7E260B
BCE24357
3C206EA0
3CC193B4
BB0E25C8
3D2AF252
3D3C243E
3C278AF4
3C023854
BCDB291C
3D003255
3AC111AE
3CC6F588
3D0F6F09
B9CE0B91
BA99E0E7
3CD28D00
3D802B84
3D8D0F62
3CB0A0B2
3D59F5E0
3CFEB8D8
3ABAC711
BCCECA68
3BFAE792
BB516335
3CCDEC1C
3CEC9E23
3CBE6C4C
3C699E95
3D403CD1
3D19DA9D
3D19EF95
3D89435B
3D3736CE
3CEA1E82
BBC996B7
BB3167EC
BB77FCFC
3CE19978
3CA4EDF6
3D63A084
3D3B84DC
BBFE60C4
3C6642C0
3D1DC619
3CB52A84
3C95C63B
3D226B2F
3D20E62A
BC58B1DD
BA87CA64
3A2B7132
BB80CF9E
3CD5E072
3D41F106
3C0B47C7
3CBB2DD3
3D186013
3B07CA64
3D30C133
3D81AEF7
3CE0C38F
BC287E39
3C70AA22
3CA12B5E
BCFEAE5C
3CEF5665
3B175297
BC414C66
3B5C3372
3B7D08D5
3CFC0D2C
3D38B47C
3CF99C39
3C450481
3BC88A48
3D042E99
3BD6C2F0
BC0869C6
3CA23E18
3D19BE4D
3BF776C5
BC906035
BC80CD85
BCA3D0C0
BB98915C
BCF589F0
3D1DF549
BC81C92E
BCD2F3C3
BCBE78E2
BCA411C3
BAD41312
3C27008A
3C8257C9
3D16D8F5
3B46A3BE
BCF55DE6
BB17310A
BBB04253
3CA860DD
3C04B1AB
3D48C500
3CAF123C
3BB5E52A
3CAB90A8
3A8D8EC9
BCC1C1D7
3D130F06
3D2B5F5F
BC1AAA3B
BC89CE4A
3CF878B8
BB9A133C
3C4D466F
3CED5065
BBAB3EDE
3D1A2728
3D301EAC
BA8205FF
3D154867
3C137D20
BD2F6F8F
BC89D063
BCDEA466
3C270D20
BBF97679
3AD716D3
3C675FF6
BAEF34D7
BABBF50E
3CFCF80E
3CB22D0E
3BE5CD4F
3D140CC8
3CEEAC86
BD0E8640
3C16B767
BC1C065B
BCD36F7E
BCCCCAB4
BB983516
3BB4A665
BCAA21A7
3BAD362F
3C89AAA4
3C9FCD25
3C922FAD
3BFAACDA
BB0EEF1C
BC64F334
3C3823C8
BD3F9831
B9C8472C
BC8D8EC9
BD25CC42
BC81C92E
BC9E8A2F
3C5933E3
BAB26395
3D62F7B1
3C751266
BCA4894C
BB80AE10
BCCFFC98
BB01C2E3
3BD82BA6
3BD7B635
BCBC42A6
3CCF073A
3D218698
3BCCDD94
BC0BA83F
3C5245B3
3CE01BCA
3C51BB49
3CB4DCEC
BB812381
BCB4B513
3A117D6B
BABA40D9
BC23D70A
3C425072
BC32FA94
BCD65C2D
3C466D37
3C5CCA71
BB4CEE5B
BBE47560
BBCED4E5
BC95D702
3ACBF2B2
3C19B2C4
BCA70F39
BD008B76
BB745176
BBED2CBF
BA79D2BF
BCE9C23B
BD1B163C
3C8359BC
BCAB5E53
3AE453D2
BD1184C2
BCF9E386
BCCE4218
3B76BE38
3C609785
BB90B418
BCA135DB
3B53AE68
3CC3F3E0
3CEAB9B2
3C28A3F9
BBD64D7F
BC8A7829
BC85681F
BC686402
BCA2877F
BCA24EDF
3C8FC936
BC9EBA6B
3C90129D
BCBAADE6
BD036977
BCE07E5A
BC83CD14
BC5A2B5A
BC4EB789
BD32CA58
3CF01B86
3C2B92C0
BCC9795B
3C968944
3C926A66
3C088B54
3D022FF1
BC76512B
BC201EEF
397BA882
BBAD2568
BC2808C8
3C43B928
BC18AEB8
BCB4EDB3
BC555608
BC0E7147
3C70AA22
BCEAA6D2
BCF7BBF9
3C4D63CC
3C468EC5
3CE15443
3C3EA91E
3ADB6A1F
BBB7BAED
3C839475
BCA99D88
3CF42FE8
3C88E150
BCC55A7D
3C97BFA5
3BFECDD1
BB14C448
3D0817FC
BC0AA002
3A87442C
3C4508B3
BC515AD1
3C47EAE6
BD5CB146
3C929ED4
BD16EEFA
BCBF3BEB
BD627286
BCDB4891
BD0241C4
BD04AA54
BB664B23
3B3F8FCD
BCBEAD4F
3D0407CC
BBFD3B2A
BC82D16C
BD0DA5DB
3C6E73E7
BCEACA79
BC88F217
BCCC09C4
BD2DF1E1
BC85FF1E
BCBD1676
3C810625
BB85C24C
3C74F50A
3CCB2D90
BC8E820E
BCEABFFD
3CE8AD69
3CD9A0F1
3BDF1E08
3B691C8F
BB023854
BD064ECF
BC5FFC54
BCAEE632
BCB6BD2B
3C962281
3CDBA0A5
3A87CA64
BCA9A1BA
BD2AF039
3CDD4E90
3D0BBE44
BCD4024B
BC801712
3C50D068
3BDBC665
BC9537A0
3CEA3BDE
BD1FEC9A
BBE3608D
BB0EDE55
3A4BAF96
3C18244F
3C064452
BB3B2BBB
BBD0FE8B
3C4BE61D
BD30D520
BCC72192
BCB56DA0
BBB630A9
3D217F41
3B9BCFD5
3CAE8E1D
3D80B913
3B874C90
BC31140A
3CAA3487
BC6DDCE8
BC05A922
3D16861F
3C6BB774
BADC768E
3BB00FFE
3C3178B3
3CAA2C23
BC25DAF0
3BAB606B
3BC4F7EC
BC66687F
BBAFCCE2
BBC62E4D
BC9042D9
BBA3F035
3D01C715
BB468230
3CC3A216
3C3877AB
BD1A2B5A
BC87AAEF
BD16F438
3BD0B30B
BCFCD24E
BC1A1BA0
BC2D6020
3C6553AC
3CE3ED0F
3D1F5F0B
BC6F0F17
BC8B34E7
BD50C6F8
3CD19589
BA9B951C
3CD885D3
BAE10CF6
3ABFC222
BB6DF612
BC6A1C69
BC1C560C
BBC80C74
3B13964A
BBE26D48
3BEFE500
BBCD3177
BB3DA943
3CA2E3C5
3BE5F740
3B45974E
BCC7E8CD
3A2A64C3
BCA09247
398D0892
3C99DECE
3BB4FA48
3B8C0486
BD3CA106
BC550225
BBA85CAB
3C98DAC2
BC9D1B2E
BD294467
3BC5974E
BCBB0C46
BCA1B7E1
3CD970B5
3CC78423
39F6F08D
3D073259
3B3838C1
BC83D9A9
3CFC6DA4
3CA49C2C
BCB9F773
3CAC215C
BC0D25EE
BCA3033A
BCB6D86F
BCDD7ECC
BC3480A6
3D3B1290
3D064346
3CB10DBF
3B897E99
3C2DEA89
BC9E7968
BD3C0E39
BC3545C8
BB812381
BCA6D699
BBB19A41
BCDCEBFF
3CA044AF
BC762B6B
3CE2CDC0
3BCE2D1F
3C483EC9
BB92A305
3CE50614
3D08CB4B
BCB9A7C1
3B0FD9FD
3C3295EA
3B8DB057
3A8461FA
3BBA5A04
BCD93A2E
BD032B99
3C4D67FD
3C048BEB
3CC92360
3D2429E1
BB2E1049
BBC3F3E0
BCE98FE7
BBA4FCA4
3B175297
3CA71583
3AD54110
3C35A20E
3C23A4B5
BC1E5E24
BC6A4EBE
3C012BE5
BD2D80A1
3A606530
BC96EBD5
3B9FADB0
3C3EA0BA
BB510F52
3C7CF80E
BB2B92C0
BCE5AFF3
BCE7EA60
3BB3FEA0
3B892253
BD088723
3CD3953E
3CF1F57B
BB41333C
3C112DBA
3C9EADD6
3C55C316
3D193922
BC222F6A
3B38CFC0
BB040E17
BCC98A22
BBCA2553
3B7CC5B9
3B0D5C74
3A919EF9
3BDEC1C2
3C33C3E7
BCE1AC58
BC1D9903
3CE4B44A
3CDA76D9
3BD0FE8B
BC1A6F82
BC2D2568
BC32F230
3A81E471
3CE8C048
BC21D756
3D397FE9
BC8EB67C
3C83FD50
BB0E9B39
BBD97B31
3CAE6C8F
3C96FC9C
BCA4A6A8
BC946E4C
3BDD26B7
BCF9B563
3CD02EEC
3CE5D399
BD26A22B
3D13C686
BAEFFE2A
3CBC6866
BC73775C
BBAC6CDB
BAD6B229
3CF55369
BCB30729
BCA072D2
BD1096BC
BCB18DAC
3C3D273D
BC575E20
BCE17E35
BC996D8F
BA3BF50E
BB9ED395
BAC60CBF
BD054AC3
BBD1C7DE
BC2B7DC8
BD1D65A1
BD2A161E
BBFBC1AD
BD16C509
3CA1E1D2
3BFA58F7
3BB99913
BD383383
3C17635E
39FD3B2A
3C768BE3
3D2A77A3
BC15182B
3B582342
3CA35504
BD0A31E8
BCEC2ACC
BCA5D28D
BABE9425
BC8B1FEF
3CB29C34
BC97AEDE
BD1103C9
BCD59F6F
BCA877EE
3BEB80ED
BC8476F3
3C4DA2B6
BB3AA583
3C1203A3
BD073366
3C01882B
3C52BF55
3C034092
BC42A023
3C1363F5
BD0ECE9A
BB64B87C
BD0CF074
B8B673C5
BC80F777
BC8229A6
BC38305E
BCA9B068
3C9D4D83
BD16EBD5
3CE29308
3C18BB4D
3CD742DD
3B99BF59
BB8919F0
BCB0856E
BB828C37
3C1AA1D7
BC93C89F
BB7B224B
3C3FE3B0
BC80C0F0
3C026677
BC1728A6
3C074C90
BD2B0B7C
BC286940
BB9C0A8D
BB8D10F5
BCE4C511
BC44C9C9
3CD39B89
39F23897
BCA3FCCA
BAF2E05D
3CAE9CCB
BB90BC7B
BD225E9A
3CB1897A
BC68D10F
BCC82385
3BA8198F
BBA05DD9
BC2743A6
3B5184C2
BC215DB3
3CA98677
BD245C36
3C960D88
BBA89763
BB4D20B0
BD449342
3C10E66D
3CCF2F12
BC663A5C
3D210279
3D2EB2D1
BC9CA7D6
3CA70D20
BBC8FFB9
BACC575C
BCF1E29B
BBBD2B6F
BBFB3B75
BD38BEF9
BAC58687
BC0B08DD
BCDEA466
3C736695
3C5E00D2
BC6EED89
BC2FB3B7
3D4EB570
BCB9A177
BD109E13
BD1579AF
BB1F83BE
3D2D0A24
3CD9E83E

