BC79FCB1
BD95F2CB
BD9BF940
3C3FE3B0
3C7722E2
3C96B54E
3C0B3F64
3D757F73
BD920FB2
BD57D285
3D2A0232
BC423B79
BDC6D267
BD0F42FF
3E0075F7
3DB13F07
BCC24A27
3CED97B3
3DA01BCA
3C952D23
3DBC579F
3DB6A487
3D398FA3
BD3913E8
3BA2B9D4
BC1B1FAC
BD2A7BD5
3CA34656
3D384EC6
3DF2CA58
BD4404A7
BD8EAA6D
3DB9B5E9
3D9C9C4E
3D0BC59C
3BF1886E
BD078C87
BDD1F256
BD3CD78C
BC723CC9
BD1186DB
BC11AB8F
BDCB80ED
3DDF6230
BD615012
BCC4912A
BD2C7B89
BD594291
3D42B51C
BD86CA8A
BD82D05F
BDC4723B
BD369446
BD9E1651
BDDBEE3D
B8D5E8D5
BD73E78E
3CA16617
BDB22EA1
3B9C5E70
BD460781
BDB3F6C2
3C176FF4
BB6ABFFD
BCE1804E
BDA588A0
3D26A444
3C8BF5D8
BDF3C793
3D3864CB
BD9037D6
BC595571
3BAB8A5D
BD718762
BD0B599B
BDA78D0D
3DC09D49
BBDAFD11
BE0CC921
BE0E0FC3
BC5349BF
3CAB3EDE
BD6B313C
3CC538EF
3E0DE508
BBD8A116
3CB9C737
BCCBBE44
BDD7A919
BDAE9EE4
3B8D21BC
3E0D5992
BDA862F6
BDE0D1B7
3C1331A1
BC6492BC
BD462D41
3E359EA5
3D83F573
3AEDA22F
3D743958
BD00B029
BD4F56EB
BCE34DAD
BCB573EB
BD0406C0
BD5AAE6D
BD0EDD48
BD66F933
BD2133C2
3C788334
3E1295EA
3DCDAEC5
BC17D06C
BCFA0D78
3E05D207
3CAF405F
BCBB01C9
BC5BB9D0
3C96D4C3
BDB3C70D
3C9F31F4
BDA99525
BC0576CD
3D7B2BBB
3D8DAC26
3DD6922E
3CBE7D13
BD160E95
BBA137F4
BD0857F3
BD8C397A
3CE2E6EB
BCF3F530
BD118F3F
3B2B0C89
3BDEB95E
BB9289DB
3D4DDC62
3C324639
3CAA172B
BC7EA3DF
BD062C34
BC0EFFE3
3C822DD8
BD5E5083
BD815A8E
BD4958DA
BD86C658
BDC40421
BDC71583
BC208BFC
BC5E614A
3BBBFD72
3CBE1EB4
3D8D02CD
BD2455EB
3D677920
BBEC28B3
3CF4DBE0
BBC32A8D
3C091E21
BE0E26D5
BD465732
3CD019F4
3D836545
BB97E133
3855E8D5
BC941850
3D12178F
BBCF073A
3D4AB4FA
3D0667F9
3A5D82FD
BD196851
3D99B563
BD66A769
3C95F677
3DA0D0AB
3D4FE8AB
BD433615
BD53B8E5
3D2A9C56
BD0DB489
BD66EEB7
3D2A161E
BCD33F42
BDE69E80
BD35946C
BD1285A9
BC911277
3C66C4C6
3D4B5CC0
BD857B85
BC145309
BDA78C87
3D1F57B4
BDEE0B91
BD311E86
BD26AFCD
BDEEA20A
BD3F3CF7
BD5832FD
BC8F0846
BD0B48D4
3D3E8577
BC8E6080
BD7954EB
BCD2220C
BD18E001
BC0DC550
BD5B75A7
BD80DA1B
BD208BFC
BDCB2208
BD69A911
BBA03C4B
BCA222D5
3D99F666
BC1A8049
3CC91080
BDA56580
BBE9899C
3C503537
BC60B913
BC8F861A
BCD48238
BC1B994E
BDB3DB7F
BE098D47
BE0806F2
3CA602C9
BD80C522
BDDB7F9D
BD19FE43
BD7645A2
BD07735C
BD52CF10
BD9F4CB2
BDB05E1C
BD75B3E1
BDAA05DE
BDEC5F39
BDDD4174
BD0303C0
3D3ACD5B
BD7FED20
3DA7FBAD
3DFA743A
3E1B5419
39217B0F
BD2E3F79
3A9D4952
BC66AFCD
BD63F141
BCD0331E
BCBE07A3
BCDDA273
3BD4A1AD
BE1B723F
BDE1ADEB
BCB94B7B
3CE04189
BB0CE704
BDA85CAB
BD4CFE15
3B0B6523
3D1CE28F
BCD4D402
BD30984E
3C296D4C
3C37739F
3D356649
BDA8637C
BD5B76B4
BD21FD15
BD526A66
BD51D9B2
3D2B5C3A
BD17D49D
3DC03819
3C860781
BBCED4E5
BD595140
3B467169
3C0DF373
BC2EEE95
BD62CCB4
3BA87E39
BDB53CDE
BE0FD977
BDE3F78C
3C01BA80
BD9E657C
BCD48CB5
BDAC532A
3BA04D12
BB43B0C4
BCB6E936
BDACA793
BDFD56F3
BE188F86
BD0140DD
BCA66DBD
3C65E248
3C17353B
3C106CCA
3D98116F
3D878E9F
BC70AE53
BD8E2004
3D857C91
BD62C98E
BD3C7714
BE1EF178
BD0E25C8
BD0FEDE9
BC04F8F9
BD44F3BA
BDB62BF1
3C3777D1
3D3C903F
3E44280B
3D22BE06
3CD45A60
3BE0EB68
BCBBEEC4
3DBAD42C
BD2490A3
BBC79F66
3CC28B2A
BC90880E
3D4E7254
BC1A9542
BD9CAD15
3C396F22
3D2352EB
BD13DD98
3BA6CA04
3D74DBE0
3DAF7985
3D2FDEB5
BE0A0E41
BD38E9F7
3AB0AF60
3CF9FCB1
3DBB341E
3CA78078
3B127914
3D88650E
3D0F51AD
3CA4E161
3D00F239
3DA51E32
3E04866A
3DBBFE7E
3CE6B617
BC3D987C
BCE96C40
3DAAAF36
3CE88DF3
BC7AD6CB
3BE39B45
3E0DD096
BC687097
BD4CA3E8
3C3B0A2D
3CAD905C
BCBE4474
3BB7457C
3D1FC8F3
3DA0B45B
3E048883
BC850375
BCBADE22
BABB4D49
3DB00BCC
3D6E392E
3D9DACEF
3C9B5419
3BEB5F5F
3CF11948
3D508701
3D58201D
BC9ABF34
3D877F6B
3D6BC2FC
BD32DB1F
3DE5DF22
3E052F3C
3D9B65ED
3BA26E54
3D3A3550
39D130E0
BD7E20CD
BD8276B8
BCE08073
BD831162
3CB29A1C
3C7C1DF3
3A52806B
BD610F0F
BC04167B
BD7B6998
BDA42F1F
BD393FF2
3C8750C2
3D20CF18
BC202B84
BD773F31
3D6AC216
BC076189
BBD2D44E
BD525354
BD43DAB6
BC881C2E
BD1DEBD9
BB3B5E0F
BD82D59D
BD799D45
3C78E7DE
3D7B634E
3C2BEAD5
BCF1C971
BC1DA9CA
3C7C8F32
BCE19B91
BD74FE7A
BD3724FB
BDA264E5
BD980885
BACF5B1D
BD8E8965
BCE0D888
BCF9A283
BD439581
BC6C1C1D
3D23DE61
BCBC6434
BB1F9485
3CD206C8
BD29D628
BBCA46E1
BDAF190D
3C68EE6C
BD0BBF51
BD12428D
BD8C2374
BC7B938A
BADC3372
BBD477BC
BB0B545C
3D1FB3FA
3B2DAB9F
BC8116EC
BD206D94
BD0C7C0F
BC736263
BD20AE97
3D164628
BD110907
BD562281
3D3D1EDA
3CFC419A
3D1003EF
BCE20685
3D44F7EC
BBC4CDFB
3D9FD502
3D35D356
BD4F82F5
BCE1EB42
BD421294
BD0F68BE
3B8D3283
3C02278D
3CA3E39F
BBF74470
3D4FF541
3C88051D
BD39B457
BBC3DAB6
BD553DEA
3C89EDC0
BBEBAADE
BD0D0FE9
BC3994E2
BCA17D28
BD57DBF5
3D9DFA01
BCD51B50
BC943BF7
BC8F2389
3D1701DA
BD727568
BC1170D6
BDD74E66
BC23A8E7
3D212945
3D088C61
BDA57D9E
BC14B381
BB827B70
3CEDC1A4
3D13F4AA
3CEC56D6
BD3EE0B1
BD1EF417
BBF8726D
3D76EE74
BA9D8C6D
BCC3B4F6
BCBB9CFA
3B2B4FA5
BCBC6866
BD86C658
3BBC7B46
BD4F91A3
3CADE871
3CA8CBD1
3D595BBC
3BBD4CFD
3B618266
BD04C7B0
BD7D07C8
BD804B7F
3BD740C4
3CDE1E2E
3C469F8C
BC96CC60
BCF9FA98
BD34794F
3CE36D22
3C9B1748
3C959C49
3D427200
3C0E10CF
3C2AC53B
BD28EF78
BD824C40
3CF71434
3C8BC383
3D34506A
3D639F77
BB918E32
BBF850DF
3D60C5A8
3C63608D
BCB7F173
3C4DC444
3CE92D56
3C834092
BA734507
3D1A2C67
BD4997C4
BD7D9125
3CDE785B
BD37C99B
BB7D4BF1
BD72B453
3B332CE9
BD3EB4A6
BAADEEBB
3B13532E
BC1FADB0
BBBBCB1D
BD93D103
3C7C86CF
BD0141EA
3D8B74DE
3CB5C183
3B90470B
3CE277C4
BC164628
3D9AB085
BCB4A234
BC797EDC
3D811DBD
3D75147F
3CA5EFE9
3D70A915
BD2FDFC2
3CEE1BD2
3D495E18
3D35D031
3C8EFFE3
3CE77F6B
3CDCEE18
BD98F9B1
BD34299E
BD78A3B5
BD966E01
BE01EFFA
BDE4BBA1
BE0B7AE5
BDE370CE
BDA35AC9
BE10578E
BDF9702E
BDADA900
BD8CA601
BD8866A1
BDE8BE2F
BB2222D5
3BE3A3A9
BD3C382A
BD55B35B
BDA7ECFF
BDCFE825
BD89A3D3
BDD9C1F8
BD6136E7
BA815E39
3D5219A8
3CA44630
BD0DD3FE
BCB621FB
3B204D12
3D8874C9
BD7AB756
BDC75E63
BCA31E7E
BD3228DD
BD213A0C
BD7B139D
3AA697AF
3D51D68C
3CBE39F7
BD2B5E53
BD6F6944
3D3BAA9B
3CA1D756
3D681883
3C0FBCA1
BCBAA583
BD95579B
BDBFA54C
BE034F83
BCD92FB2
3BC29BF1
BCE41701
BD4E0115
BCDE3758
BC0F6CF0
3DCB51BD
3DA88B54
3D8C1C1D
BC876E1E
3D72745C
3D708DD2
3BF0E90C
BD0AC4B5
3CDE4A38
3C73732A
BDB7C4E3
3BD5C747
3CDBA909
BC576684
3E07EDC8
3DC14D72
3DA40C84
BCB7CFE6
BC0BFC22
BC2CB429
3C2ED56B
3D5CB9AA
3DD53B4B
3D4FF21B
BC8C6717
3C1DA166
3D16A6A0
3D00E9D5
3D8A2A91
3D4C8DE3
3D26E654
BC8CEF67
BC890D5A
BCAE6213
BDA4DC23
BC3B40B3
3C571B04
BCFD7E46
BCBE5B85
3D88B32D
3D0D0892
3D4A43BB
3DD2FA0D
3DB0DA5E
3CBCCF29
BD753C58
BD08EAC0
3AF3ECCC
BCCF26AF
BA7A15DB
3D8D5AE2
BD23F035
BDDD3459
BC8CDC87
3C214489
3B9E12A5
3D240B78
3D34538F
BBCCEE5B
BD0FC82A
BCFFDC59
3B2EEA64
3D99CB68
B9902DE0
3BB66B61
BD6F74CD
BDBEE6FB
BD3F21B4
BC9170D6
3D82717A
3C1AED57
3C9F5382
3D1F6DB9
3D51FB40
BCA44849
BD1E2BD0
3C13D103
3D83E532
3B375EA6
BDA0A633
BD1579AF
3C8E29FA
3D31800A
3DFBD945
BD3023EA
3C3584B2
3C8A5CE6
3CD8E001
BAC0F020
BC864CB6
3D248B65
3D116228
3D0B2FA9
3CC68449
3A88D6D4
3C56A594
3D0C5A81
3D67C06E
BD343633
BCB2FCAD
3C798FA3
3CA0FB22
3CEF36F0
BCE8101F
3C6D84D3
3CD51F82
3C2F533F
3C53CFF6
3C1A3098
3D0EBAAE
3DCA0F4D
3D5CB46C
BBC4F7EC
3D451A87
3C30D520
3CA03E64
3D21FF2E
3C96C1E3
3D0725C4
3CACCF6C
3C9B0AB3
3D6A8006
3D94024B
3E178B37
3D9EFA61
3D6E392E
3D1F98B7
3D411905
3D8B8738
3D8400FC
3D779314
3D680496
3D88869C
3D94E1A4
3D407BBB
3D25FC7E
3DE775FB
3E1896DD
3E0E99A6
3E0C404A
BC36390D
3D2AB25B
3D9FB15B
3DF74ABA
3D963F57
BC66EA85
BCEDDCE8
BB478E9F
BD6B4741
BD2F4491
3D8262CC
3D2553AC
3D320A74
3CD25461
BB9C560C
3A4DC875
3D016F00
BC5AF4AE
3BB9A177
3CB3C1CE
3DBCF5F5
3E16E697
3D79389B
BC744913
BC63DA30
BD0AD9AE
BCD5BAB2
3D0280AE
BCEDB2F6
BC8B8CFC
3CB84BA1
3CB96D09
3D81DFB9
3D00474E
3C781A58
3DC7DED7
3D99999A
3D4C9C91
3D73D5BB
3DCBF8FD
3D3AFB7F
3D69680E
3CD117B5
BB5EE350
3D31C21A
3C9D5E4A
3D49D27C
3D9F5276
BBC3B928
3D6D6ECE
3D67BF62
3DC69403
3CF48C2E
3D28B4C0
3CF88B97
BB965F52
BD6DA986
BCF1D81F
BC5BE3C1
BB100C52
3D120D13
3D4DFCE3
3D04BF4D
3D5B91F7
3D082CF5
3D1B4AA9
3D2AA8EB
3DA50BD8
3D264B23
3BF4D7AE
BD93FE19
3C01450F
3CBBBE88
BC311C6D
BCB6D43D
3DB4866A
3DACD5B7
3D948777
3D83BFF9
3CEAE9EE
3D9A5EBB
3BA4CA4F
3C6939EB
3C7A54C5
3DB29D41
3D8FF5C7
3B2AC96D
BD24FDB1
BAAA8651
3D5BEF4A
BC5E3B8A
3C371759
3C0F9F45
3CBB16C2
3BFFF36B
3C723034
3C6A52F0
3CF9BBAE
3D9F498C
3CA72C95
BD726D05
BDEC5198
BD474214
BD5754B0
BD4B2FA9
BC340B35
BB078748
BD1CD5FA
BC3302F7
BD5CE4A8
3C3EE3D6
3CBF162B
3D4BD556
BD67B2CC
BD32452C
BC2D538B
BD0F1A1A
BD41DB01
BD8DDF87
BD801605
BDC0AAEB
BDEA5EFF
BBC36DA8
3D4CF9E4
3C612E84
3C62C12B
3BCFD8F1
BCD045FE
3D87B02D
3D9E1544
3D1E00D2
BC9949E9
BDA55001
BDC9057D
BD739E28
BCB0984E
3DAEA077
3DD49E02
3CE18CE3
3D80431C
BC0815E4
BD0B5BB4
3D1F1173
3D89D1F6
3D0D466F
3B9F4906
3CB3397E
BCCA5376
BDC031CF
BDCDE871
3C66D15B
3D8387DF
3C950119
3DAB7E4E
BC51E96C
BB150764
B8EAE18B
3D496894
3E0121AB
3CEDB941
3C813CAC
BCCF0B6B
BD85C572
BDC1BB8C
3CAEFB2B
BCE173B8
3CE73C4F
3D3BD48D
3DC4D877
3DA01798
3CF457C1
3E0E7E63
3D991B3F
3C5EA466
3C27CE10
3CBFE5C9
BC646CFD
3AF23897
3C4408D9
BD7C419A
BCBF26F2
3CC840E1
3D13F7CF
3C74666F
3C89118C
3D6C13BA
3CA79FED
3BFB19E7
BD3DD11C
BE18EE6C
BD8CA03C
BCC6DE76
3C7DEB53
BC5DD6E0
BD90307F
3D139757
BCCE831B
BD98D478
BD891E21
BD84FA05
BD1E68A1
B9E5A35D
3CB1BDE8
BC86CEBC
BD85AF6C
BDC4A277
BD152C17
BD361998
BD9AFFB0
BD24FDB1
3D0D76AB
3B0637BD
BCAD57BC
BC2D0C3D
BD664E48
BD50D38D
BC734938
BD1DBB9D
3D026EDB
BDA685DB
BD844C7B
BCED3F9E
BD606855
BD4DBF05
BC7BB949
BBDC2B0F
BC90624E
BD1CA9EF
BD37867F
BB083FD5
BDB1E753
BDA64DC2
BC059C8D
BD3F1950
BE06DCE4
BD6F533F
BD2D19DF
BD79BAA1
BDC366D8
BCD6605F
BD1A187A
BD4B0AF6
BD2582DC
BD4DF15A
3B22EC29
BBCD8559
3BAF89C6
BC481D3B
BD084D77
BCB32AD0
BD4CA1CF
BD6805A3
BD58B3F6
BC0C154D
BD2FFD1E
BCF67F4E
BC8357A3
392AEAFB
3D77AC3F
BD2CD5B7
BD11F601
3BD7A56E
3BD68837
BD015B14
BD907FAA
BDCBC515
3C85A709
BD41CF78
BC22B170
BB75E41D
3D59A954
3D3CD899
3C7F3F10
3C213C25
BD12630F
3C67FB26
BCBE963E
3CC44178
BBD0DCFD
BD629A5F
3DAA8A83
BCBF6E3F
BCE3582A
BCB964A6
3C8B9347
3C986339
BD9F56A8
3D375211
BCAEDDCE
BD7D987C
BD5B8130
BC92DDBE
BC81ADEB
BCA31401
BB7F7597
BCD462C3
BC097E99
3D08ADEF
BD1F8A09
BBB1A2A5
BDF127F6
BD4D2D45
BD176146
BCC6AA08
BD7111F1
BCD20D13
3BC8B439
3D06CFC8
3DBBA5E3
3D15CB79
BD5372A4
3D39B670
3D0D7492
3C81908E
BCD7CF5F
BD78609A
BD910B20
3C248733
BC838E2A
BD260A20
3A701FB8
BC66D9BE
3CB3B752
3D6350D3
3D6B94D9
3D3C4D23
BD0B7910
3BAB5808
B97FDA40
3C87442C
BD11D25B
BBCBD988
3A7E047D
BC1680E0
BCD93C47
BCDED4A2
3D017A89
3CCE1826
BBAFA2F0
3D90520D
3D93AC4F
3D164303
BD9ECAAC
BCFEFE0D
BD08DD1E
3A97E996
3C66A769
3B9D9D34
3C9641F6
3CBAC92A
3C9CCFAF
3D1B7CFE
3CD948DC
3D979852
3DB67664
3D9AAE6D
3D9F8876
3DA67E84
BD92B2C0
BD079F66
3CAA8438
BD260A20
BD0F42FF
3D4CFBFC
3D117F84
BC80ECFA
3D4111AE
3C0C9B84
BC7CFC40
3B9E8816
3C79053A
3D6E1156
3D7036CA
BD56C509
BD52D128
BCF2A9D6
BC550A89
BC4B1034
3DCEEC7D
3CBB3850
3BE74F2F
3D7D9019
BB957CD4
3C87357E
3C1C4114
3D090603
3D3163BB
3D504D55
3C0B7E4E
3D86B378
3D28166A
3CFD86A9
BCFE8251
BD8F7F4A
BD4BAD7D
3C52BF55
BD2DE43F
BD9CEE18
BDA2E4D2
BD28522F
BBC6045C
BD271690
3D7B2CC7
3D90F94D
3D4B1BBD
BCA788DB
BC839043
BDB7EBAF
3CB42891
BD08E044
BCB8E8EA
BC8092CD
3C231A4C
3DD85A4F
3DA8E68E
3DABDB1A
3E113B5C
3DE4028E
3D4408D9
BAA0902E
BD456D5D
3D3709B7
3C845DC8
BDD7D849
3C1B738E
3D0C9321
3CCACF31
3DB26FA4
3CFB71FC
3DA1E14C
3DBA7115
3D3DF091
3D312F4D
3D148BA8
3D7CAD9B
3CF924AF
BD3254E7
BD91819D
3D732592
BCFFB69A
BD77B6BB
BD3A7EB7
3D03FD50
3CE50E78
3D6C18F8
3DA12B5E
3D1B35B1
3D125461
BC145B6C
3C04944F
BD277E5F
BCBB9AE1
3D64DE3C
3CA37EF6
3D59274E
3D48E582
3B6F77F2
3CCB1466
3CDF2ECF
3D5EF955
3D795F67
BC90D38D
BDE6C7EB
BD4FD7E4
BBDDDF44
3C87CA64
BCDEB745
BD95DEDF
3D0B19A4
3D0A32F4
3B71C326
BDB45E0B
BC8A8F3B
3D77D417
BD57C808
BD38476F
3D3878B8
3D14E3BD
3CB4CC25
BC4E8D97
3A7FDA40
3D41BFBE
3D89E237
3D88A372
BD9C475E
BCF58C09
3CEC4C59
BD0449DC
BD2DA555
BCD59B3D
3DA21C04
3D3BD7B2
3CDAA92E
3D1F8D2E
3CDF676F
BC8E6080
BA3AE89F
3AF32379
BD50EA9E
3CA88F00
3C8B007A
BC5A87A0
BD267D78
3D75158C
3D53E708
BD290BC8
BD8A6D26
3C45974E
3C9DFFC5
BCFCF80E
BD0D013B
3D21FE22
BDA348F5
BD86B617
BC785511
BC940FED
3CBA51A0
3D7C115E
3D685EC4
BB701FB8
3BE52589
3D02D8C3
BAEB8950
BD9015C2
BD9D76EE
BBD04E62
BCEB3DD1
BDC90471
3C839043
BCABAE04
3B7A15DB
BBF9FCB1
3D22D0E5
3C7E4BCB
BD8243DD
BC78B157
3CA57A78
BBCDB7AE
BCA1C8A8
BD621427
BD2A36A0
BCA9C348
3CE2CDC0
3C97A893
BD0FCA43
3CEE8F2A
3CEB0D95
3BB2D0A2
BD04AC6D
3C40053E
3CEAE5BD
3D6B29E5
BD17E671
BD3318FC
3D166BE8
3D638EB0
B87776C5
3CAE3609
BC341BFC
3D251E32
3DBA4617
3CE30660
3CEC4A41
3CC2B303
3DAE325D
3CD93E60
3CA7F5E8
3C7BD6A6
BB98FE69
3D64EDF6
3DBF4F51
3DC9C4DB
3C80E6B0
B8C521DE
3DBBDDFD
3D542F62
BB20D34A
3D2239E7
3DE7B56C
3D35EE9A
3D02A455
3D3E3B04
3C506BBE
3CB2B12D
3D8B020C
3D349E02
3D19AE92
3D10507A
BBF14DB6
3CB60AE9
3D06705D
3C042FA5
3D01D085
BD015C21
3CBBA98F
BC54994A
BD177EA2
BC62B496
BD04DDB5
BD539B89
3B9CA9EF
3C0C1DB0
3D55E8D5
3D022BBF
3D70AC3B
3DBDB6E5
3D044D01
3C992429
3D940464
BA6AE18B
BD4E64B2
BDA59429
BB9B8455
BD08FA7B
BCE7BC3C
BB808C82
3DA37BD0
BBC84F90
B9913A50
3DC7FAA0
3DB85AD5
3CE91EA8
3D5013A9
3D338822
BCBC0A07
BE00D38D
BD429281
BD6DCF46
BD7D2FA1
BB738822
3D29728A
3B5ED289
BD1C4DA9
BC31D0C8
3DA43CC0
3D62A4DB
BAF47304
BD417657
BD30C459
BC65D5B2
BD6862F6
BD596A6A
BD793DD9
3BF98740
BBDA1230
3D6D5BEE
3C603B3F
3C219C9D
3C7F3F10
3D206FAC
3DA6E222
3D928390
BB1491F3
BDAF1CB9
BCC27632
3D0CBAF9
3BD8A97A
3DA0D90E
BD3A1A0D
3CE26916
3C8B5CC0
3D9BE5DA
3C60C5A8
3D0F733B
3D0C100E
BCBEAF68
3D3A4E7B
3D26CE36
BCA2C882
BCAD55A4
BC451548
3DD9A283
BD786E3B
BC20663C
BC29C993
3D9A3982
3D473CD5
BBD2567A
3DA177EA
BD44B09F
BCD7C6FC
3DA0980B
BCB65669
3C12EE85
BB9320DA
3D84DEC2
BD0AA433
BC2D2999
3C2FDDA9
BD1539B9
3B30F27C
3ABF1A5D
3D12C8C5
BD91D92B
3D157471
B9AE1049
3D501E26
BE00A244
BBA48F97
3D3A8933
3B54562E
3CA66341
BA6B67C3
3C832B99
BC0D3F18
BD91886E
BD4DA7F4
BCE38EB0
3CCD91EF
3B170F7C
3A1203A3
BD257D9E
BDE945FA
3C640C84
BA2569B1
3C382C2C
BC3ACF74
3D045BAF
BCE26F61
BAF7121B
BCCD0FE9
BD971D1D
BD49E881
3D1D7CB3
3D39E061
BD86887B
BC9D755C
BD2974A3
3BD19DED
BD176039
BC8856E7
3BC7192F
BD19A848
BD2A3162
BCD68837
BACF7CAA
BDAE9574
BD8780FE
3D4BE2F8
3B915BDD
3CDCCEA3
3D17C4E3
3C36AA4C
BC3BFD72
BC2E5FFA
BD1BC665
BCD640EA
3BD26FA4
BDAF5FD4
BD7E1B8F
BCA71151
BD3E1C9B
3D02B735
3BD99CBF
3C0C21E2
3D482279
3D07B45F
BCB07D0B
BA666CB1
3BF123C4
BCFA41E5
BC9B3AEF
BD5A1CAC
BD39A8CE
3C2EB80F
BC8C2E77
BBE1AC58
BC90B418
3C98E970
3DB440AF
BC125BB8
BBDD50A9
BD0EA183
3C9D388B
BD6C6EF4
BCB14877
BDAD5843
3B4DC875
3D68D866
3D4C2507
3D30196E
3D6D85E0
BAF40E5A
3C95DF65

