BD59934F
3D0357A3
3D0B6C7A
3DC6F156
BC94940C
BB5349BF
3CE0D66F
3D7B2FEC
3D94866A
BC9949E9
BCE2DA55
BD4C1765
BCA8240B
3D03C298
3CCD8FD6
BD1B9735
3E0AC7DA
3E544B2B
3E03A8A4
3E1ABC94
3DDC1D6D
BCDD8F93
3CE38C97
399FE868
BB15D0B7
BD846C76
BD8DB8BB
BC9CAE21
BCEB0D95
BA263305
3E175F2D
3E0AF577
BCCB5350
3D256FFC
3A36B6E1
3C47C526
BCDBA6F0
3B9EDBF9
BCEC02F3
3C8E4324
BD8C471B
BD3AC1D3
BBF08462
3DEFB6DD
3DD50A89
3DF6262D
BD39A283
BD3992C9
3DDF748A
BD123B36
BD870542
BD3B0C46
BDC848BF
3BB48D3B
3D9AE925
B6C9539C
BD7355CE
3D3B7415
BDB28848
BCA70D20
3DA33483
BDAAC216
BD0E3CDA
BC88B32D
BCA14F05
3CC7863C
BC7926C8
3C063BEF
BBF69CAA
BD52E2FC
BBAF5771
3D2DA986
BC2AE6C9
BD235F81
3C5A9867
BC83E426
3C2B29E5
3D7BB949
BC8E5604
BCA4DB16
3D9F38C5
BDC04EA5
BCC4AE86
BD81EABC
3D8BEF8D
3D454584
BE08F14E
BDC024B3
BDD2D6ED
BCAC9D17
BCBE707E
3E0C4370
3DC08073
3CCCFD09
3B89E343
BC9EE88E
BDA78C00
3D56E8B0
3D5CF462
BB451117
BCFFCFC4
BE18FE69
BD8FB43E
3D91BE6E
3D196A6A
BD1D94D1
3E0E58E6
3E03B3EA
B987CA64
BD3C1BDA
BCA834D2
3DB58751
3D720642
3BB9A9DA
BDEFD8F1
BDE8D866
BDDB95A3
3D1816AD
3C1934F0
3C1B8CB9
3C2BA7B9
BD0B2D90
BCE9424E
BDB31444
BCB2C1F4
3DA4E400
BCDCA6CA
BCCF6599
BDE1BB8C
BE1F533F
BE0E075F
BDBAA151
3B50BB6F
BD1D0636
BDC0D802
BDA20818
BDBB84DC
BDB1BC56
BD543394
3D3DAF8E
3C16073E
3D2871A4
BD353B4B
BDA3C643
BDFC5048
3C9D3AA3
BDBAA045
BE031056
3B4AB3EE
BD9E6CD3
BE168944
BD2B313C
BE07689D
BC884C6A
3D496AAD
3D8C75C5
BDA29C78
BD15347A
BE34A340
BE18F3ED
BD1F255F
BE2F4E44
BDA5D0FA
BD597D4A
3CCE8D97
3CB879C4
BDE40315
3D365FD9
BC761672
3D23D3E5
3D05F6BA
3C210E02
BC8218DF
BC27FC33
3CDA3C21
3C646CFD
BDC02752
BD4B5FE5
BDB9A416
BD9B04EE
BD8B4C7F
3E083B1D
3C224895
3A9E12A5
3DAC41DD
3B83BA34
BD55DE59
BDAA9EF5
3D7EA1C7
BD9DCB58
BE80A0B2
BCA15FCC
BCFC17A9
BE374602
3D6EC5B0
3D8486AD
3E3C7714
3DA4156E
3DA714FD
BC098B2F
BC6C7000
3D260D45
BDA1B21C
BB00E8C9
3C2B0425
3DB92429
3CA29E90
BC2BB01D
BCBC0A07
BD0D9B5F
3D1CCD96
3DBF1B69
BD753826
BD4A05DE
3CA0FB22
3D9CB1CD
3CDA22F7
3D58E64B
BD0E0547
BD13AA37
3CCE4EAD
3D191CD2
3D4841EE
3DF8F473
BC97D285
BD97FCFC
BE016766
BD9EC786
BDB4FB55
3CE01366
BB14A2BA
3DD138BD
3CD3DA73
3D1DE8B4
3DA3979A
3D841787
3D7E4CD7
3D88387E
3C23B14B
BD8B0293
BC9E279E
BD75ED8D
BDA0C0F0
BD157FFA
3DD33DB0
3AAD2568
BD40D3D0
3D881F54
BC921CCE
3D85564B
BBA78AF4
3C96CC60
3D1567DC
3C161805
3CDB7CFE
3CADBE7F
3CA63D81
BD990082
BD491E21
BD36EC5B
3D95A4AD
BDA24357
BCC75A32
BD799D45
BDB0BD88
3C8D434A
BD8F7A0B
BDD476B0
3D61B6D4
BDF6683C
BB55F99C
BCF3E250
3D029CFE
BDE97F20
3C9A176E
BD9C9ABB
BBB99913
3C8064AA
3D9E2047
BD28BB0A
3D144780
BD9E1199
BDBA5B10
BD0C5111
BC779421
BC4981BF
BDBC9928
BCCD9620
BE0BC72E
BDF2F449
BDAE4C94
BD10EFDD
BD9F2FDC
BE71E0C6
3E0796C0
BDF2F2B6
BDE955B4
BDE39D5E
3CB53501
3B1331A1
BBF911CF
BC8D8CB0
BD8A9047
3D8733EC
BD3F8338
3CB2C83F
BCBF0996
3B12BC30
3DAFDEB5
BDC1975F
BDA8869C
BC85EC3E
3CC5521A
3D7544BB
BE4AE2DA
BDDB3312
BC946E4C
3D069835
3D991362
BC2A4FCA
BD306E5D
3DDB163C
3DDA3337
BB29AC36
BBD14A0A
BD70563F
BD2CFA6A
3C423B79
BD1B6912
3DD90646
3DF65237
BDC21EA3
BB489B0F
BD81DEAD
BCBAEEE9
3DB05F29
3D2BDD33
BE03EC46
3C303E21
BD01259A
BD9EE45C
BDAAC53B
BD10F302
3C86C871
3DD03D9B
3D1CD0BB
3E21D324
3DE9F72F
BB92BC30
BCAB68CF
3D43DEE8
3DEC4695
3C279789
BDB959A3
3C4FA69C
BDC888B5
BD8DD8B6
3DD042D9
3C2C57E2
BC9A2A4E
3D183E85
3D86CB10
3D9AB756
3B17FA5D
3DA8C932
3D5B1B7A
3DF4959E
3D554B8C
BC291969
3D08A58B
BDD99ED8
BE0C2CA1
BD957BC8
BDCF5D35
3CB315D7
3C7E60C4
3D189CE5
3D332F01
3DEE7E63
3D62DB62
BD024E59
3D0E25C8
BE1E0A42
3CAE924F
3D4E2B06
3C1E8C48
3DAB69DB
3E1CC63F
3E1E132B
3DD888F8
BC006F26
BC916A8C
BB14C448
3D6A52F0
3D6239E7
3DBDE82D
3D2EF4E0
3CDBA4D7
3CCE0B91
BD865E03
BC9040C0
BD9A4CE8
BD6F33CA
3BD3176A
BC90E022
BD23736D
BBF89C5E
3D08850A
3DA8E25D
3C980B24
3D7AD7D8
3BAB0C89
BB37D417
BE088659
BD252589
BD7AE03B
BD378FEF
BD0319C6
BD63DE61
BCDAFAF8
3CA1A2E8
3D2A5721
3DAB441C
BD07F994
3C8E1B4C
BD4790B8
3CEBE37E
BD311F92
3D203819
BD9ABB02
BE076146
BD7179C0
BD6DA448
BDC3608D
BCF56649
BADB8BAC
BCBE8BC1
3CB47E8D
3D646499
BD1A73B4
3D032980
BD1BF163
BD8DBAD4
BDE69A4E
BDCDC3BD
BD9B34A4
BC2BF338
BD384EC6
BCF31099
3D7B44E5
BB693E1D
BCD9A522
3C1DF549
3CFBACB4
BD9E5860
3B7A69BE
BD98F4F9
3D00D4DC
BDA67514
BD120D13
BD8D18D2
BD3FCA86
3D3DED6C
3C6603D5
BD40F990
BCD6B229
BD003148
3C24FCA4
BD31D606
BC5E5D18
3CCFDB0A
BCD7D7C3
3CB48D3B
BD129BAE
BAA265F1
BDAFAC60
3C5B0DD8
3BDDACEF
3CEDD8B6
BD1F3A58
BD020818
3D3FB58D
BD026139
BD0151A4
BC40F883
BC8A936C
BD8B7D41
BD5E6688
BCB19E73
3CD3FC01
BC955D5F
BD13F39D
3C118E32
BD0C3090
BC2775FB
3D67D135
BDD626B3
3CF8854D
3D84F3BA
BD6F71A8
BC09C1B5
BD2C57E2
BC9B280F
BC8624DD
3C5E58E6
3B001F75
BCBC6003
BD20663C
BC90F94D
3D5FE436
BD4D5305
3C4204F3
BD044285
BD7A3A8E
BD71F8A1
BDACE91D
BDB0C997
BC9159C5
BC44E725
3DA0DC33
3D2AB68D
BD59D990
BD7B85E8
3D2615A9
BDA8AE75
BC79A8CE
BCD07C85
BD311E86
BD8682B6
BD8B25B3
BDD7C0B1
BDAC96CC
BD1B09A6
3D1F6556
3CB022DD
3B68EA3A
BD43C9EF
BD0E8A72
BD4B5DCC
BDEAD2DD
3D294467
BCC6F156
BD8920C0
BD4C89B1
BC21E3EB
BD28815E
3D97329C
3BC0DF59
3D97D524
3D098A22
BD94B59A
BD280F13
BD10C4DF
BB96CC60
BD35781C
BD80C1FD
BD8DA3C2
BD316095
BC6E0B0B
3DA97F20
3D3E058A
BBA137F4
3DD1A32B
3D2F405F
3D475A32
3C7CB924
BB346BAD
BD9E9425
BDC4638D
BD01A7A0
BDE3B8A2
BD9FCD25
BD7923A3
3D86F502
3D017870
3DDA0AD9
3CD2CBEA
3DD0624E
3D77952D
3D41F538
3D1944AA
BC7BF402
BDC6D82C
3C15CC85
3B29DE8B
BD312F4D
3D983BE6
3CFB6567
BD1DFEB9
3BEED02D
BD270D20
BDA3C969
BD183516
BD0389F8
BD1096BC
3C2C6046
3C2E2DA5
BC60C176
BDAE87D3
BDBEE2CA
BD1FA00E
3C947AE1
BCD20D13
3D609AAA
3C25C1C6
BCCE618D
BB267621
BB0D0892
3D125DD1
3D988872
BCFFE2A4
BCAADA34
BD9BCF4F
BD02A023
BC297E13
3D5BBE01
3C968944
3D1C4C9D
3D9DA9CA
3CD5219B
3DBC7608
3E0078D9
3D9EDA66
3D8747D8
3CD759EF
3D3670A0
BDA569B1
BD689EBA
BD550332
3C84F6E0
BCCE831B
BC1C90C5
3D5145D8
3B15F245
3D5B1FAC
BC43979A
3D05100A
3D47F349
3D604D12
3DC7FC33
3C464FDB
3BFD86A9
BD1464DC
3C24F00F
BD9E15CA
BDBB0DD8
3CD2DA98
BD37DB6E
BCBA365D
3C18F1D4
BB48DE2B
3C571B04
3E0BB060
3DAE685E
3DC9EBA7
3DD5EC81
BC84FD2A
BCB7110E
BCBFBDF1
BC899BF6
3C3FF045
BCA20BC4
3B231E7E
3BFDFC1A
3C5056C5
3CBB927D
3DEB11C7
3CE88BDB
3D4941C8
3D339F34
3CCD4AA1
BC2D2999
3DA17DAF
3D983F0C
3D6FA2F0
3CD5842B
BCA6655A
BDAB2420
BD4E0B91
3CFBF61B
3D347410
BB6E8D11
BC38023A
3C010A57
3D4FCF81
3D304AB6
3E0889C2
3D7B213E
3DC5100A
3D982FD7
BC356755
BDCD36B5
BDD18A01
3CA0D131
3D022036
3BD959A3
3C23DB3C
BD716A05
3D61C68F
3D877E5F
3DAA350D
3C8BB6ED
3D1B9735
3D957796
BC653650
BD109D06
BD39A283
BD006078
BA1BF9C6
BD0794EA
3AA88F00
BDBA4053
BC69EA14
3CC0B136
3DBCEB79
BD4EC95C
BCB458CD
BD1B413A
BDD0EF56
BE1369FD
BD35BA2C
3BC9F2FE
3CA17B0F
BDB83622
BC8854CE
3CEB6178
3C35243A
3D6D16B9
3E2B63D4
BB8A6117
BD30FF11
3CD4AE43
3D1B6F5D
BDA641B3
BD46D506
BCF0FE04
BB68FB01
3BB30B5B
3B781E8A
3D561D43
3D850BD8
3DB2AA5C
3E3EE782
3D7192EA
3BB31C22
3BC68230
3D1BD838
BD89C886
BCB5158C
BD286B59
BD62EE42
BD99628D
BC57D7C3
BCEFA3FD
3D98EEAF
3DD5A533
3D9C1F86
3D90D280
BBE88590
3DA3FBBD
3DB19935
3CC9DBEC
3DB29889
3A0C3F3E
BCF038E3
BD6366D8
3D2AAC11
3CB3F855
3D6C460F
3E19CA5C
3DD11B61
3D995810
BC5DE376
3D173B86
3D96D762
3DC0FECE
3CFDAC69
3D8C89B1
3DA37825
BCB78EE3
39DCB9AA
BBD477BC
3D423748
3E1C72E2
3DA4E7AB
BC1F0A1C
BD6F2D80
BC568C69
BC802E23
3D333227
BCE07E5A
3BFCC5B9
BCF3F749
BC96C615
3D7268D3
3DBC5F7C
3D46C333
BE1C02B0
BC94EA07
BD892B3D
3B7D2A63
BD3C9CD4
BCD5C747
BDADF8B1
BDEE379B
3B38AE32
3CB8DC55
3CE63A5C
38EAE18B
3C5844D0
3D3269E0
BD5BBF0E
BD742246
3C4C4AC7
BD16733F
BDF82236
BE17DF1A
BE20DC33
BDC48302
BD395C42
BD497FA6
BDC94142
BD7BDAD7
3D227393
3DE842FA
3E0605AB
BCBB8801
3C08D6D4
BCE56CD7
BDF58C09
BE16DDAD
BDE86E7E
BE148B65
BE0FC7A4
BDC3C4B1
BBB1B36C
BD6CEFED
3B9EC2CE
3DCF9B99
3D234224
3D9BA0A5
3DEF00EF
3C212B5E
BD6D18D2
BDA85879
BE2C49FD
BE5DD8F9
BDCD0785
BDF403DE
BD9E939F
BDE117F8
3D974257
3DB239A4
3E166F93
BCD4A5DF
BD455DA2
BCBDE615
BB211666
3D13AE68
3A191794
BDC8027E
BDD40810
BBEF9980
BCF7A2CF
BD646174
3DB89BD8
3D6705C9
3E086013
BCED6777
BD5F41AF
3D5FC7E7
BBD5E072
3B06F04A
3C8D9B5F
BD5F43C8
BC8AED9A
3C04662C
BC9B823D
3DFB4678
3E7045FE
3E3289DB
3DA9DB66
BCBB14A9
BD16F438
3C020E63
3B0FD9FD
3CD2F3C3
BC47F77B
BCD7F306
3D397679
3DA9BAE4
3D947F99
3E0461FA
3D8414E8
3CD2A412
BCA25B75
BD955369
BD8B7E4E
3CBFB374
3DA47ED0
3DF0385C
3D660B2D
3D8324C8
3E0790B8
3DA3265B
3C182880
3D8D6A9C
3DB10D39
3C2732DF
3CDC6E2B
BDB90082
BCC9B845
3DB8BB4D
3DE2D278
3E27E4DE
3E24A7F8
3D933440
BC07CE96
3E24DCEC
3E063305
3DE34FC6
3D39D0A6
BA131013
BCF29D41
BD63D70A
BD4A9692
BCA77E5F
3CF266BA
3DC57C91
3DEFE692
3DD2C062
3DDBD945
3E44549B
3DDF4ECA
BBA43BB4
BA324207
3C9ACFFA
3C18D478
3CC6327F
BD4E0FC3
BD911383
3B96030C
3DE76F2A
3D8C9646
3CA641B3
3D8ADF72
3DF9713B
3DD97D4A
3D43393B
3D0BDA94
BCA37EF6
BD8D4025
BDC20E63
BD3AE254
3CDD4413
3E06C227
3DA6CFC8
3DC8D10F
3DA053E3
3E12EE42
3DA70B8D
3D2AB8A6
3CCF00EF
3CC2DF0D
3D19157B
BD4DA1A9
BD321F6D
3D5EE782
3D89014B
3CFEB6BF
3D852B4E
BCD6A37B
BC9D7BA6
3E08919F
3DF90D17
3E0E96C4
3DEE6E22
3D3EBE16
BCC1743F
BDB42E55
3D513A50
3D5654D6
3DFC1616
3D8ACD9F
BC009D49
3D922856
BC2EE632
BCEB80ED
3BDE00D2
BD3EBD0A
BDAE8640
BDCBC622
BD3023EA
BD0F28C8
3D69AE4F
3DC193B4
3D7381D8
3DAFC58B
3DA9BA5E
3D93D295
BAAB92C0
BCD4FDF4
BCEC17EC
BDE35936
BD99BAA1
BD8ABBCB
BD24E486
3BF826EE
3C824D4D
3D7FE8EE
3D11BB49
3D26948A
BCAEDFE7
3D046845
BD1DFDAC
3C88919F
3C552C17
BD3FB9BF
BDCED56B
BDB2F33D
BD82A6F4
BD305D96
3BD9945B
3C2CA362
BD1FA54C
3CFEF391
3CA89DAE
BDBA5658
3DC3AD9F
BCC2AA9F
BD4156E2
3A5F58C1
BDF56B01
BD86D04E
BCD87725
BD547171
BD47CA64
3CFCF80E
3C0283D3
BD5816AD
3CEB95E6
3DCB6D01
3BB7E4DE
BD95D56F
3AA350D3
3C55F56A
BCAC215C
BDAC460F
BDA38FBD
BDE92578
3C135B92
3B9DD7ED
BCB8DA3C
BD8CB641
3BEC95C0
3DC54C55
BBD234EC
BD69CED1
3B489B0F
BCC9491F
BC05D313
3A224463
3D1B4AA9
BDD24207
3D10AEDA
BCDB1E9F
BD8FAA47
3CC28B2A
BD4CA70D
BC28B8F1
BD966C6E
3C68D973
3BAAB8A6
3C28C587
BD5A9A80
BC93165D
BC19AA61
BDBE4D5E
BD0B0C02
BC6D5F14
BD8259E2
BD0331E4
BCEDA017
3CAF46AA
BCD82129
BD7518B1
3D03B928
3CAD2BB2
BC938583
BD57891E
3D4DF58C
BCD04A30
3C362846
3C9B36BD
BD23EC03
3D3A99FA
3D071716
3D83400C
BD8C5650
3C804FB1
BC0BFC22
3BFF7DFA
BCF6AD71
BD2E6A77
BD4D35A8
3C8B30B6
3D2B6D01
3D0B05B8
3D27B1C0
BC623AF3
3CCE618D
3D67DBB1
BC6718A8
3BE4217D
3D8F251C
3BA0BA1F
BDAA77A3
BD3268D3
BD817CA2
BC8FD9FD
3AEB0319
3CCC1CA4
3D4101F3
3D7B84DC
3D862DC7
3D0A6656
3CDD3997
BBEA9E6F
BCDFDCDF
BBC1DB01
BB8DC11E
BA85F4A1
BC88094E
BD237AC4
3D602A78
3DF58F2E
3DEF598A
3CECC3E3
3D7FA8F8
3BEC17EC
BD27589F
3D65FC7E
BDC596C8
BD657C91
BD9B24EA
3D6019B1
BCE4B663
3BE0FC2F
3D620BC4
3D6C918E
3E332F88
3E3B40F6
3D9806F2
3DB8B8AE
BC421188
BD644630
BCE6BA49
BCAEF2C7
BDF89614
BDB59E62
BD6B7DC8
3DAD6345
3CFB43D9
3D3C0B13
3D82EE42
3DF4C1A9
3D069A4E
3D417FC7
3D8494D5
3D7F6C27
3C64430B
3D8310DC
3CBFC222
3D1141A7
BC0140DD
3D1004FB
3CE48840
BD38023A
BE126E54
BD28650E
BD9B573F
BDD93576
3D24399B
BD25EBB7
BD875AB8
BD8E66CB
3D38BAC7
3DB00EF1
BCB5610B
BD054AC3
3D305101
BE2A38FC
BDD479D5
3C8E3AC1
3CEC0D6F
3B6991FF
3CFF583A
3CACF52C
3DD9F905
3E0ABF34
3E43315D
3DA9D389
3DA2339C
BBF893FB
BD729803
BD092685
3CF65343
BBC55433
BC90B84A
BCD0203E
BD45100A
3D1B8562
3DBA1E3F
3DC00A7C
3DA205FF
3DB850DF
3D02ABAC
3D78BAC7
BD3F8983
BD53CAB8
BC89C5E7
BDDDC93F
BD00BCBE
BD8BBA99
BE04983D
BD16F75E
BCBCA537
3C5E9C02
3DE60A20
3D902257
3D28B19A
3C02F512
3D318330
3DF5FEDA
3DAF6DFC
3C81882B
BCC955B4
BDCFEDE9
BD4E92D5
BD87E282
BCE05CCD
BC5B1E9F
BCEC050C
3D5E785B
3D24473D
BD800FBB
3D613A0C
BADB2703
BAA9DE8B
3D055971
3CDE4E6A
BD2EF1BB
BCB8DE6E
3A81C2E3
BD29FE00
3CD0891A
BD8DEB96
3D7FCEB8
BD1EB95E
BD853F3A
3CD8A32F
3C2F965B
3BF5F4E4
3D571F36
BD65F740
3CE518F4
BC80B88D
3CDBEE3D
3CA51A00
3D413986
BCF27FE5
3D5D6170
3D060243
3D0BF1A6
3DFC9F73
3D4536D6
BD1A3C21
BD9E9D95
BCED41B7
BC7B19E7
BC3573EB
BD7DE615
3C7CE315
3CD83409
3E02CE89
3D5C4DA9
3CA84381
3D2DF71F
3D15A8DF
BDBB2FEC
BDF6555C
BE179E5A
3BCFB763
3D2DC1A4
3CB37A81
3DA04B7F
3D524D0A
BB525EDD
3DE4B3C4
3B96BB99
3CE85B9F
3CD85DFB
BCA7F5E8
BDC1E471
BDA0C5A8
BDA91D9B
BD50A56A
BD8DC3BD
BD229B6B
BBA67E84
3D27BE55
BCD3953E
3D58D478
3E116590
3D5A07B3
3D4B380D
3C896DD2
BCB226C4
BDE27286
BDB5896A
BB98BB4D
BB1118C2
3C42CA15
3C90E022
3DD96851
3DFE7211
3D354E2B
3C4BAF96
3C8BE2F8
3D732485
3DFB5419
BC014941
BE027419
BDE307F2
BDB9DA9D
37DA1A93
BD884407
BBCE464A
3E139DE5
3E1C1227
BD3E9318
BC92E1EF
BCF97EDC
3DB10343
3D247A9E
BD68B4C0
BE04BDBA
BDB02364
BBBF2B24
BD0C6D61
BDF0C0AD
BDDD1F60
3C28869C
3C252696
3CD66CF4
3D129BAE
BCAAE297
3DB5DE59
3CC4BD34
BD16DC1A
BCFA5094
BD9FA4C6
BC4E208A
BDF7FAE3
BD9C8084
3D757A35
BCC83EC9
BD62089E
3D333765
BC245D42
3D4BB906
3DB2DECA
BDE01F75
BC9A2A4E
3D1B5958
BC7C7608
BD083665
BB2C7DA2
3CE7924B
3B75E41D
3D3EC461
BD31C433
BDEA5DF2
BD938BCE
BD839D5E
BD1E8C48
BCE805A3
3CBCFF65
3CCF5B1D
3D59DA9D
3D01322F
3CABC947
BD5578A3
BC6AA2A1
BDDE742A
BD9DC0DB
BD891EA8
3B4C89B1
BD6616B5
BDA09DD0
3D0B6630
3BECBFB1
BCF0E90C
BD6A758A
BD10C0AD
BD5DA05A
BCDBD72C
BD116873
BDB8C198
BC5B61BB
BC9C347F
3CE09353
BD71E3A8
BDFE3758
3D5FA872
BDC4F6E0
BBF36695
BCECE358
BE2B912E
3C3063E0
BDA3A10A
BD7039EF
BE372B45
BD2E3822
BD91897A
3C9F4F51
37E27E0F
BD981F97
3D9B5287
BD285016
BD71FEEB
3CC68A93
BD417EBB
BDE805A3
BC83D35F
391A2403
BDB1F81A
BD7F77AF
39C4156E
3D845BAF
3D85FD8B
3DA07571
3C95C63B
3D070EB2
3DBF7729
BBAEFB2B
3D41D6D0
3CD48883
BBEE392E
BD91140A
3C42ACB8
3B1ACBC9
3D3ABDA1
3B8954A8
3B157CD4
3E04FA05
3CE99C7C
BC0344C3
BD86A444
3B6CD8DC
3D3008A7
3CCB7910
3D819B0B
BC4E9A2C
3DC6B2F2
3CBF1C76
3D2146A2
BD91CA7D
BD2809D5
BC254C55
3B1EBA6B
3C17891E
3D4301A8
3B9717DF
3D6400FC
3DD7D178
3D9EB207
BB8387DF
3D48EEF2
3CA2C669
3D39C94F
BCA98EDA
BCD15CEA
3AD0EDC4
3D6EA63B
3CFF92F3
3CAD85E0
3BD7E026
BD309B74
3DAE5FFA
3D7B688C
3D86A551
3D8E09FF
3C0ED5F1
BD267E84
BD009E56
BD35C7CE
BE21105E
3D4FD5CB
BBF14DB6
3D867275
3D8EC205
BD827286
3BDF0D41
3D020818
3D591687
BD04662C
BC47B02D
BB700EF1
BDC6C658
3BAA3AD2
BDD1E3A8
3D606962
BD2D82BA
3D9CDC44
3DDADF2F
BCAB3893
3CDCCEA3
3DA14163
3E06EF3D
BD6D373B
BD514E3C
BD1DA598
BDBA3012
BD8A1A50
BD8064AA
3D8A5376
3D3D6D7F
BCA34EBA
3DAE464A
3D7BDAD7
BB3A3012
BC0676A7
3D284274
3C4A6CA0
BDE1BC12
BCAF37FC
BDEE6080
BDAFD19A
BD5B3F21
3E02F406
3CB27CBF
3D4C1872
3D42FD76
3D84C0DF
3CF98D8B
3D535760
3BE90BC8
BC9C2E34
BDCA5D6C
BCA02108
BD6D17C6
BD85742E
BD0D887F
3DAC8DE3
3DFAE0C1
3CF99807
3D064FDB
3CCD7061
3D810F95
3D6FC04D
BD094D51
3CCC07AB
3C079C41
BD69E1B1
BCF80560
BDC5E4E7
BC8FD5CB

