3C0FD5CB
3CA67A53
3CF950B9
3D34256C
BB71800A
3C2C9F30
3CA2467C
3C6C679D
3C23B14B
3C95E9E2
BC703D14
BBEC204F
BCC662BB
3B8B6D87
3CC508B3
3CAADE65
3CD96C83
3D996313
3CF46AA1
3CF98740
3C391B3F
3BF8F041
3B9F383F
3CA8C155
3CACB85A
BCB79B78
BC2FBC1B
3C19E0E7
3D032B99
3CB79B78
3D554FBE
3D212D77
3CFF5621
3D1197A2
3C292E62
3C6703B0
39CBF2B2
3CE8F4B6
3CA41E58
3C8BFC22
BCD71D1D
BBB99913
BCFB8B26
3D7168F9
3CF4C6E7
3B263305
3B7CB4F2
3CA606FB
3C199568
BB41DB01
BD2603D5
3CD67558
3AC308FF
BC9988D3
BC0CDA6E
3B947065
BD1D1809
3BBD1245
BC0750C2
3A9F40A3
BCB0E1B5
BC654B49
BC80E6B0
BAE820E6
BC315726
3C80A5AD
3B5CA8E3
3C2B4FA5
BC8012E0
BC31BBCF
BBD26FA4
BB9C23B8
3D551B50
BBE8F29D
BB594079
3C58BE73
3C85729B
BC90B84A
BD27E0F0
3BE47560
BB9DCF89
BC53458D
BC054CDB
3BAC3A86
3CD56B01
BC093FAF
BC1157AC
3C14B381
BD081909
BBA48733
3CB341E1
3D344D44
3C0EA39C
3C9C0EBF
3CFF609E
3C1003EF
BBA2D2FE
3D3ECEDD
3C7D8F0C
BC291969
B70637BD
BC214489
BCE605EE
3CCCC250
BCEA2F49
BCACA9AC
3D060675
3D197B31
3BEB4E98
3CB0E3CE
3C8433D7
3CFD7C2D
3BEC6BCF
BCAA4FCA
BC3AE46D
3B8B4396
BCA72C95
3D12D235
BCA9AA1D
3C9D6063
BC0B502B
BC1552E3
3CCD0DD0
3B3673C5
3CA059A7
3D37C782
BCA75686
BC0AF3E4
BD3851EC
BD587E7C
3BA3486F
BBFE1DA8
BA5F9BDC
3C9146E5
BD05FBF8
BB7F7597
BC939219
BB0EBCC7
3C4792D1
3B7ECDD1
BCC62802
39052B4E
3BB04253
BD21101B
3C09C1B5
BCB44E51
BCAC57E2
BCD451FC
3C305FAF
BCE23D0C
BD3E5B85
BC81EEEE
3CBBD7B2
3D349E02
BC28869C
3CC330D7
3C8F96E1
BC6D41B7
BD24B44A
BD083FD5
3C19285B
BCB8C543
BD7112FD
BBFCD680
3B796E16
BAFD3B2A
BC29CDC4
3D1185CF
3CAD98BF
3CA936C6
BBB34E77
BB23F898
BC2DDDF4
BCA9C993
3CBB213E
3AE368F1
BCC2D6AA
BC740E5A
BC7DE2EF
BC017332
BC8F8C65
3CE09BB7
3A740E5A
3B0B86B1
BAC91080
3CBBD7B2
39E38A7E
BCC564F9
BAC0CE92
BBFB3B75
BCD831F0
3B1289DB
3CE95D92
BD245F5B
3BCC6823
3C869A4E
3C84C272
3BE429E1
3A36B6E1
3BC460EE
BD3AA25E
BCC50269
BD43B1D1
BD046738
BC9EE675
BC2E6C8F
BCAF5FD4
3B066A12
BC26E760
BD233CE6
BC98D8A9
3C988B11
3BAF9A8D
BD045BAF
BCE62563
BC251E32
3B0A3726
3CB293D1
3CBCB3E5
3D0C8EEF
3C86A8FC
BC35243A
BC37A1C2
3C178D50
3CADF2ED
3C47368B
BC41A049
BC0A7610
BCD8AB93
3CB71DA3
BCC91AFC
3D052A41
BA694EE4
BBDBF8BA
3C43979A
3B2D57BC
3BA1D756
3CC96EDF
3CC7AE14
3C15B78D
BB8D4BAD
BD19A1FD
BC4AA327
BC888B54
3CAE70C1
3B28F3AA
BC9426FE
3D719E73
3D15A3A1
3D34B839
3C5CC20D
BAD54110
3CA9563B
3CCB2FA9
3B6F5665
BCC284E0
BCBA6EFC
BC1EA572
3C779421
BD1A0F0A
3CB4F3FE
3C46CDAF
3B664B23
BBAD03DA
BCD65E46
BC3499D0
3C217B0F
3ABE0DED
3C8F0846
BCE15CA7
BAAC7DA2
BC931EC1
3CBE37DF
BC1331A1
BC207B35
BBB73D19
3C582FD7
3C362846
3CD39757
BCB6C58F
3CA96D4C
3AC3F3E0
BCFF36AC
3B8D759F
3BECA687
BBF8487C
BD016590
BC7DA405
BC0E68E4
BCBFEC14
BD387592
BD383CF3
BC758C09
BBBFA8F8
3D549E88
3C05BE1B
BD05DD90
BC93DB7F
BCB05D96
BCE57109
3C128E0D
BAB24207
BD2B074A
3B51A650
BC174A34
3B963DC5
BCB6D86F
3BBA732E
3D2BCC6C
3B5F7A4E
BD2C13BA
3C263305
BC21D756
BBF01FB8
BCDABE27
BD279464
BD4826AB
BC37F9D7
BBD76252
BD0DF480
3C42656B
3AB2E9CD
3D7229E9
BC312D34
BC9331A1
3C199568
3C6E8D11
BBD3F184
BCB6B8FA
BC96C615
BBE47DC3
BD2ED784
BC2DF71F
BBC5DA6A
3BB3354C
3CDEC5F4
BC505AF7
BC951E75
BC8348F5
3AA009F6
BCD538AC
B9A17B0F
BCB269E0
BCB50D28
3C969E3D
BC3152F4
3CE6E86C
3C83925C
3CDCD4ED
BC18C3B1
3AB9DC2F
3C378898
BC63F78C
3BABABEB
3CDF0D41
3CE15443
3BB6A61A
3C809918
3BFE9318
3CA14F05
3D17763E
BC26BD6F
BAF4B620
3D01EEEE
3C95C63B
BCE0A633
3C567FD4
3C95FEDA
3CA73B43
3C270D20
3CDD249E
3CCF91A3
3D1F6EC6
3C1D2392
3C9F127F
3CD8AB93
3A97A67A
3D47778E
3CECC815
3C8CCBC0
3CB81B65
3CDC011D
3C86D506
3D2E4E27
3C27B917
3CCF4A56
3D331D2E
3D487768
3D959685
3D4B6630
3B755DE6
3C739086
BC97FA5D
3C99806F
BC76A0DC
3AED3D86
3C9D755C
BC6E6B83
3CC94706
BBF1E4B4
3AD0CC36
3989E343
BC990F30
BC1CFDD2
BC775D9A
BD00841F
BBC0CE92
3D00D6F5
3C1D7FD8
BC2DEEBB
3BDE8709
3C2A0CAE
3CC50CE5
BC803EEA
BB532831
BCC71F79
BC02A993
3C6F911D
BC046A5D
BC78E3AC
BB102DE0
3D07229F
BB023854
BC8A0B1C
BC897636
BC3FFCDB
3CA57647
BCCF82F5
BB7CE747
BCD26959
BCE1CBCD
3BA3AD19
BBC21E1D
BD011905
3B5759EF
BCA82E88
BBA4B125
3CAA5615
3CE44FA0
3B6EBF66
3CF8B589
BCAC6EF4
BD13F5B6
BD0C7193
BC525248
BC3606B8
BC6EA63B
3C7151E7
BC609785
397BA882
3B4F7CAA
3C8D4563
3D0302B4
3B35ED8D
3B0637BD
BCCBC6A8
BD0C0592
3CFE8AB5
3C418F82
3BAE7D56
BD045CBC
BC5872F3
3C942917
3D026784
3C5E2260
3CCFF64D
3C280CFA
3D0ADEEC
BC2B0C89
3CCB89D7
3CAF7D31
3C17A249
BB9EA9A4
3BD0EDC4
3C8EF135
3BCA2553
3CD8A97A
3C9717DF
BBB2AF14
BC352C9D
BB69F6A9
3CED4C34
BBDD6170
3C1FCB0C
3C73B214
3C82730C
BCC24E59
BCDED289
3C507C85
3D4317AD
3CDF3F96
BCA6FE72
3B914B16
3C2E642C
3B93A711
3D00E38A
BD65A576
BB1363F5
BBBE9C88
BBADEEBB
BCA4638D
BC8902DE
3CD42C3D
BB591EEB
39E410B6
3C829069
3C0DBCED
3BDB50F4
3B87229F
3C8F7B9E
3B22B9D4
3C30B7C3
BCA96D4C
BC7AB53D
3BDED289
BC248B65
BCA6E547
3B25DF22
3C84F095
3C0B86B1
3C58409E
3C82D7B6
3C22E3C5
BA9DF117
BCF0435F
BD076E1E
3A1070FC
3C4BD988
BBE7E62E
BC2A6091
BC967019
3C84AB60
3C9AE2DA
3C3BB624
3CB2F662
BBBDBA0A
3C70CFE1
3C094813
BCA61BF3
BD3020C5
BC9B4BB6
BCA6D267
3BF8F8A5
BBCE5711
3CD00B46
3BD0EDC4
3C25B963
3C7A5094
3D1AB6D0
BBF91A33
BB8DD1E5
3B51D8A5
BC0D8234
3CB79746
BC84E832
3C0D972D
3BB063E0
3BCB7D41
BC0B75EA
3C76A93F
BB9289DB
3B2B3EDE
3B4E1C58
3C485C25
3CDF6988
BC58DBCF
BCD4E4C9
3CB30942
3C01F96A
3A82F0E1
3C84EC63
BC056E69
BCB7EB29
BBB17050
3C4347E9
3C810A57
3C67F2C3
3C535222
BAAC7DA2
3C3E058A
3D2EC9E2
3C628241
3C1B5200
3D0B295F
BC1A1FD1
BC800863
3C96AAD2
BB4D20B0
3B3C2763
3CDDC832
BCD4F7A9
BCC68230
BC092EE8
BCB9A177
BC35FA22
BC08C60D
3BB65A9B
BC440D0B
BCFB6567
BA954A80
3C1AAA3B
3CA087CA
BC8296B3
3B03A96D
3C7D933E
3CA4ACF3
3B920C07
BCA5CA2A
3C1EA140
3CE9D51B
3C9F03D1
39B34E77
BA9EFD87
BAA7A41E
3C9CAE21
BBD551D7
3A273F75
3D23E187
3B8240B8
BBEA960B
3C06A099
3CF67903
3C6785B6
3B232F45
BBB7E4DE
3C6EA20A
BC65FFA4
BBF49492
BB134268
BCB0A6FC
3CDF5276
3CD0EBAB
3D2E88DF
3A2FE60C
3C125354
BB095D0B
3C572368
3CD56F33
3D15C854
3D30C671
3CCB4070
3C70C34C
BCCF6DFC
BC4B5BB4
3C094C44
BA1AED57
3CF20429
3C96BDB2
3D12AE8E
3D486AD3
3C7BC1AD
3C0B545C
3D2C5198
3D17D7C3
BC6D8905
3C8841EE
3CDB2B34
3C7BA01F
3A82CF53
BB04406C
3B90FF97
3CC2EBA2
3C3B1F25
3C2C68A9
3C5F6DB9
3D3FFAC2
3D6E9681
3D1E02EB
3C309A67
3CF16F44
3C36E0D2
3C0DCDB3
3CBAE03B
3CEBF65E
3C55A9EB
BCA584F5
3CC45027
3CB8194C
BC814728
3D227D03
3C9C3EFB
3A067AD9
3C512CAE
BC33E9A7
3C087EBF
BAB5243A
3CED612C
3CFA3982
BC0E4324
3B3662FE
3BC0485A
BB946801
3CC37825
3D145D85
3CBCB3E5
BCB6C7A8
BC548CB5
BC18958E
3CBD05AF
3B9AED57
3CE8533B
3BEEBF66
BC3777D1
3C8E3AC1
BC8E1933
3B80064B
BB5E4C51
3C1B9D80
3BFDA837
BC310BA6
3BB1AB08
BBC3A861
3CCE63A6
3D3C9BC7
3C2619DB
3C86D71F
BC830A0B
BC61B4BB
BABF7F06
BC859642
3AD32831
3D09C1B5
BC5A4485
BAC9320E
BCC3E100
3C0FD9FD
3BD948DC
3CF570C5
3CA3DB3C
B9D801B4
3CA0578E
3D01F96A
3CD7D5AA
3C487DB3
3C5C725C
3A7C71D6
3B81FD9C
3D01C92E
3C3A2BE0
BCAC258D
BB50678C
3D1FA440
3D192B80
3BEC17EC
BC67967D
3C89AAA4
3BF0CFE1
39B0AF60
3B2DBC66
BC0982CB
BC8348F5
BBD4D402
BB066A12
3CCD24E1
3C852D66
3D48ACE2
BAE0A84C
BC6B5B2D
3CA1815A
3BA8DA7F
3D536F7E
3C7138BD
3CB05532
3BB5AA71
3CAD234F
3B19285B
3D27C5AC
3CCF1E4B
3C856E69
3D640421
3D51AFC0
3BBF65DC
3B3E61D0
BBCE91C9
3B1F9485
3C79053A
BC964C73
3CEAB14F
3C3B55AC
3C93E814
3CD801B4
3D0F0414
3C130BE1
3CAB51BD
3CE707E1
3CAF7F4A
3AD2806B
3CAAD1D0
3CB122B8
3CE62563
3CB79314
3D009F62
BD084B5E
3CBE76C9
3CC63AE2
3D1B24EA
3BF2B66B
3C93C89F
3D2F49CF
3CBD512F
BC797247
BCBCCF29
3C1E01DE
BB9D627C
BC009918
BBB9DC2F
3C863172
BC4AE211
BB446951
BC086595
3CEE58A3
3AD130E0
3CF7DFA0
BB94F69D
BC7C1590
BBD8B1DD
BC9D66AE
BCA42D06
BBABD5DC
3C560200
3C9081C3
3C9C5A3E
3C05CEE1
3BC96463
3CB400B9
3CE7C287
3C3D87B5
3D07DA1F
BC155F78
BD093A71
3BD14A0A
BC91EA79
BD3B7846
BC9FBE77
3B9CCB7D
3C7EB8D8
3C0E92D5
3BD3CFF6
3C1A7C18
BC9806F2
3D0F6167
3CD6451C
3C86E5CD
BCE1A826
BB7A15DB
BD106573
BD1A8EF7
BC9B64E0
3CB25F63
3CC6002A
BCA0A527
3C920C07
3CCBF2B2
3B2B81F9
BC04C272
3D6EFF5C
3D17AEDE
3CD8D79D
BC28BD23
3D0A5BD9
3C32745C
BCB417CA
3CA7DAA5
3B21CEF2
3C85FF1E
3D0D3BF3
3C1DE482
3C88BFC2
3D85CB36
3D513A50
3D486595
BB90FF97
3CD1F81A
3D319935
BB944ED7
3A848388
3CF980F5
3CD40896
3C6275AB
3C356B87
3D1D69D3
3D0D1E97
3D3D7B20
3C294BBE
3D1A3F46
3C423748
3C8800EB
BC3FAD2A
BB56B229
3D311E86
3D4FF328
3C54F15E
3D3C4E2F
3C98C3B1
3C4C1440
3C6C3116
3ADBCEC8
3CD8E432
3C66DDF0
3C5CA4B1
3C67CD03
BBB5F5F1
3CA12B5E
3CA9D1F6
3D08919F
BA870111
3D13532E
3C196745
BC5972CD
3C9682F9
BC3445ED
3D0D4CBA
3D71055C
3D295D92
3D1EA359
3CB864CB
3C913A50
3D14317B
3C931876
3CAD3A60
3D62CECD
3D29AB2A
3C71B25F
BA701FB8
BBC9D170
3C800C95
3D2BA062
3C572368
3C89289E
3CE1E4F7
3D097C81
3D152C17
3D7E9963
BBA12F90
3C8F6F09
BC5D8B61
3D11C6D2
3CC4E2F3
3C5C11E4
3CA5460B
3CA44C7B
BB7ECDD1
3C479F66
3D4D0BB7
3B44BD34
3BC9C90C
3C5A6A44
3CB74FF8
3D0DB9C7
BC03FD50
BA2C3A86
B925ACCD
3C35E95B
3C82949A
3D602752
3D49AAA4
3D04D877
3C5E2EF5
3D18E219
3D81D9F5
3D32C94B
3C89D8C7
3CFBE985
3C18C3B1
3CADA555
3C3B773A
3CAA8C9C
3D08D4BB
BB48472C
3CD06DD7
3D23FCCA
3C89D6AE
3D359792
3D8044AF
3D81669D
3CDAF07C
3D019D24
3D453198
3C976DDB
3D39E59F
BC55E4A4
BC036EB5
3BB1A2A5
BB4C0379
3B4BD124
3BB827FA
BC893FAF
BCC47A18
BBD29995
BB29691A
BD19A0F1
BD2E6645
BC8E3AC1
BD07B784
BC3C408E
BB5AE3E7
3B16EDEE
3C19029B
3BA044AF
3C480842
BCD0FA59
3AAED99D
BC55BEE4
BBED02CD
BCE02EA9
3B0E68E4
BC25CA2A
BC821D11
BB6820E6
3D04816F
3C615443
3C74128C
BB20E411
BB89656F
BC970B4A
BC62717A
3A58CB08
BCE66ECA
BD2A172B
BD2A7AC8
BC51B2E6
BD191EEB
3BB3354C
3C65E248
3C8348F5
3B82C6EF
3C3152F4
3C8997C4
3C398C7E
B9712C28
3C1E3001
3C7D9770
3BD0A244
BB8765BA
B60637BD
BCB4B2FB
BCA7C9DE
3CA8AA43
3BDADB83
3C4A0C28
3C86162F
3BF6BE38
BC78444A
BCC8EAC0
BC257647
3B8E4756
BBC83665
BC5E1199
BBEBD4D0
3B4942D5
3D38DE6E
3B446951
3D12146A
BB33C3E7
BB164628
3C29D628
3CA4E161
BCD12EC7
3B7D08D5
BB13FAF4
3C3499D0
BC48B439
3C6E45C3
3BC7FBAD
3CD96C83
BBEFC372
BC6BE597
BC40D6F5
3CA2DF93
3CF470EB
BD0C23FB
3A48472C
BCAD87F9
BB91A75D
3BBF444E
3C9F1066
3C10FF97
BCDADB83
BC5CBDDC
3CBB3A69
3C441DD2
3A1BB6AA
BC7F8A8F
3BCC3E32
BD0F6CF0
BC61B08A
BC809B30
3CB72E6A
3C8420F7
3BC58EEB
3CB69B9D
BC64E69F
3C845BAF
BC1C8C93
3C87852F
3D2B2F23
3D26EB92
3CCE5711
BCD12EC7
BC7C9FF9
BC85E80C
BC87D0AF
BBCC1440
BD0FECDD
BC1EA140
3AAD46F6
3C978F69
BC233376
3C4D9620
BC9AAE6D
3CD3048A
BC710236
BCBF4ECA
BD01F106
3C9CE6C1
BC810625
39B5ED8D
BAC2A455
BB8A3726
3C721709
3CC851A8
3C705EA2
3BAB7132
BCA7F801
3D0CFF22
3AE0A84C
BA94812C
BCABF983
3B1491F3
BC2569B1
3C1A06A7
B9AD03DA
3CF81E8A
3B20902E
3CE9D302
3D3A2596
3D16ACEB
3BFE2E6F
BC12146A
3C883BA3
3CE3C537
3D4370CE
BC897204
BD0B33DB
BC969E3D
3CA1E81D
BCCB35F4
3C9CA3A5
3CC9EECC
3C2A4FCA
3D20C06A
3D5F2CB6
3C9971C1
3CD44780
BB711B61
3C7355CE
3D25CA2A
3B89D27C
3A917D6B
BD2B96F2
BCADCD2D
3CA20792
3CBA860E
3D24ACF3
3C3A5E35
3D1A9867
3C629739
3D30B49E
3C8F4949
3CEA7CE1
3D3C664D
3C17C808
3D31BEF5
3CCB7F5A
3CD6909B
3CAEF4E0
BBFE6927
3BCC2507
BCE876E2
3B4D63CC
BCCEFCBD
BD52C6AC
3C67F2C3
3C4204F3
BCA87A07
BBA0663C
3CCD22C9
3C23F035
3C72C301
3CED5CFB
3D0FB86F
BD006291
BC0CEF67
BB01B21C
3AEFFE2A
3C6D1BF8
3C2B7132
3D344B2B
3CE006D1
3CF72713
3D43AB86
3CB24E9C
3D0BED74
3D101C0D
BC808638
3C79D2BF
3CC3419E
BBE04C06
BC48B439
BC31C001
BBA07703
3C406184
3B12684D
3CF73190
3CA28134
3CF2862F
3B925786
3D699D88
3C2BE6A3
3B5A4CE8
BC7416BE
3CA1BE2B
3B3C169C
BB180B24
BCCE28ED
3C78CEB3
3C86AD2E
3B9F9485
3CAE7B3E
3D06D1E1
3D05D0FA
3C35286B
BBA38327
3C3F8B9C
3D12D341
BC355AC0
BC42F406
3C0FE692
3BE6C8F7
3C0A6117
BCD9E1F4
3CF92AFA
3D088616
3C38F57F
3CC9539C
BCAB1D50
BC81322F
BB442635
BC951A43
B961719F
BBC5D207
3749539C
3A858FF7
3C36B6E1
3C1F8C22
3C48EEF2
BC5FB0D5
3CE87D2C
BC455433
3C47A398
3D229F9D
BAF40E5A
B8734507
3D34C6E7
3B9F8C22
3BFAB53D
3C36A1E8
BBD9945B
3C8A45D4
BCA3486F
3CCE0115
3C14F69D
BC422681
3CA2BE06
3D229952
3CC0724B
3C893533
3D097FA6
BB7301EB
BCC62802
3C2FFB05
BCE9424E
BC2808C8
3D070EB2
3D432874
3CD60E95
BBB5DCC6
3C045565
3D02EEC8
BCD1A21F
BD25C91D
3C2AD602
BAB3B320
BBA53FC0
BCF24D90
3D302928
3CD80A18
3CBCB1CD
3CE1D862
BC1E2BD0
3A9AED57
3C8DC769
BAC8ABD6
BB5349BF
BC6B4635
BC01F538
3C3734B5
BB81450F
BCC2699C
3D41CF78
BB483665
BCE3F573
3B84F095
3BCFC82A
3BC79703
3C802C0A
3C3B4D49
BC70A1BE
BA9656EF
3CA8C587
BBAF35E3
BB34E11E
BB2BB44E
3D041249
3C84662C
3C9A0275
3C95D0B7
3C671045
3BBC169C
3B7BEB9E
3C0CA3E8
3C7E1DA8
BBCC35CE
BCC8472C
3C39170D
3B9949E9
3C2CBC8C
3BE6D15B
3D6A1F8E
3D27EB6C
3CC9E450
3BE15875
3C916873
3CF368AD
3D352FC2
BC656CD7
3C6C5F39
3C541FA7
3CBE5754
BBF47B67
BC9524C0
3B662995
B95801B4
3BE4FB98
BBBC72E2
BBF6F8F0
3CC18D69
3C8F14DB
3CEA63B7
3D007464
BA90928A
39BBB1F2
39D130E0
BCB99913
BCA76B7F
3C9CDA2B
BB8858FF
3BC197E5
3B95E17E
BAB99913
3BBC0E39
3CCC4EF9
BBE8FB01
BC34E981
BBDCDB38
BC99999A
BC1B994E
3B70E90C
3CC16BDB
BC5A33BE
3BAAE297
3C0F14DB
BCAA9B4A
3C15FEDA
BCBD816B
3C8F9F45
3CE744B3
3D0B007A
3D12A737
3BA087CA
BBFC7A3A
3BD4024B
3AF2E05D
BCA88ACE
BABB6ED6
BD11CC10
BCAF4F0E
BCBA237D
BCEA2F49
BCBF876A
3D3825E1
3C73775C
3CFC6328
BC145B6C
3C2F294E
BA00B674
3C3A6EFC
3CA1E1D2
BCDFF823
BCA06EA0
BC1A73B4
3C618698
BC861848
BBCEFED6
3C6F8CEB
BC5245B3
BCFE4799
BC310343
BC80218E
3C186B9C
BC8B545C
BBE1719F
3AFD3B2A
BBD2CBEA
BCE703B0
3CE00086
3BD5B680
3AF9B131
3D29D40F
BCA36C16
BD06F47B
3BEA39C5
3BDA6E76
3C50E12F
3B538CDA
3C16AF04
3C38AA00
3C6E30CB
3CB24852
BC1DFDAC
3CEFCDEE
3CF59685
3ADC3372
3CFE77D5
BBD3415B
3C9819D2
3C62CDC0
3D1EA67F
BC88E79B
BCA30121
3C6CD4AA
BA9BF9C6
3CB2EDFE
BC1F98B7
3C0F68BE
3C8EEAEA
3B89DAE0
3ABE2F7B
3AAB2E17
3AFC0D2C
3CB6DA88
3CA235B5
3D3EB5B3
BC403361
3C4810A5
BC1A2403
3C858FF7
BCA62889
BC639B45
3CD1AEB4
3CECA46E
3CE1D649
BC68EA3A
BA90B418
3CB78CCA
3D042C80
3D48B32D
3C750E34
3CB09204
3C036A83
3D027FA2
3A666CB1
3C0A47ED
3D03B81B
3D1378EE
3CF66E87
3CFBDAD7
3C4621B8
BC46DA45
3BEF9980
3C9EC0B5
3CB89720
3C21016D
3C001B43
3C68BC17
3BDE657C
BC860BB3
BD029BF1
3C0255B0
B9C308FF
BC19B6F6
3C5A09CC
BC65321E
3C5041CC
BBF69446
3B8DD1E5
BC4A85CB
3D0BE2F8
3AA6B93D
BC80E27E
BBBD9019
BCB2873C
3C80FBA9
3BFFA7EB
3C776A2F
3D0420F7
3C27AC82
BBB5AA71
3CCB1034
3D1E03F7
BC9CE28F
BC1FE868
3C82F72B
BAEA1837
BC037718
39D887EC
3CE1A826
3C751266
BCBD859D
3CD28284
3B0CB4AF
BC8D2807
3B7C5048
3CAE3A3B
BC10928A
BD129670
3C302D5A
3B119EF9
BC902FF9
3C4A2984
3B662995
3CE23D0C
BC52FE3F
3C900E6B
3D1614E0
3CE9142B
BC8F51AD
3CBDBE3C
BC89331A
BC906680
3B9003EF
BBDF9379
BCC4B6E9
3C0C9FB6
3C893965
BC23443D
BBE3582A
3D043809
3CDE80BF
3D017226
3C80D802
3BC4DEC2
3D27674D
3D1987C6
3C2E2974
3C5C2F40
BBF0F9D3
3BC1333C

