BBE496EE
BC030A0B
BC6F6F8F
BA66F2E9
3BAADA34
3BA67621
BBE4430B
3B698138
3CB60286
BAF6CEFF
BC8B1572
3C86833C
BA7A9C13
3BA3CEA7
3B716F44
BAF47304
3C689A89
3BA8869C
3C175297
BB3E2F7B
3C23E39F
3C6F2410
3C30D951
BC5B9410
3C27F801
3B1331A1
3C508D4C
3C88C826
3AA569B1
BC5E9C02
3BAF0BF2
BC79FCB1
BC06B591
3C4D184C
BC42DF0D
3BFCB4F2
3C49795B
BBA79357
BB394531
BC7A3769
3C2033E8
3C92428D
BCCE4A7B
BCD1244A
3CAE87D3
3C9D3AA3
3BEDAA93
BC8B3F64
BCB27ED8
BCBADE22
3AA393EE
BCBC8C0D
BC456D5D
3C2E147B
BCB7D417
3C8EB67C
3C8DE2AC
BCB33333
BBF34507
BCA56DE3
3B083FD5
BC7BC1AD
3A0A265F
3C9D7BA6
3CA88052
BC38CB8E
BC788334
BC35F5F1
BC963993
BBA771C9
BBB9D3CC
BCBE1651
3CA91FB4
BB2350D3
3BE04C06
3C090929
BBBBC2B9
3C72A173
3CA7E953
39A52696
BC95592E
BCC200C1
BC9116A9
BCD64303
BC897204
BC433B54
3CBF8551
3CB4CC25
BC5B0143
3BF47304
3B3DEC5F
3C4FF64D
3C04DFCE
BCD6C93A
3C1A0F0A
BAA06EA0
3CAC4D66
3C153587
BB993922
3C45EF63
BCC07AAF
BC32D0A2
BC390EAA
3C5F43C8
3C130BE1
3C445027
BC001F75
3C8D9514
3BAF89C6
BC91FF71
3C801F75
BC41C1D7
3AE71477
3B864021
3BE28672
BBE1CDE6
3BA1C68F
3B615012
BB798FA3
3C376B3C
3C6E807C
BC7CBD55
BCC5B079
BBC814D7
BCD095AF
BB39FDBD
BC127914
3B9EA140
3C2EFF5C
3CB91F71
BCBD3A1D
BBC2D6AA
3B82CF53
BBFDA837
BBC47A18
BB100C52
BBE59296
BC68AB50
BC702C4D
3CB28955
BCAEF4E0
3C88D089
3C861A61
BC8AC190
3CB2C40D
3CB358F3
BC314EC2
3BB24A6B
3C3912DC
BC80841F
3B199DCB
3C0858FF
3C7F4FD7
BC07D2C8
BCE3FDD6
3CBF7AD5
BBB24207
BB2D9AD8
3C1D388B
BBA2552A
3B86CEBC
BBD4CB9F
BC4A42AF
BC98F3ED
BCB67C28
3CB57A35
BC97396D
BCD23D4F
BB19BF59
3CA66128
3A9EBA6B
BCCB4070
BC2DEEBB
3B638A7E
3C6B074A
3AE64B23
3C3CF91A
3C014D72
BC97C5EF
3CA18BD6
3B14F69D
3C2C3654
BBD35222
BC76837F
3C3A4D6E
3B8C2614
BCB88A8B
3C661D00
BA206EA0
BC8CD424
BAFABDA1
3C4EBBBA
BC71BAC3
BBF2D7F9
BC4D4AA1
BC6B0FAE
3CA2DD7B
3C9018E7
3B3AF966
BC0D2E51
BC7ACE68
BB9CA9EF
B928D21C
3B31CC96
BC9001D6
BC161C37
3C978F69
3CB79746
3C9E14BE
3CB4C3C2
3BAB5808
BBE53EB4
3CECF41F
3ACA3E7D
3AB502AC
3BF826EE
3AE8EA3A
3C9F6449
3C115BDD
BC11537A
3B96E58A
3CA415F4
BCCBB7FA
BCA7D242
BAB04AB6
3B94CCAB
3CF3D3A2
3CB80CB7
3C5EA034
BB9552E3
BBF4F0D8
3CC2DADC
BC68BC17
3ADFBD6A
BBABEF07
3B6BDD33
3C33636F
3C92684D
3BB673C5
3C41FC8F
BCA9478D
3BB3EDD9
BB2F1CB9
3B4CDD94
BCBB0C46
BC19524C
3C9DD5D4
3C6A28FE
BC724D90
BC753C58
BCD9BA1B
3C6889C2
3CA3DF6E
BC5A4CE8
3BA71DE7
BC315726
BBDE0935
BCB31C22
3BEEFA1E
BC756217
BCA3A4B5
BCCD61B3
3C12D55A
BCB8DA3C
BCD056C5
3C31DD5D
3C21A933
BCA2CECD
BB068BA0
BB26DACB
3C843E53
3BD12019
3B9D5A18
BC0E2E2C
3C9C8861
3BAE642C
BC97EDC8
3C375211
BCC43F60
3C679AAE
BC18AEB8
BC7CC5B9
3AC2A455
BC816052
BCD7F306
3C349E02
3C13FAF4
BCE38866
B9B0AF60
3CAA92E6
BC991DDE
BC41C1D7
3C8E581D
BC9BE8FF
3CA5B0FF
3BD1E109
3C5C5500
BBA1272D
BC1539B9
BCB254E7
3C1E5E24
3C57D7C3
BCC83EC9
3C1BF9C6
BC33E9A7
3CA3B363
BC65ABC1
BC1ABF34
3C826677
3CA2CECD
BC74F93C
3C3C2B95
3B801F75
BCA4D6E4
BC980B24
BBC892AB
BC128177
BCA6D267
3C371FBC
BBF07BFE
3C83A323
BC7F2E49
BC00B674
3C81B64E
398E1501
BCA12945
3C1B8CB9
3A5173FB
3CB72820
BC7DF3B6
39FC2EBA
BC3BB624
3C4F2064
BAF23897
BCBC169C
BCA81345
3B3D1245
BC58E864
3C7FF79D
BBBE6A33
BC24DF48
3CC07EE1
BBFD75E2
BC85729B
BC3ECEDD
3CCA9CDC
3C87AD08
3C4A85CB
BC1331A1
BCB6DEB9
3AD306A3
3BE53650
BC38F14E
3B98676A
3C42DADC
3BC2C5E3
3A61B4BB
3CAC03FF
BCD2CBEA
3C2D2999
3C8E25C8
3B7062D4
3BB9A9DA
3C6F06B3
BB196B76
3CB5D463
3CA9F9CF
BABD87B5
BC9DC93F
3A8E79AB
3ADA5DAF
BCB75211
3C02CF53
3C06E3B4
3C302928
3C685B9F
BB1E3433
3B1A88AD
BCE81238
3C998F1D
BC9A08C0
3AC34C1B
BB804966
3C784CAD
3C05FD05
BAA41A26
3ADBCEC8
3C3BE879
BCEF8056
BC109F1F
3C473259
3C3E48A6
3BD3F9E8
3BA7CE10
3C8E12E8
BB9845DD
3C175F2D
BB3EA4EC
BB9B8455
BA9246BF
3C775537
3BB6E936
BBA0B1BC
3BB1A2A5
3C99652C
3C862F5A
BC97FE8F
3C81B867
3B93B7D8
BB5B4891
3CB1E18F
3B75903A
3C07229F
3C8945FA
3C8487BA
3B159E62
3BF416BE
3C7F6901
BC067F0B
3C1ED395
3C5B6E50
BBCA8199
BCB39192
BCB2BDC2
3CAAED14
3CB443D4
BC8DC11E
3BF61ED6
BCE48627
BC08D2A2
BC8A0903
BC710ECB
B9B673C5
3C8A137F
BC8F66A5
BCD4CFD1
BB427200
BC5C0DB2
BC172CD8
3C372C52
BCA8D21C
3C9DB446
3C9650A4
3C0DEB10
BB2276B8
BC8FDC16
BC9D6CF8
BC30FF11
BC424C40
BC82FD76
3CA29A5F
3CB6F199
BCA600B0
BCB73B00
3BF05A71
3C351BD6
3C46A7F0
3C9908E6
3BA6E32E
3BE7FF58
BC0A697B
BCAE8E1D
3CC2A23C
BCA8CDEA
BC3D0E13
3B8B9FDC
BCC9D5A2
3BDB37CA
BB82BE8C
3BA79357
BCB384FD
3C0576CD
BC540EE0
BCA148BB
3C95F677
3B7E6927
3CAB6F1A
3C224463
3B4AE643
BC60E304
3BF7D30B
BC1131EC
3955E8D5
BBE00086
3BD490E6
3B81A155
3CAAB68D
3C1CB685
3C70068E
3BDD69D3
3B4D7492
BC40DF59
3B5FBD6A
3C6264E5
3BF648C7
BAD3F184
3BC3C18B
3C278AF4
3B4319C6
BC59FD37
3BE51D26
BC96E58A
BC826EDB
BC76B1A3
3C144242
3BDD93C4
3C45436C
3BC7863C
3BAA53FC
BC0CF7CB
BCCDFCE3
BC8E7792
BBDF0D41
BC654717
BC442A67
3C73B646
3CAEB3DD
3C104F6E
BC9E14BE
BC893B7E
3C291106
3CB1465F
BC079C41
3BA88F00
3C43DAB6
BC5BE7F3
BC39841B
3B9A2C67
BCA4ACF3
BC4A148C
3C2DAB9F
BC833A47
3C922318
BA3A1F4B
3A73CB3E
BC260D45
3C8E3EF3
BC4A57A8
BCCCEA29
BC3139C9
BBF80DC3
3A88D6D4
BC9D1915
BC2FFF37
BCCE9E5E
BB2265F1
BC8C75C5
BC8244E9
BC1C51DB
3BB61FE2
BC8F5A10
BC4BFB16
BCAD5BEE
3CB4C5DA
BCBA9F38
3AB1FEEB
BC931876
BC922FAD
BCD069A5
3C941E9B
3BCDA6E7
BCAF6E83
BC2F8DF8
BB8E4FB9
BBB45AE6
BCB37868
BC80A7C6
BC2365CB
3CA8C587
BC7F7597
3B949A56
3B40DF59
3BC99F1B
BB07A8D6
BC99BF59
3C37F173
3A263305
BB8448CF
3C3DD767
3CB61DC9
BC5D377E
BC8F53C5
3BF1BAC3
3B84D76B
BCD3D20F
BCB39E28
BB42D6AA
3C08F430
BC0B8F15
3C83F0BB
BCBE5B85
BCAF6E83
3C9C27E9
BC1131EC
BCD76252
BCB8BCE0
3B3AA583
BBF3FD93
3BDEB0FB
BCBCC4AC
3CA63305
BC6C2481
3B015E39
BA9C7FFE
3C87F66F
BC998AEC
BC61D649
BCC0D2C4
3BD16335
3B54FDF4
3CA98890
BCBD3E4F
BC928E0D
BC52D44E
BC2C929B
BC64712E
BC41333C
BC449342
3C33FEA0
3CB5525D
3C6746CC
3B9AFE1E
BBDA4CE8
BB10C4DF
3C273F75
BCF1EAFF
3A36B6E1
3AF861A6
3C80CD85
BCDED070
BC706706
BCAE6213
BC551F82
BA5D82FD
3C734938
BCDAE1CE
3A51FA33
BC25B963
BCA00E28
3BDDACEF
3C9CBAB6
3C716B12
BC2369FD
3B8CB4AF
B9473ABD
BCB636F4
3B9717DF
3C8010C7
3C5898B3
3C070542
3C8C9753
3C6A1C69
BCCCCCCD
BCA237CE
BB84406C
3B97396D
BCB7824D
BC1A2403
3BEF911D
BCC7CB71
3C2BFFCE
BC945D85
3C2C68A9
BCA72431
3C4CFAF0
BC0305D9
3BD9274E
BCE0C176
3C449BA6
BCD857B0
BA4B6C7A
387BA882
3C86A8FC
BCB52652
3A96BB99
BC2C0C63
3C87B353
BC4D4AA1
3CA9E0A4
B96496EE
BC11793A
3C69C023
3C9EF0F1
BBCFBFC6
BB8155D6
BB95A6C6
BCA1A501
BC2C3654
BBD7B635
BC4FFA7F
BC755150
BBF20642
BCAA172B
3ABC59B8
3C06594B
3BD7060C
3C867AD9
BC4193B4
BCC10731
BCC9EECC
3C802C0A
BB7B86F4
BBFA0514
BC8882F1
3B356755
BC76D331
3C43B0C4
3C570E6F
3CAD87F9
BCBB341E
BCE1B8ED
BC86A099
3C6B0319
3A29DE8B
B9AF1CB9
3C1888F8
BBFA69BE
BA723897
BC97CA21
BCA3C643
3C5A0169
3C7C7608
3C5F9BDC
3C743C7D
3B18A223
BCA4B125
BBE53EB4
3C4460EE
BC9D2179
BCBB83CF
3C84AD79
BC0D1D8A
3C48D5C7
BCAB191E
3C48D9F9
3B8A697B
3C82235B
3B6EAE9F
BBDCD2D4
BA2B2E17
BB71D3ED
BC498A22
BCC5AC47
39FB224B
3B502470
3CA2EE42
BC72B23A
3BD95140
BCCCD317
BCA79789
3C175F2D
BBEABFFD
BB2222D5
BBA400FC
BBEB7026
BC00A17B
BC18F1D4
3CCABC51
3CBA7DAA
BCBEBBFD
3B828C37
BC246E09
BC351373
BCBAF102
3B48EEF2
3AA697AF
BC34677B
3BCFAEFF
3C8986FD
39CF9E38
BC1D388B
3CA8CDEA
BBF7121B
BCD6A9C5
3C8941C8
BBC1CA3A
BB9D5A18
3C9D909F
3C916EBD
3C33BFB6
3AEE6B83
3CA71BCE
3C494706
BB762739
3C89A459
BC86DD6A
3C5438D2
BCFCA42B
BCAF6C6A
BC49081C
3C53953E
3C9C25D0
BCED9168
BC099392
3CA68901
BCC03361
3BE3150E
BCB17050
3C89E55C
3BACEAAF
3C7EF391
3C8E9F6B
3A97635E
BCAD0E56
3C0FF328
BBDAD320
3CBEF8CF
BCBFFEF4
3CB09A67
BCD50A89
BB9DB65F
BBBEE808
3C15464E
BC35243A
3AF08462
3C1F4D38
BB6F672C
3CA1A0CF
BC244418
BC529132
BB1070FC
3C478E9F
BC2821F3
BC586EC1
BC61C9B4
BC7826EE
3C64EF03
BAA393EE
BC95EE13
BC5F71EB
BB9F0E4E
3CBDDB98
3C2426BB
3C32BFDB
3CC64BA9
3B2515CF
3C8CA81A
3C9374BC
BBAF78FF
BB936C59
BBA1CEF2
3ABFC222
BB9A9974
3C8A0F4D
BC0D1D8A
BCA2FCF0
3CF0B8D0
BCAD7B63
3C61719F
3C7FB04F
BBF4BE83
BCBD5779
BBA42AED
3B669F06
BCC23D92
BCE4FDB1
BB276102
3C8CDC87
BC803AB8
3B3EA4EC
3CDA682B
3C4F355D
3CCBBA13
BC91E647
3C5F6DB9
3A9C7FFE
3CAEBC41
3C990082
BC550EBB
39CE0B91
3CA38B8B
BC95EE13
BB937D20
BC71ED18
3BB7670A
3C775D9A
BA6C7432
3C756A7B
BBE0B0AF
BC764CF9
BCBDDFCA
BC2C53B1
BC370AC4
3BA25D8D
BC15E9E2
3C9A415F
3CA86D72
BC86C43F
3B2686E8
BB345AE6
3C6670E3
BAB6D86F
BBEC7C95
3B577B7C
3C03126F
3CB634DB
3C92C27A
3C813661
39A20147
3AF6CEFF
3B81908E
3BCCA2DB
3C055971
3A2137F4
3BA9D628
BB3124D1
BCA8F5C3
BC4A148C
3C11BC56
BCB14014
BCB85A4F
BAB39192
3C9AAA3B
3C2B4FA5
BCD4024B
3C13293D
3C5CB578
3B875D57
BC3D76EE
BCED6FDB
BCB5B0BC
3C30B7C3
BC252696
3BD5842B
3C4A2121
BC681883
B9F2BECF
3CC0E5A3
3C2AA3AD
3C3D7F52
BCAB68CF
BCAFD977
3BA43351
BC1D883C
BC6E73E7
BC9C3CE2
BCBA8C58
BC50917D
BCACF0FA
BA90B418
BBFADF2F
3C97C5EF
3C42C1B1
BC9AF7D3
BB5A1A93
BBDEFC7A
3BD63CB8
3C47A398
3C4ACD18
3CA9DA59
BC84A2FD
3C347410
BCD117B5
3C84BE40
BCB22D0E
3CAE275B
3C1C022A
BBF483CB
3CA749F1
BC9B1748
BCEAAB04
BB1CF56F
BCA78F26
3CA6C5D2
BC98E326
BC1EA140
BCF6FD22
3C8BB4D5
BCBB42CC
3C50BFA1
BBDE1199
BB3D6627
BBF765FE
BC40485A
3C2619DB
BC7E5860
BCD8409E
BC3213E4
BCBE186A
3B1E3433
3BC0F020
3C4D9A52
3B4532A5
BCA85447
BCD0E560
BCC9AFE2
BA1A2403
3C93165D
3C5FE32A
3C4050BE
BCABCB60
3C4258D6
BC007BBB
3C1C9D5A
BB374DE0
BB878FAC
3C9A005C
3B8882F1
3C0023A7
BC324E9C
3B1E44FA
3CB5FA22
BCD9B1B8
3C28A82A
3C02DBE8
BB82A561
3C0958DA
BCC2FE82
BA2BB44E
BB96E58A
3CB86B16
BBB851EC
3C9422CD
BB562BF1
BCA5E56D
BC8739B0
3C3E7297
3AE88590
BCD4866A
BC026245
BC4126A6
3C30A2CB
BCAF76E6
3C57774B
BCBB9064
3BD83C6D
BB4404A7
BB98AA86
BCD2C9D1
3C7C7A3A
BB23C643
BC8791C5
3CAE3609
BC8FF759
3B0B9778
3CADC098
3A03126F
BCD2DCB1
BB938583
BBCB5BB4
BCA5D6BF
BB9F5169
3CB0AF60
3CB721D5
3C2C2DF1
3C8C5C9A
BBE64B23
3BBEDFA4
3C6BEDFA
3CB358F3
BA0919F0
BBBAC711
BC7A54C5
BCB269E0
3C6785B6
BCCCAF71
BC70C34C
BCC1BDA5
BC7865D8
3C5F7E80
3C007BBB
BC5B445F
BB2C18F8
3C7D7A14
3CC286F9
BB9E236C
BCBE22E6
3C9697F2
3C900608
3B462E4D
BBEB356E
3C5816AD
3CBA6480
3C878317
3C6DA661
BCC15098
3C8281BA
3CA8AC5C
3CBF93FF
3C1A5EBB
3C4EA6C2
3BB3A259
BC289332
BB75D356
394C78EA
BC8E5E68
BCC35265
3C9960FA
3C1F59CD
BB202B84
3C3CF0B7
3C92684D
BC8BFA09
BB8ACE25
BCA044AF
BBBAD7D8
BBA24463
BB8BFC22
BCA3033A
3C129670
3C9741D1
BCBD6A59
3C99CE07
BC59CF14
BBFCF80E
3CB762D8
3C8255B0
BBB228DD
3C6F1BAC
BC9BA5E3
BBE043A2
BC2682B6
3CA007DD
BA1070FC
3CC75A32
BC21A501
BC419C17
BC58C6D6
BAE60807
BC7BC5DF
3B9F83BE
BCAB8A5D
BC762739
BB9CED0B
3C2D2136
3B270D20
BCAEBA28
3B810A57
BCA8A82A
BCAF5DBC
BA195AAF
BC968512
BCA64A17
BAE30447
BB89B952
BC91C6D2
3CB1012A
3A2AEAFB
BC0A47ED
3BC6D613
3B61A3F4
3C3B01C9
BCC6A7F0
BCBD6E8B
BCC09A24
BC52E947
3C1973DA
BCE20685
BBB5ED8D
3A3D449A
BC8F8C65
3BD4F590
3C0F29D4
3AFA3769
3C0711D8
BC46C54C
BC4AB820
3C446951
3C05510D
BC2671EF
BCCF6BE3
BBA02321
3CA4B125
BAC1333C
BCCC89B1
B83CBE62
BB84D76B
BC421188
3C80A7C6
3C9AF9EC
3B74623D
BCE2845A
3C8676A7
BC282624
BBAC9F30
BB41FC8F
3C2D96A7
BCCF0521
3C1717DF
BC502470
3BD716D3
BCB9CD81
BC53CBC5
BCDDB121
3B04E832
3B740E5A
3BCB6C7A
BA5B2703
BCA1C25D
BBFC7A3A
BCBE5D9E
3C8637BD
3C7455A8
3BE874C9
BC60CE0C
BC51ED9E
BCD27C39
3C83B3EA
BC7BA01F
3C1363F5
3BB6E936
BCA5742E
BCF1715C
BBA3B57C
3B20902E
3BB2B778
BC3C6EB1
3C809B30
3B84F8F9
BC855971
BBAD362F
3BA07F67
BC47F349
3C138152
3BFA2F06
3BAF46AA
BCB1AF3A
BC2109D0
3ACA1CEF
BC972ABF
3CBDBA0A
BC5D0D8D
3C953155
BB5FEFBF
3B3BF50E
3C89BB6B
3CA60914
BCABE271
3C1C2C1B
BCAAE297
BC46B8B7
3CBCB5FE
BC92FD33
3C139EAE
BB949A56
3BAEFB2B
3B97635E
BBC16590
BCC8DE2B
BCD2C5A0
3C48D196
BB6D2CBF
3C69A6F8
3CB7B070
3BD76252
3C539DA1
3C7A9C13
3BB2C83F
3C12EE85
BC3BE015
3C8E68E4
3B747304
BC7F609E
BCC7EF17
3C5EA034
3C052B4E
3C779C84
3C4ACD18
3C503969
BC656473
BCE7C287
3C5E5D18
BCE6E654
BBA23C00
BC4CFAF0
BB39346A
BC38FDE3
3B686402
3C18244F
3CA25D8D
3A83FD50
BCAE6EA8
BC164A5A
BC4636B1
BBFE3F36
3BE81883
3BB58080
BB3A3012
3C2B606B
BCD65E46
3C6DD484
3C9E7D9A
3BDE19FC
BCD69D30
BCE6772D
BC53AA37
3BCBAF96
3C87BDCF
BCD3C361
3C169A0B
3C5C1616
3C3DCAD1
BCBE596D
3CA3C212
BCA86F8B
BCC8C2E7
3B9C2C1B
BBC02F30
3BC436FC
BC3AE46D
3C7A4830
3B9A9974
B9CB6C7A
3C9A5871
3CAF7B18
BBDC011D
3BC9D170
BBEABFFD
3C25119D
BC665387
3C99DECE
3C965D3A
3B18C3B1
BC98D8A9
BCB5C7CE
BBB3C3E7
3C59DFDB
3BFA82E8
BC928390
BCB01217
BC48216C
3CAD8A11
3CB7EF5B
BC304EE8
BCE657B8
3C17C808
3CA7913F
BC9D4739
BCAAB8A6
3C900C52
BC671CDA
3B817764
BC6B80ED
BC80474E
BCC5B292
3A8F861A
3BA85CAB
BAED5F14
BB5BBE01
3CB7A1C2
BCAD666B
3C317482
3C8E23AF
BBD6451C
3BE25C81
BCB65CB3
3CB4BD77
BC8EB463
BB5F7A4E
3C577319
BCA0E842
BBCC7086
BCD4BCF1
3CAAC322
3CB547E0
BC6121EE
3C4E2D1F
3C8DEB10
B9A4A05E
BC8984E4
3CB26E11
3C0D92FB
BC3CAD9B
BC719503
3BBC6A7F
BA1DCF89
3C3B9064
3C094C44
3C8259E2
BA35AA71
BB438F36
BC34677B
BB621965
BC701FB8
3C6EED89
BB9E8816
BBE807BC
BCEBAADE
3C4892AB
3CA4B125
BC2B2181
BC81C4FC
BC7605AB
BC497D8D
3C3A0621
3BFF5C6C
3C87F66F
BBB1CC96
BC7AF428
3C9AA822
3C9F5382
BB6A4A8C
BCBF4880
3BC7C0F4
3C2D362F
BBB2D0A2
BB33E575
3C81ABD2
BCAE1EF7
3C8C23FB
3B0333FD
3C254C55
3B8B32CF
BC9D4B6A
BC1802C1
BC3CC294
BCA82624
BCD388A9
BC480842
B950AAA8
3CA6ACA8
BC46759B
BA2CC0BE
3B00E8C9
BCA34656
3CA63D81
3C854478
BC99F5E0
BC376B3C
B97DC161
3C5A87A0
3BE27E0F
3BF6837F
BC8C8ABD
BB238327
3B1BD838
BCD6E697
BCBEAD4F
3C2F965B
3B8A2EC3
3C7C5CDD
3AC996B7
3B15BFF0
BC08F862
3C84BC27
3CB6A1E8
BC2F5771
BB32FA94
3BFC829D
BBCCC469
BC81D3AA
3C553049
3CA328FA
BC9986BA
3C8BDCAD
BA854CDB
3C0BB4D5
3BD3953E
BCA1F299
BC28EB46
3C108E58
BBF14DB6
BCD38AC2
BCA9F384
3A969A0B
BCC8D5C7
3CA50D6B
3B0F2171
3C900A39
BC4814D7
B9F23897
3BCA686E
BCB70692
3BC12AD8
3C11E647
3BD46F58
3CC532A5
BBD2AA5C
3B254824
3CC42203
3C2F4F0E
3CBEB7CC
3A7A58F7
BC26B0D9
3C306812
BBA43351
BCE72FBA
3C9C8EAC
BC4E8D97
BCD7A787
3BDFF823
BC230DB7
3B6E392E
390D8EC9
BB732379
BBD5AE1D
3C4F8940
BC5E82D8
BC634331
BCB42CC3
BBEFCBD5
BC8D0CC3
BC4C6823
BC84C8BD
3B17B741
BC926202
3C513943
3C858DDE
3BB074A7
3B924F22
3BFB1184
BBCB5BB4
BC89D495
3C8E5604
BC9B024F
BB230DB7
BCB1209F
BCB32F01
BC932724
BCD347A6
3C9B089A
BC90F0E9
BCAB4528
BB8A1DFC
3B2BE6A3
BC96872B
3CAD3416
BB26CA04
BB8711D8
BCD58213
BC91B824
3B08722A
3BD0917D
BB052B4E
BC96E7A3
3B58127B
3BB56FB9
3C47607C
BCB0531A
3C92B1B3
BC94E5D6
3C822574
BBD373B0
3BFF5C6C
3CB8CDA7
BCA708EE
BCB53719
BC9BFBDF
3C39D3CC
3ADD3FE2
BCA31C65
3BE4E26D
3C9611BA
BCD22A6F
BCCD26FA
BAB13598
3CBBB1F2
3B57CF5F
3C7D8277
BC89BF9C
3ACB07D1
BCA178F7
BC923A2A
BB309E99
BCE48C72
BCCF4624
BC8533B1
3C3F5515
3CA66773
3BF6A50D
BCB4E54F
3C93D31C
3C89FA55
BC8B4BF9
BB376F6D
3C092AB7
BAF21709
BBD84D34

