3B6C636B
BD143287
BC28869C
BBED5F14
BCC67382
3C608AF0
BB92A305
BD82EB1C
BD1E6794
BD5A8156
BD64AE00
3D01A36E
BC83BA34
3CA749F1
BD6B1B37
3CA908A2
BD9D334C
BD87F130
BDBFC32F
BDE1919B
3B245D42
BD090D5A
BD28661B
BD9A93AF
BD2E6320
3D5D15F0
BC90F734
3CE15CA7
BD108A26
BCA50939
BDB33765
BD060568
BD7D188F
BDE3AD9F
BCA9E6EF
BD122B7C
BA4D423E
BD3EEB2D
BC3E6E65
3D660807
3D5AFD11
3B5B8BAC
BBA337A8
BD8F9B13
BD625743
3B41DB01
BCFD5CB8
BC19DCB5
BD89FA55
3BFC3F81
3D5DF00B
BCABDC27
BCAB430F
3DDBDE83
3CB16A05
3AE4B87C
3D923359
BD07B56C
BCE40A6C
3C2515CF
BD63B14B
3B5898B3
3C16A6A0
BC00841F
3CF16B12
3C86A099
BCF3ECCC
BC8D25EE
3BF3FD93
BC7DDA8C
3D74D163
BC6B0319
BDB8305E
BC0B1572
BD612514
3A6E8D11
BC88B978
BCF3A798
3D59567E
3D348D3B
BD54D1E9
3C93BE23
3D263411
3C148DC1
3C0FDE2F
BC557FFA
3CE11DBD
3B933A04
BCC03BC5
3CA0168B
3D8F13CF
BD2789E7
BD628134
3D234763
BCB9C737
3D737A81
3DA8F9F4
BDB04578
3B1F83BE
3C2BEAD5
3CDAFAF8
BA77B9E0
BC3DA943
BD598D04
3D88711D
3D75B5FA
BD5A7F3D
BD499D02
BD1FA227
BBAC0831
3DA07A29
BC9D0636
BD7FD60F
3CB5EFA6
3DA2A130
38A5ACCD
3D47F130
BDB6E2EB
BB1C6F37
BD1E071C
3C957471
3DB18E32
3C284BE4
3C0E3AC1
3C1274E2
3C9E2585
BCFBE554
BC336BD3
3D02F2FA
3D869F06
3D6E1262
3D2070B9
BCC766C7
3C5A37EF
3CF1001D
3D2E8188
3C1CE4A8
BC14DD72
BD48A7A4
3AD62BF1
3D82E44B
3D0FF21B
BB4D9620
3DCF9F45
3B9C1B54
3D7CF5F5
BD48FA7B
3C907D91
3D7E8577
3E0C17EC
3DD4434E
3C8E1D65
3CC4E2F3
BC695B79
BCC09C3D
3D800086
BD8D02CD
3D7E974A
3DE08744
3DBE19FC
BD7BC3C6
B8388CA4
3D02480F
3D16ADF7
3D000DA2
BD621EA3
3C88D4BB
BD5F3F96
BC84449E
3DAEC9E2
3D87C7C5
3C1F05EA
3D4C88A4
3C329A1C
BD5A5DAF
BD8DB37D
BB0E8A72
BD4E368F
3D5C9C4E
3C40DB27
3B5CB9AA
BCEE1DEB
BCD6D3B7
BC01450F
3D816B55
3C8AFC48
3C958D9B
3D7D31BA
BCF6AF8A
BC993F6C
3D5DF330
BB170F7C
BB75D356
3D95D13D
BC93A4F8
3CD18B0D
3CA9A5EC
3C63AC0C
3CFD1BB5
3DC154CA
3D602FB6
BD3457C1
3CCB9ECF
BC0CB07D
BC7DF3B6
BD3C9CD4
BD9FEC9A
BD8307F2
BD98A7E7
BD1451FC
3C4A9692
3B35BB38
3DBAB10C
3DA333FD
3D97B0F7
BC01E8A3
3D8188B1
3CED00B4
BCFBCE42
BD4ECD8E
BD294574
3C81D191
BD942891
BDD1A8EF
BCC054EF
BCB499D0
3DE1AA3F
BCD0203E
3CA6FE72
3B004103
BC8A6762
BC8F4D7B
3D386C22
BC120C07
BD7177A7
BD0182ED
BC4F67B2
BCB8CDA7
BCDF15A5
BCA64A17
BD0D3177
3C971E2A
3D7E4FFD
3CF10236
3C574D59
3D357929
3B6746CC
BDF9B4DD
BD959DDC
BDA79789
3D3647BB
BC94F052
BD1EDD05
BD0A0B1C
BC34A665
3C24D6E4
3D039ABF
BC0BC59C
BD5F223A
3B127914
BDA1B7E1
BDA2D6AA
BD941180
3D4384BA
3D7210BF
3C73A57F
BA749492
3CCC4695
3CA3CC8E
3CB868FD
3D2F6B5D
3D1CAD15
BC3E2F7B
BD8023A7
BDB33FC8
BC11B824
3CBF24D9
3BE68E3F
BD1794A7
BD3677F7
BD4880D8
3DB21AB5
3D4039AC
3BD3F9E8
BD1AA2E4
3D320C8D
3D7A0E84
3C8DC337
BC8C34C2
BC8954A8
3D698AA8
3E0718EC
3CA599ED
3D851090
BD719C5A
3C2A4FCA
BCB17EFE
3C38561D
BD492685
BD575E20
3C4308FF
3D347629
3CA41C3F
BD71044F
BB45EB31
3BA30DB7
3B73ECCC
BD03EA70
BD00303C
3A9203A3
3D3662FE
3D078855
3D8BFC22
BD359FF5
3D7BE122
BD14141F
BD3401C5
BD12F1AA
BCC0D2C4
BDA9E5E2
BDC54D62
BD3419E3
BD59E519
3CDC7EF1
3D308249
3D095183
3BABD5DC
BCC10B63
3D8536D6
3B95208E
BCC6C11A
3D4ABE6A
3B06594B
BD0FE36D
BD0F14DB
3D09C2C2
BB33C3E7
3CA87C20
3D2789E7
BBE70C13
BD453C15
3C7D8277
BCB8E6D1
BD453198
BD87FA1A
BC9A3B15
BD79207D
BBC1EBC8
3D4BED74
3B537C13
3CF89C5E
3CD20AFA
3BC27200
3CA615A9
BDBA7E31
3AD844D0
3D75D463
BD86E654
BD8B81F9
3BD77319
3C2832BA
3B285CAB
3D650E78
BDB2D44E
3C5655E3
3D71D606
3C9A8EF7
BC823209
3B9E4D5E
BCFFAE36
3B1118C2
3C0B007A
3CDBCEC8
BD286B59
BD92DECA
3C007358
BD819221
BDAD948E
BC917721
BD29E3C9
BD23FFEF
BDD5903A
BCA6655A
BD5F5382
BCD1C3AD
BC704578
3BCF7CAA
BCE1C582
BDBF5BE6
BDD05C03
BD9AC4F8
BD6F2C73
BD48D196
3CA1FF2E
BD089F41
3C8B4E12
3CD6494D
BC85CEE1
BD03FD50
BB7C2EBA
BC658601
BA9DCF89
3BB31C22
BC909071
BCDD0B74
BBBDFD26
BD8D9B5F
BC6A4229
BCCB48D4
3BE34FC6
3C168512
BD478A6E
3B094C44
3D5C8649
3CE670E3
BD0637BD
BCB1B9B6
BC546B27
3D41B110
3A5173FB
BD26362A
BD51B930
BC2426BB
BB876E1E
BD2A36A0
BD490A35
BD00841F
3C8563ED
3CFBDAD7
3C9F0E4E
3D36A50D
BC0E5C4F
3D0F3DC0
3C9B3F21
3BCDF267
BD0E8965
BD8213A1
BC3F37B9
BBC61523
BD50FB65
3BE75793
3D2F1562
3D4460EE
3CBF93FF
3BE0DAA1
3D355150
3C354196
3CB3CC4B
BC00A17B
BCA7F801
BC3D1245
BCC51330
BA7C2EBA
BBA51E32
3D1A6938
BCDA554C
3CCE2F38
BD57DAE8
3BE5B424
BC562BF1
3C81B21C
3A4A1CEF
BBF66A55
3B3C9CD4
3CC408D9
BC870B8D
BD3B5BF7
3C33BB84
BBC97529
3C2D2DCB
BC5A8BD2
3C385E81
3CA1AF7D
3CCE1A3F
3BE7685A
3CE3C105
BC57E026
BCB6933A
3C823C86
BCA19C9D
BBBEE808
3B1949E9
3D1C12F1
3B858794
3A684274
BB9A2403
3C4254A4
3C3F5515
3DDB44E5
BC4F6380
BBB26BF8
3AEDA22F
BC865F96
BCBB44E5
3D2EB80F
BD266ECA
3D93AE68
3C90C910
BD121145
3D235611
3D10A351
BCB810E9
3D4B3F64
3D34F616
BC8A4A06
3BDF3733
3B2FB3B7
3D3CAEA7
3D2B4E98
BC421188
3D17720D
3D08094E
3CE2C775
3B89331A
3CBB2BBB
3BB90A78
BD19817C
3CE9BBF1
BBF4F0D8
BC962068
BD8E5365
3C62F380
3CAAED14
3D0D5736
3BFD9FD3
3D410300
3D768BE3
3D358080
3BFBD274
3CAAED14
BB729D41
BBAD70E7
BC9F83BE
3AD6909B
BCF533F4
3D092147
BC02E01A
3C29B8CC
BC5D65A1
3D1E7EA6
BC01387A
3CF457C1
3D166E01
BC93964A
3C283B1D
3C9A9542
BCD0EDC4
3D81ADEB
BD003DDE
3C13708B
3DAF0C78
3CB395C4
BC73CF70
BC23DB3C
BCB02F73
3D0954A8
3D980BAA
3C2F1455
3CC4C597
BC80D3D0
BD28BB0A
BBDAA92E
3C93DB7F
3B1B413A
39356755
3D167FD4
3C06B9C3
BC3CE421
3C3A3876
BCBD0397
3BB777D1
3BD37C13
3C35B707
3CFE3F36
BD1DB014
BCF19935
BC40BDCB
BCEFE932
BCB649D4
3C396AF0
BC728416
39AA64C3
3CC2D278
3B84C6A4
3CB52C9D
3C80C954
BB3D449A
3CDB9A5B
3CBC18B5
3C0BB4D5
3D14D834
3A00B674
3C52E515
3D3D87B5
3D055A7D
3C6707E1
3CB9ABF3
3DACF7CB
3DAB1141
3D26E979
3D3BD167
3D703AFB
3CF168F9
BBB7457C
BC1C9928
BC46B8B7
3BBCBE62
3D888484
3D1B5A64
BCC768E0
3D737EB3
3C90C910
3C7A3FCD
BD16CA47
3C45F7C6
3D6E87D3
BC4DC012
BB2E5365
BCD5BEE4
3C0EE6B8
BC21511E
3CA02D9D
3CB22D0E
3D70AF60
3BB1A2A5
3D00FFDA
3D5186DB
3D58904F
3D47E176
3DD763E5
3D219008
3C158538
BCEC84F9
BC272218
3BED45E9
3CE68C26
3CA0C8CD
3D643BB4
3C6F0F17
3C8D0460
3C824B34
3C9EA78B
3D2E04C0
3CED117B
3D3D5BAB
3CF7F067
BBE6F2E9
BA29DE8B
3CC779A7
3C8750C2
3D2C1C1D
BC647992
BCECBFB1
BC356755
BC6E2867
BA8E79AB
3C22834D
3D0461FA
BBDF04DE
3D1E0935
3C5D0D8D
3C0C825A
BD07EF17
BAD5842B
BC185272
BC90B84A
BDBC371E
3AE0C9DA
3C47863C
3C68C47A
3CFF8013
3DA3EC03
BC9BE4CD
3A4308FF
BBE9DD7F
BCB4DCEC
BC6EA20A
BB83C298
BAB6F9FD
BD0F9E38
BCA326E1
BC66D58D
3C2DD9C2
BCA22F6A
BD0765BA
3CE3C105
BCBD5779
3C7F3F10
BC7CE315
3CB5AC8A
BD083CB0
BCCFF002
BD344B2B
BD51DEF0
3B6E392E
3BA643CC
3C43E74B
3D539970
3B306C44
3C6F0282
3CFBCC29
3D122B7C
3C001B43
3D44C8BD
3D5CDB38
BBB8B695
3A893B7E
3C43C18B
3B95AF29
3D07368B
3B554110
3DB56862
3CC59B80
3D0EA6C2
3CE29521
3D027D89
3C077EE5
BCEC5F39
3D209AAA
3D89FD7A
BC04F095
3CB6D00B
3C11F2DC
3D91F46F
3D2D2029
3D74E337
3DA93C8A
3CCB09EA
3BA0C283
3D29984A
3D823183
3C01B21C
3C3124D1
3DB2DD37
3D62046C
3CEAE9EE
BBE8EA3A
3D2BFA8F
3D31F9AD
3DBB9E06
3D905101
3D50C910
3D73FC87
3D196207
3D46DF83
3D3D4174
3D324A6B
3DB8B503
3DDC74FB
3D86106B
3D7C2FC7
3C8724B7
3B611DBD
3D48A9BD
3C9FBC5E
3CE0DAA1
3D997B31
3CFA00E2
3CD2F1AA
BAC5EB31
BC0CB07D
3DA034F4
3D79A6B5
3D91A869
3D5FCA00
3D417332
BD01B003
3BE71477
BB497529
3A61F7D7
3C60EB68
3D129025
3D235D68
3C5DB984
3CB8AC19
3C7B43D9
3D4B72C5
3D657647
3D48F96E
3DA1D430
3D09E237
3C44AC6D
BC861E93
BC67BC3C
BDF5EA68
BC5666AA
BD08EFFE
3C733871
BB4F1801
3C9EE88E
BBDC5D64
3B9C347F
3D30AE53
3BB380CB
3D4C1EBD
3C866E44
3B4E5F74
3CB254E7
3BAC18F8
3C22AD3F
3D21B5C8
3D924C83
3D8E2542
3D8BC409
3CCE8FB0
3C86A6E3
3DA15B14
3D07F66F
3D60B4E1
3C8FBA88
BC687097
BC873BC9
3ABEB5B3
3D509396
3CE4388F
3D513405
3D2B91B4
3D8E73E7
3D4D4995
BCCCC250
3C7A4C62
3D5A4378
3C74A98B
BD300BCC
BD9D95DD
BD612D77
BCDCF894
3CF96180
3D8AF9A9
3D57518B
BB2686E8
3B63FFEF
3D5D6BEC
BD3BF940
BBE3A3A9
BD36CEFF
3C538045
BD2D2BB2
BD7B6BB1
BCDEB314
3C39884C
BBCBC05D
BBCE24BC
3D922856
BBB70260
3C6B9E49
3C2F4278
3D0435F0
3B49A77E
3C7B86F4
3C4814D7
BD3AEAB8
BCF3ECCC
BC4F1C32
BCA2EE42
BD9A5B96
BD821A72
BCB00DE5
BC81A7A0
BCB315D7
3CD5F99C
3CDA33BE
3C541312
3C6C7000
3C5D15F0
3C5C9C4E
BB753C58
BB3EE808
BDB6E2EB
BDCF850E
BDAC40D1
BD5FA872
BCEEA854
BD11904B
BC864239
BD0999DD
BC6C7C95
3CF3929F
BC98B2EA
BD445996
BD3E3194
3C09D6AE
BDB99C39
BD7064ED
BD2770BD
BC90ECB7
BCC621B8
BD8DC3BD
BD635C5B
BDAF301F
BD7D6E8B
BD2059A7
BDA1FF2E
BD583516
BD6D8D37
BD75FA22
BD269271
BD3BBA56
BCB9C305
BD92F2B6
BDC626F6
BDA704BC
BD5BBCF5
BD601EEF
BD9B8F58
BD70403A
BDCA58B4
BD8583E8
BD0F8A4C
BD95CA6D
BDAA19CA
BDA862F6
BE0BF22C
BD8759AB
BD02491B
BD7225B7
BD2222D5
BD88E92D
BD9455A8
BDA50A46
BDB20B80
BD2032DB
BD8AAC11
BDDB762E
BD36188B
BDC82279
BDD0624E
BD695C85
BC9476B0
3B1ADC90
BCD566CF
BD467BE5
BD92378B
BD362307
BC6E45C3
BC237692
BD3383F1
BDE1882B
BDA310DC
BDA96F65
BDA6466B
BD723FEE
BD6AB8A6
BCFAE792
BC99F5E0
BBEAAF36
3C2E642C
BCC92791
3C29C12F
BC051A87
BD0C6D61
BD8C636B
BDCC8FFC
BDB3E575
BD5FB3FA
BDA386D3
BD105D10
BCE87F45
BB3790FB
BCB328B7
BD45E0B5
BCC6A5D7
BC17FA5D
BCF5A533
BCE2ED35
BD91B585
BDC90A35
BD1E108C
BD97DB6E
BD1A9110
BD317EFE
3A656042
BD3D88C2
BD5C8DA0
BCB1A8EF
BC9B60AF
BC87AD08
3BFF8EC1
BBC9D9D3
BD8FBA02
3BB23140
BCD492FF
BCF6B1A3
3C9E29B7
BC06F47B
BD1159C5
3B7F7597
BCD0A45D
3C5C6E2B
3D118C19
3BC64778
3CAD362F
BBFE5860
BC38CFC0
BD43FB37
BCF85F8D
BCC58256
3B968944
3D096CC6
BCE368F1
3C2EFF5C
3D6F1CB9
BBFC2657
3C37C350
3C423748
3D77585C
BD0E8FB0
BD1D0636
BC605469
BD43DEE8
3C32F230
BC9F0C35
BCB74795
BD064452
3C5C65C7
BAB178B3
3C64C511
3C66E222
3D3893FB
3D2C6AC2
3D0470A8
3CD3D20F
3C64B87C
BBBD1AA8
BD353501
BCC2EFD4
3CE9D302
3C23BDE0
BCA467BE
3D827286
3CA77814
3B07A8D6
3D51AB8F
3D48F862
3C9D3240
3D8A7371
3CA58D58
B90637BD
3C889C1B
3D1389B5
3BBCF0B7
BB93C03C
BC3F3387
BCF61459
3CA40D91
BCFC3D68
BD3D1DCD
BD215DB3
3D0B039F
3CF7878B
3C7F327B
3CDBD513
BBBE5109
BD09D063
BC2187A5
3C74A127
3B8F53C5
BCE991FF
BD6EF4E0
3D03686A
3CFD694D
3CAA4980
BCF648C7
3C8CC35D
BA9203A3
3C9B9F99
3D5718EC
3C6D3522
BD587725
3C10214B
3DBC11E4
BBBF3387
BD46E3B4
BD7DAE82
3CB49386
3D3B6028
3D22D517
3CEAD4F6
BA8B75EA
BD4158FB
BD18EB89
3B900C52
BCCB72C5
BD1DF549
3D017764
3D1BC558
3C8828C3
BCBA29C7
BD2580C3
BC21D324
3C21C68F
3D2D1E11
BD03675E
BD3E2E6F
3BA91538
BD0ED6FE
3D3AECD0
BD38D0CC
3D48CA3E
3C7E7E20
3CC1743F
3AD306A3
BC6060FE
BD29AA1D
BD3C0A07
BC092EE8
BD325D4A
BD1DF97B
BC2D5BEE
BCEAC860
3CB0FF11
3C9C12F1
3D2D3309
3D702A35
3CD05F29
BB55842B
3BF86A0A
3C80E27E
BCF59253
3C8B0293
3C96030C
3C276D98
BB708462
BC305B7D
BD6771C9
BC9CB89D
BBCB6C7A
BB08722A
3C819F3C
3D043F60
BC0CB07D
BD1DFA87
3BD3F184
3C98201D
BC99E0E7
3CE82518
BD7709B7
BC446951
3B548883
BC168944
3B673605
BD333871
BC7AB10C
BAB827FA
3D844D01
BC15A294
3C0943E1
BC81C715
BD12439A
3CFA871A
BCB037D6
BD0FF002
3D107D91
BC832FCB
BD003687
3B1CE4A8
3B322079
BDA3F78C
3D52E621
3D43265B
BC806291
BD0FE586
BDAA62AA
BD97CAA7
BDADC098
BD817F41
3C885F4A
BC2FC8B0
BC945B6C
BCF9463D
BC4054EF
BD2A6D26
BCB1183B
BC1EC700
BC4C319C
BCAE0C17
BDCBEB5B
BD0E9920
3D0DF267
3AF6AD71
3DA16A48
3DF64F98
3D45CAB0
BC71B25F
3C7B3B75
BAAFE60C
BDAD2A20
BC008C82
3C5D0529
3BDB8349
BDC8CF7D
3DCEF241
3D9CCE1C
3D87BCC3
3DCBDDBA
3D852EF9
3D5271BD
3B6CFA6A
BD1F5169
BDB5A7D2
BDEF073A
BD3E963E
BCE583E8
BCA979E1
3C20E411
3D091D15
BD23A29C
3DB7279A
3D493D96
3C324E9C
3AA4E37A
BD0CE1C6
BD31140A
BD945F9E
BD92B5E5
BD394C88
3C0C21E2
BCEF2629
BBA2877F
3D3ECFEA
3CEA67E8
3D88F6CF
3C95D4E9
3D0B48D4
3D6D4D40
BBE84AD8
BD5E3971
BDA60FE4
BE078C87
BD69AD43
BD47E069
BDAA7610
3C9FD36F
3D84C943
BB6D6FDB
3B52B2C0
3CD02CD4
BB21BE2B
3CE1B8ED
BD0B9453
BD17CA21
BD22C775
BD038C11
BD0C069E
BBC6A3BE
3BF26289
3D8FA377
3C868124
BD8DE1A0
3C457E24
3D35BA2C
3C1E12A5
3AE8C8AC
3CAE4B02
3C591687
3CF16D2B
3BDA9867
3BAC4B4D
3D8B606B
3D75BE5E
BC2A044B
BD6EC8D6
BD96EBD5
3BC74320
3AE3EF28
BC96AAD2
3CA615A9
3D14E1A4
3D241B33
BC78444A
3CA6EDAB
3C254C55
3DAC93A7
3D7BF940
3C116873
BC675361
BC8ABB45
3CC6BCE8
3D12641B
3CA3E5B8
3D6DB50F
3D1D54DA
3D370DE9
BB16AAD2
BC05510D
BCFFB268
3D209891
3D13048A
B9638A7E
3D553155
3D3193F7
3D36390D
BCD5CD92
BCD60200
3D358E22
BB873366
BCE4C0DF
B95C3372
BD2E6EA8
BC147CFA
3CDDCE7D
3C7C371E
BD867D78
3CF2DA12
BC8B2420
BD073FFB
BCD69B17
3D3C2118
3D789C5E
3C8CC78F
BD4DF8B1
3D6FAD6D
3D1144CC
B96E06D9
3C90C910
BD13165D
3C5F3B64
3D2EF6F9
3B2ADA34
3C7B0D52
3D0D9D77
3D02ADC5
3D2965F5
BD4CDFAD
BD5BC87E
BC6A747E
BC7E4799
BCCDCCA7
BADF15A5
BD3A29C7
BB62D1F2
3D65F0F6
3BBC72E2
3D0372E7
3C9D8C6D
3D81248D
3D3720C9
39E410B6
BCC180D4
3BF70154
3D5EA466
3B9D5A18
BBFBCA10
BDA0FA9C
BC639F77
3D4FA58F
BB7EDE98
3BE09FE8
3C9BF9C6
3D062B28
3D074539
3D8C4E72
3C4CEE5B
3D5D3565
BB26DACB
BD7FF045
3B76AD71
BD78A8F4
BC876189
3D189DF1
3D1F42BB
3D37A80D
3C2109D0
3D064778
3D176DDB
BD1322F2
3B0F96E1
3D4FDD23
BD5D377E
BC579D0A
B9956C0D
BCABE8BC
BBB3CC4B
BD2EC7C9
3CAEE200
3C8E29FA
BCAFF4BA
3D3C6866
BC903212
3B0FD9FD
BC6B8D82
3A62C12B
3DA3914F
3D28D003
3D026BB5
39B78034
BC44F7EC
BD1888F8
BD260A20
3C11105E
BBE008EA
BC251A00
3B8AB4FA
3CA7CBF7
3CBB7B6C
3D93FC87
3D8E64B2
3BE2DA55
BCA7E953
3D24E161
BD298677
3D0753E7
3C6CAEEA
BC8DEB10
BD2EBB34
39999DCB
BD2849CB
BC3E09BB
3CFA11A9
3D1FC3B5
BC071E6D
3D058CD2
3D50F302
3D2BA27B
3CFA3550
3CAA044B
3D9A6E76
BC811F4F
BCF67F4E
BD09B62C
3D26C6DE
BCA73D5C
3D8199FE
BC74FD6D
3D80902E
3B289FC7
3BEBFEC1
3C0D690A
3C11FF71
BC554541
3DD65882
BCD1FC4C
BCD230BA
3B023854
BCA20579
3D0A8199
3CC827B7
39A393EE
BD21AE71
BCB9346A
BCC7D3D4
BD7687B1
BB82ADC5
BD06F9BA
3BB8066C
BCA3F466
BC3CE853
BCB94318
BB991FF7
3C9843C4
3D176146
3C67A744
3C634FC6
3BD740C4
3D4B3E57
BD020924
3CD6A7AD
398E1501
3A04A516
BC86099A
BC1EF0F1
3CB08FEB
3C0F4B62
3CFD32C6
3C9D084F
3BEB7026
3CC8FB87
3D65AAB4
BD26F1DC
BD167EC8
3B74D7AE
3C918C19
3D1E9E1B
3D0894C4
BCEE8F2A
3B5002E2
3C2CE67D
3D39841B
BCB95A29
BA982CB2
BD34D270
3D9ADC0A
3C31183B
BD6990F3
BCA6C3B9
BCA836EB
BCECFA6A
3C2BB44E
3C9E2585
BCA91969
3CC8F755
3A22CA9B
BBB8305E
BB0D3AE7
BC188D2A
BC88F649
3CB47410
BD2EC072
BD30C133
3B32FA94
3CCF13CF
BC276966
3BE5E679
BBBD87B5
3CDF82B2
BA7E4799
3C39389B
3CAB66B6
BCD9DFDB
3D215875
3C49F2FE
3B054CDB
3BCC1CA4
BC1F9CE9
3D046845
BCA14057
3D2E2004
3BD55A3A
BC570A3D
3C992642
3D05BAF5
3C9DC726
BCB28B6E
3A10B418
3BBF6E3F
3D1E6363
3D0BE511
BC548451
3D52B90A
3D7969E4
3C6A1405
3D49374C
3D355FFE
3D72B021
3C2C6CDB
3D0B966C
3C753826
BBCD63CC
BAF0A5F0
3CDC24C4
BC6221C9
3C4A31E8
3CF2A7BD
3CEB28D8
3BFE79EE
BB7A0514
BCEB7889
3CBDFD26
3CDDAF08
3B1D5A18
3CF5FF61
3C3380CB
BD310668
BD22845A
BA688590
3BA1272D
3D1F383F
3D3C6434
3D1846E9
3D0E4A7B
BC95E5B0
3A1E98DD
3D3301EB
BBDAE3E7
3D440075
3C3EF06B
3C9D3ED5
BBBDC26E

